<pad> 100
<file> 100
<chunk> 100
<nl> 100
<add> 100
<del> 100
<url> 100
<num> 100
<ref> 100
<sha> 100
in 100
er 100
on 100
re 100
se 100
or 100
st 100
at 100
▁t 100
▁c 100
en 100
▁a 100
de 100
▁f 100
▁i 100
le 100
▁= 100
al 100
ar 100
ro 100
▁p 100
ion 100
it 100
an 100
me 100
▁s 100
he 100
ct 100
ss 100
mp 100
ge 100
▁n 100
lo 100
la 100
▁re 100
ut 100
lf 100
ing 100
self 100
): 100
▁' 100
ce 100
li 100
ur 100
▁in 100
▁d 100
▁b 100
ort 100
▁de 100
▁o 100
ent 100
un 100
-- 100
▁m 100
ck 100
ed 100
ex 100
▁" 100
▁the 100
ra 100
▁w 100
co 100
il 100
py 100
est 100
id 100
ame 100
ad 100
ate 100
▁def 100
mport 100
▁# 100
ot 100
▁self 100
di 100
pt 100
pe 100
▁import 100
fi 100
con 100
▁to 100
ch 100
rom 100
ri 100
▁v 100
▁( 100
', 100
▁if 100
ul 100
is 100
▁an 100
lass 100
▁from 100
ke 100
ers 100
() 100
th 100
get 100
▁for 100
up 100
set 100
▁e 100
age 100
▁- 100
ata 100
▁h 100
▁class 100
as 100
▁st 100
ect 100
us 100
mo 100
um 100
ation 100
ue 100
▁co 100
__ 100
▁{ 100
ble 100
lin 100
▁th 100
▁and 100
=" 100
ve 100
one 100
▁con 100
name 100
qu 100
do 100
▁is 100
urn 100
(' 100
▁< 100
turn 100
') 100
ter 100
log 100
▁[ 100
▁g 100
▁fi 100
---- 100
▁return 100
ma 100
ult 100
▁test 100
▁of 100
to 100
es 100
ext 100
ta 100
ase 100
all 100
▁1 100
▁` 100
end 100
tr 100
el 100
sp 100
ath 100
▁* 100
ack 100
ol 100
)) 100
00 100
ver 100
== 100
gs 100
ype 100
vi 100
ith 100
and 100
ption 100
ig 100
int 100
ction 100
", 100
for 100
▁} 100
ew 100
▁ex 100
bo 100
data 100
sh 100
art 100
key 100
iz 100
err 100
▁li 100
ip 100
▁r 100
ject 100
ub 100
': 100
'] 100
▁not 100
ser 100
pp 100
▁ad 100
(" 100
et 100
der 100
pro 100
out 100
▁mo 100
▁py 100
▁== 100
error 100
ht 100
am 100
▁+ 100
form 100
▁do 100
ersion 100
▁| 100
ment 100
▁. 100
so 100
▁% 100
ert 100
che 100
[' 100
▁se 100
ho 100
po 100
lay 100
put 100
if 100
able 100
ist 100
▁ma 100
▁_ 100
0. 100
test 100
du 100
ob 100
mm 100
▁x 100
▁or 100
), 100
im 100
▁tr 100
▁u 100
▁me 100
ass 100
fig 100
ime 100
line 100
▁name 100
ange 100
▁un 100
port 100
type 100
▁pro 100
les 100
▁add 100
path 100
▁this 100
sc 100
▁2 100
thon 100
ces 100
ure 100
url 100
▁l 100
▁y 100
str 100
._ 100
▁as 100
▁none 100
val 100
args 100
ep 100
op 100
▁with 100
ug 100
▁be 100
ic 100
no 100
▁/ 100
user 100
add 100
▁set 100
▁data 100
▁ch 100
▁on 100
fa 100
date 100
ll 100
ity 100
</ 100
ly 100
ize 100
low 100
") 100
load 100
-------- 100
tri 100
alse 100
text 100
ds 100
fo 100
ger 100
▁"" 100
ml 100
▁get 100
▁0 100
lic 100
▁log 100
ard 100
te 100
▁inst 100
▁so 100
del 100
ite 100
but 100
pre 100
▁-- 100
▁ass 100
ang 100
ust 100
▁at 100
▁wh 100
loc 100
unt 100
wor 100
sult 100
ff 100
ant 100
ils 100
▁""" 100
▁__ 100
], 100
nt 100
▁che 100
mmand 100
mple 100
ms 100
ans 100
▁ar 100
▁val 100
js 100
sour 100
▁sy 100
ance 100
▁fix 100
object 100
da 100
▁: 100
ire 100
per 100
row 100
▁no 100
▁yo 100
version 100
ctor 100
tra 100
ript 100
▁that 100
▁assert 100
▁el 100
fil 100
▁we 100
inst 100
config 100
od 100
▁en 100
file 100
list 100
▁check 100
ns 100
▁up 100
app 100
back 100
time 100
base 100
ument 100
▁else 100
▁$ 100
(): 100
ash 100
ive 100
▁it 100
code 100
▁new 100
▁use 100
wn 100
rint 100
true 100
ok 100
▁> 100
ign 100
ind 100
ise 100
** 100
ir 100
pa 100
▁.. 100
none 100
"> 100
]) 100
cre 100
dule 100
▁str 100
quest 100
uil 100
iv 100
lib 100
▁file 100
atch 100
om 100
cur 100
div 100
init 100
link 100
▁\ 100
ary 100
nect 100
read 100
ssage 100
dir 100
ies 100
wid 100
ator 100
▁list 100
ptions 100
gra 100
ault 100
start 100
▁default 100
); 100
ca 100
ated 100
min 100
▁version 100
cess 100
vent 100
[0 100
doc 100
▁`` 100
▁by 100
lock 100
size 100
pi 100
▁q 100
par 100
ging 100
json 100
ning 100
rent 100
ari 100
col 100
▁tra 100
pen 100
vice 100
python 100
cl 100
▁3 100
▁os 100
▁run 100
model 100
string 100
). 100
=' 100
==== 100
01 100
1. 100
ial 100
cont 100
unction 100
0, 100
ph 100
▁j 100
ded 100
lit 100
▁fa 100
info 100
view 100
▁pre 100
▁python 100
sa 100
▁al 100
▁print 100
▁value 100
mb 100
led 100
arch 100
comp 100
state 100
tribut 100
dex 100
ens 100
▁ob 100
▁ra 100
▁false 100
▁result 100
db 100
ify 100
red 100
use 100
▁sc 100
ill 100
sub 100
▁ho 100
format 100
▁install 100
": 100
:: 100
]( 100
arg 100
▁** 100
▁im 100
▁open 100
▁path 100
`` 100
mat 100
▁bo 100
with 100
mi 100
fer 100
run 100
vis 100
▁key 100
ssion 100
▁comp 100
layout 100
upport 100
▁config 100
## 100
]. 100
pla 100
rst 100
▁</ 100
thod 100
▁doc 100
▁exce 100
ab 100
ask 100
ker 100
board 100
2. 100
nel 100
▁ser 100
class 100
▁true 100
ackage 100
md 100
ps 100
xt 100
▁@ 100
ute 100
edit 100
html 100
main 100
▁are 100
count 100
filter 100
ber 100
eed 100
ght 100
ner 100
case 100
ting 100
false 100
▁error 100
▁image 100
>< 100
qt 100
lab 100
und 100
▁ht 100
cket 100
▁cre 100
▁url 100
▁you 100
source 100
ac 100
ere 100
ifi 100
uth 100
roid 100
value 100
command 100
▁change 100
av 100
os 100
sy 100
ws 100
hel 100
▁le 100
▁end 100
▁out 100
quire 100
eld 100
ong 100
stat 100
▁can 100
▁len 100
▁sub 100
input 100
utils 100
▁make 100
▁type 100
ark 100
ors 100
roup 100
▁par 100
connect 100
1, 100
we 100
ery 100
cker 100
rect 100
import 100
▁raise 100
cen 100
ols 100
ory 100
win 100
ango 100
▁dis 100
▁ent 100
▁user 100
▁android 100
lat 100
reg 100
host 100
lect 100
check 100
ition 100
jango 100
lient 100
gr 100
kw 100
from 100
▁int 100
▁cont 100
ron 100
▁%} 100
attr 100
pect 100
root 100
▁read 100
script 100
num 100
▁pa 100
▁sh 100
uild 100
word 100
▁sho 100
place 100
▁option 100
fe 100
▁) 100
uld 100
▁arg 100
▁col 100
▁base 100
---------------- 100
3. 100
ave 100
def 100
ins 100
iter 100
▁message 100
act 100
lug 100
work 100
▁cal 100
arning 100
module 100
▁command 100
ai 100
ry 100
000 100
mpy 100
pos 100
ray 100
sha 100
dict 100
qual 100
▁app 100
split 100
widget 100
-1 100
▁us 100
head 100
iner 100
move 100
ments 100
▁time 100
action 100
▁update 100
tp 100
fix 100
0000 100
fault 100
ignal 100
lable 100
local 100
▁function 100
27 100
▁4 100
mpl 100
not 100
ible 100
trans 100
kwargs 100
default 100
ashboard 100
"] 100
ux 100
__( 100
dim 100
the 100
txt 100
▁id 100
▁po 100
▁}} 100
ener 100
loat 100
▁fil 100
▁per 100
files 100
ustom 100
rowser 100
server 100
assword 100
ql 100
▁! 100
cho 100
len 100
mit 100
ref 100
exce 100
spon 100
▁lib 100
▁when 100
sources 100
cd 100
my 100
wa 100
()) 100
dis 100
fra 100
ore 100
▁vi 100
play 100
tern 100
equal 100
▁start 100
10 100
ft 100
px 100
env 100
res 100
▁>> 100
node 100
▁pip 100
output 100
content 100
▁create 100
clu 100
ine 100
▁try 100
label 100
result 100
search 100
install 100
request 100
▁object 100
64 100
man 100
▁te 100
ager 100
ight 100
itle 100
nder 100
onent 100
▁text 100
▁django 100
▁method 100
\\ 100
io 100
ui 100
gth 100
zer 100
sens 100
▁all 100
abled 100
▁will 100
▁trans 100
tribute 100
▁string 100
[1 100
ng 100
{{ 100
~~ 100
▁qu 100
▁your 100
ations 100
▁require 100
25 100
og 100
{} 100
pend 100
ress 100
lease 100
▁main 100
assert 100
sponse 100
▁tests 100
▁support 100
ag 100
bin 100
cor 100
she 100
ull 100
help 100
ream 100
annel 100
array 100
ctory 100
image 100
table 100
▁request 100
([ 100
ler 100
sum 100
▁+= 100
▁la 100
ence 100
mark 100
scri 100
▁ext 100
▁has 100
▁wor 100
ector 100
ename 100
group 100
shape 100
valid 100
▁float 100
▁argument 100
"" 100
by 100
nd 100
ne 100
ift 100
pec 100
sed 100
▁ab 100
conf 100
mail 100
orage 100
▁have 100
status 100
[0] 100
lot 100
mod 100
▁// 100
mode 100
roll 100
ster 100
ffset 100
order 100
▁code 100
create 100
mplate 100
dataset 100
instance 100
bu 100
▁] 100
new 100
pto 100
▁(' 100
▁cl 100
▁su 100
▁sys 100
block 100
frame 100
shift 100
▁back 100
models 100
▁licen 100
▁order 100
browser 100
ization 100
${ 100
ec 100
xy 100
'): 100
down 100
▁... 100
▁act 100
tings 100
ailable 100
▁except 100
.0 100
nc 100
""" 100
umn 100
▁'' 100
▁np 100
comm 100
tric 100
linux 100
lugin 100
======== 100
▁context 100
amp 100
box 100
dow 100
mix 100
oin 100
pip 100
spa 100
▁!= 100
▁1, 100
▁av 100
▁di 100
ally 100
auth 100
elds 100
ther 100
▁web 100
ining 100
▁need 100
change 100
direct 100
▁model 100
message 100
▁output 100
▁document 100
▁optional 100
ty 100
']) 100
dev 100
map 100
rap 100
ton 100
web 100
cent 100
▁any 100
▁see 100
conda 100
login 100
right 100
store 100
▁work 100
ension 100
offset 100
▁input 100
ariable 100
▁license 100
component 100
.. 100
dp 100
of 100
')) 100
></ 100
bot 100
ich 100
leg 100
oid 100
orm 100
unc 100
▁sp 100
▁{% 100
core 100
prop 100
argin 100
point 100
▁stat 100
▁setup 100
lication 100
▁package 100
▁project 100
scription 100
24 100
ap 100
▁k 100
(). 100
dom 100
rix 100
vel 100
▁{{ 100
rapp 100
step 100
▁>>> 100
▁cur 100
▁fla 100
admin 100
param 100
▁args 100
▁hand 100
▁like 100
ersist 100
scripts 100
▁logger 100
testcase 100
▁dashboard 100
▁openshift 100
++ 100
// 100
86 100
=1 100
exp 100
let 100
▁([ 100
▁lo 100
▁si 100
==0. 100
angu 100
apps 100
mbda 100
open 100
unit 100
▁bot 100
▁dif 100
▁mod 100
icode 100
width 100
▁echo 100
▁line 100
▁only 100
▁index 100
anguage 100
logging 100
replace 100
50 100
▁& 100
img 100
pri 100
ran 100
try 100
var 100
cond 100
rite 100
sche 100
ssue 100
clude 100
conta 100
ribut 100
tails 100
▁copy 100
▁into 100
▁over 100
▁pass 100
▁step 100
client 100
update 100
▁build 100
▁inter 100
manager 100
package 100
▁server 100
▁should 100
ak 100
cp 100
oc 100
ud 100
}} 100
'), 100
.__ 100
bug 100
ken 100
lif 100
png 100
ste 100
▁[' 100
▁cf 100
▁{} 100
task 100
ature 100
index 100
▁dist 100
▁http 100
▁note 100
▁oper 100
height 100
▁other 100
section 100
▁module 100
▁logging 100
-0 100
be 100
sk 100
ail 100
clo 100
enc 100
▁ac 100
curs 100
ific 100
iled 100
join 100
orig 100
rary 100
tags 100
▁mat 100
▁min 100
▁net 100
▁num 100
event 100
query 100
▁json 100
▁const 100
▁using 100
▁valid 100
service 100
session 100
password 100
resources 100
▁attribute 100
▁isinstance 100
(( 100
`. 100
(), 100
lex 100
mot 100
▁0. 100
disp 100
util 100
▁fol 100
▁res 100
▁elif 100
▁init 100
▁link 100
▁some 100
▁then 100
append 100
expect 100
roller 100
▁block 100
channel 100
▁custom 100
▁readme 100
▁remove 100
▁script 100
▁signal 100
▁connect 100
23 100
bl 100
ib 100
▁5 100
api 100
ont 100
rep 100
ual 100
uid 100
yml 100
▁## 100
▁[] 100
▁ol 100
#### 100
call 100
page 100
▁man 100
items 100
length 100
metric 100
select 100
stream 100
▁added 100
▁files 100
function 100
▁instance 100
1) 100
:` 100
gl 100
ru 100
ys 100
"); 100
net 100
ses 100
▁ro 100
ches 100
dist 100
edge 100
find 100
lean 100
▁now 100
▁var 100
ample 100
arget 100
▁auth 100
▁call 100
▁find 100
▁spec 100
▁unit 100
▁event 100
▁state 100
▁where 100
'. 100
8. 100
[" 100
`_ 100
eg 100
fs 100
td 100
bar 100
keh 100
lob 100
org 100
tom 100
uri 100
ush 100
▁wa 100
duct 100
lete 100
vert 100
viron 100
▁date 100
▁dire 100
▁load 100
▁more 100
▁sort 100
number 100
prefix 100
options 100
▁client 100
▁options 100
components 100
32 100
4. 100
97 100
pk 100
")) 100
0.1 100
ain 100
cli 100
nip 100
pub 100
tad 100
▁ca 100
▁fo 100
ding 100
post 100
umpy 100
uple 100
field 100
ility 100
ivity 100
round 100
uture 100
▁used 100
runner 100
tadata 100
values 100
latform 100
lection 100
▁follow 100
▁socket 100
location 100
settings 100
▁checksection 100
({ 100
11 100
47 100
cu 100
ts 100
{% 100
86_ 100
ode 100
ree 100
▁${ 100
▁(" 100
▁0, 100
▁sk 100
▁{' 100
book 100
oper 100
ters 100
▁reg 100
▁ver 100
cover 100
dules 100
gener 100
inter 100
layer 100
names 100
tools 100
▁dict 100
▁href 100
window 100
▁allow 100
▁depend 100
▁differ 100
▁format 100
▁include 100
▁process 100
▁unicode 100
▁documentation 100
dl 100
asc 100
den 100
ous 100
ync 100
cope 100
ffer 100
less 100
nore 100
stru 100
uble 100
upto 100
velo 100
▁old 100
▁pub 100
▁win 100
build 100
ilure 100
tests 100
▁edit 100
▁host 100
▁bokeh 100
▁gener 100
▁title 100
▁which 100
uptools 100
▁entity 100
▁export 100
▁filter 100
99 100
cc 100
}/ 100
'], 100
aug 100
mbo 100
tab 100
ume 100
uto 100
yle 100
func 100
hand 100
hash 100
hint 100
izer 100
push 100
▁201 100
▁bin 100
▁pat 100
▁ran 100
light 100
range 100
▁does 100
▁size 100
legend 100
mbolic 100
method 100
context 100
current 100
modules 100
process 100
project 100
warning 100
▁action 100
▁fields 100
exception 100
▁response 100
exceptions 100
2, 100
5, 100
60 100
ax 100
lt 100
dif 100
git 100
gui 100
▁db 100
▁pi 100
ider 100
ined 100
plot 100
rate 100
span 100
temp 100
umns 100
▁api 100
▁but 100
▁clo 100
▁cmd 100
const 100
mixin 100
yment 100
▁part 100
▁port 100
▁sour 100
▁task 100
▁view 100
matrix 100
option 100
rapper 100
region 100
▁fixed 100
▁issue 100
imports 100
sensors 100
▁current 100
▁storage 100
connection 100
▁following 100
description 100
tz 100
wh 100
ell 100
rop 100
sql 100
▁bu 100
▁ta 100
buil 100
dial 100
gram 100
last 100
left 100
logs 100
reen 100
rout 100
stro 100
▁lin 100
▁one 100
▁sin 100
print 100
proxy 100
▁html 100
▁mult 100
▁same 100
column 100
common 100
render 100
signal 100
▁local 100
actions 100
uration 100
▁docker 100
▁number 100
ariables 100
filename 100
resource 100
controller 100
5. 100
6, 100
^^ 100
pg 100
}" 100
}, 100
her 100
job 100
max 100
obj 100
ods 100
tmp 100
▁[" 100
▁go 100
▁ip 100
▁}, 100
.""" 100
bind 100
keep 100
▁'__ 100
▁she 100
▁}}" 100
debug 100
graph 100
ities 100
level 100
otify 100
space 100
sumer 100
track 100
velop 100
write 100
▁attr 100
▁cdef 100
▁form 100
▁home 100
▁mode 100
entity 100
kernel 100
travis 100
▁field 100
ascript 100
▁contin 100
▁lambda 100
▁status 100
▁newline 100
▁release 100
▁arguments 100
▁available 100
(* 100
(_ 100
/\ 100
80 100
ie 100
su 100
__. 100
als 100
eps 100
geo 100
mon 100
que 100
tes 100
▁"/ 100
▁ng 100
[0]. 100
alar 100
docs 100
fore 100
icon 100
ings 100
item 100
mote 100
ract 100
sert 100
tpre 100
valu 100
~~~~ 100
▁''' 100
▁bit 100
▁sql 100
▁tox 100
grade 100
ister 100
stack 100
token 100
▁help 100
▁pyqt 100
comple 100
custom 100
device 100
docker 100
entifi 100
plugin 100
▁group 100
▁table 100
support 100
▁expect 100
▁random 100
▁vector 100
▁content 100
▁display 100
container 100
▁activity 100
------------ 100
*) 100
9. 100
=[ 100
={ 100
ls 100
**2 100
:// 100
>`_ 100
bit 100
com 100
inx 100
rip 100
▁10 100
▁2, 100
dims 100
face 100
liho 100
lish 100
sent 100
tool 100
ummy 100
used 100
▁abo 100
▁ans 100
▁aws 100
▁env 100
▁exp 100
▁git 100
▁imp 100
▁wal 100
allow 100
ative 100
parse 100
pyder 100
▁feed 100
▁flow 100
▁page 100
helper 100
master 100
sensor 100
socket 100
vector 100
▁range 100
▁under 100
propert 100
▁comple 100
▁source 100
00000000 100
template 100
tributes 100
▁persist 100
▁without 100
anization 100
▁continue 100
▁required 100
▁distribut 100
/* 100
34 100
35 100
49 100
bm 100
rc 100
▁z 100
... 100
.0. 100
ami 100
are 100
enu 100
gas 100
ile 100
jpg 100
nap 100
ved 100
wit 100
▁-1 100
▁-> 100
▁fe 100
▁ig 100
▁mi 100
▁ne 100
dows 100
inte 100
ites 100
stop 100
ware 100
▁bas 100
▁cho 100
▁cli 100
▁lat 100
▁pla 100
match 100
older 100
title 100
unter 100
uster 100
▁mock 100
cursor 100
dialog 100
future 100
remove 100
▁defer 100
details 100
environ 100
handler 100
objects 100
require 100
timeout 100
▁search 100
▁spyder 100
callback 100
mplement 100
▁dataset 100
ification 100
▁template 100
)] 100
12 100
33 100
>= 100
yp 100
="$ 100
mpt 100
pol 100
raw 100
sho 100
spe 100
ssl 100
tag 100
unk 100
utf 100
▁"$ 100
▁&& 100
▁1. 100
flow 100
grid 100
home 100
ical 100
lave 100
menu 100
rule 100
this 100
zero 100
alled 100
dummy 100
ingle 100
ithub 100
mount 100
ranch 100
swith 100
uning 100
▁char 100
▁must 100
▁sudo 100
▁void 100
arange 100
ariant 100
cename 100
▁conta 100
▁dtype 100
▁sympy 100
storage 100
widgets 100
▁margin 100
▁public 100
▁pytest 100
▁verify 100
▁example 100
▁network 100
▁payment 100
▁perform 100
▁results 100
▁service 100
avascript 100
▁expected 100
▁exception 100
#4 100
0) 100
:% 100
cv 100
gn 100
ja 100
si 100
sv 100
tn 100
▁8 100
'). 100
(); 100
[-1 100
ach 100
cha 100
dit 100
mac 100
war 100
▁xp 100
▁|| 100
cart 100
diff 100
ency 100
inal 100
long 100
loss 100
make 100
mpeg 100
pack 100
pool 100
ride 100
rows 100
safe 100
sign 100
stem 100
zone 100
▁bug 100
▁cls 100
▁cor 100
▁tag 100
▁vol 100
ating 100
cache 100
chart 100
ormal 100
rappe 100
▁case 100
▁down 100
▁glob 100
▁head 100
▁iter 100
▁sche 100
▁todo 100
▁wait 100
amples 100
button 100
istant 100
margin 100
▁async 100
▁first 100
▁flask 100
▁limit 100
library 100
▁frappe 100
language 100
training 100
unittest 100
▁address 100
▁ansible 100
▁testing 100
available 100
dashboard 100
keyprefix 100
▁password 100
------------- 100
87 100
pc 100
rl 100
rt 100
tc 100
"], 100
][' 100
acy 100
ead 100
ids 100
ipy 100
kit 100
lev 100
rit 100
sma 100
tot 100
▁dt 100
▁ss 100
▁tw 100
fter 100
loop 100
oser 100
save 100
ward 100
▁cfg 100
▁eng 100
▁max 100
27.0. 100
ccess 100
conds 100
ensor 100
idden 100
sheet 100
thing 100
vious 100
▁buil 100
▁conf 100
▁edge 100
▁hist 100
▁jail 100
▁keep 100
▁meta 100
▁show 100
reddit 100
ternal 100
▁parse 100
▁redis 100
address 100
ptuning 100
spotify 100
▁called 100
▁length 100
▁select 100
▁values 100
27.0.0.1 100
download 100
entifier 100
▁develop 100
▁warning 100
assistant 100
condition 100
▁language 100
▁spyderlib 100
================ 100
,* 100
28 100
[: 100
ci 100
ks 100
']. 100
../ 100
1.2 100
201 100
has 100
ics 100
old 100
ony 100
pid 100
▁3. 100
▁ag 100
▁ff 100
▁ms 100
ests 100
exec 100
http 100
keys 100
lear 100
site 100
tect 100
▁"{{ 100
▁``` 100
▁abs 100
▁bad 100
▁let 100
▁mar 100
▁may 100
▁pri 100
▁spa 100
▁sup 100
▁ter 100
nippe 100
types 100
vider 100
▁comm 100
▁exit 100
▁here 100
▁long 100
▁mark 100
▁prop 100
atures 100
insert 100
target 100
▁batch 100
▁count 100
▁found 100
▁named 100
▁param 100
▁provi 100
columns 100
enabled 100
wrapper 100
▁binary 100
▁column 100
▁master 100
▁parser 100
argument 100
consumer 100
datetime 100
onelogin 100
username 100
▁changed 100
▁cmdargs 100
▁correct 100
▁counter 100
▁pattern 100
supported 100
▁filename 100
▁likeliho 100
▁metadata 100
▁requests 100
setuptools 100
▁directory 100
application 100
▁collection 100
▁connection 100
▁dockerfile 100
▁valueerror 100
▁requirements 100
". 100
/( 100
40 100
=$ 100
gi 100
ha 100
lu 100
(0, 100
))) 100
00, 100
="@ 100
ale 100
ars 100
non 100
nor 100
ops 100
pkg 100
sli 100
sys 100
▁"\ 100
▁'. 100
▁ph 100
▁qt 100
'][' 100
==1. 100
cook 100
cret 100
ctrl 100
dire 100
dout 100
enco 100
fire 100
ices 100
ield 100
ling 100
mult 100
pose 100
sequ 100
tion 100
ured 100
▁apt 100
▁bre 100
▁com 100
▁dim 100
▁ioc 100
▁msg 100
▁upd 100
▁wid 100
actor 100
color 100
ctype 100
erals 100
estim 100
iator 100
limit 100
links 100
rypto 100
shell 100
style 100
thods 100
users 100
▁docs 100
▁pack 100
▁sens 100
▁site 100
▁skip 100
equals 100
failed 100
inline 100
params 100
prompt 100
tation 100
termin 100
thread 100
vision 100
▁numpy 100
▁scope 100
▁train 100
▁utils 100
changed 100
ensions 100
ference 100
helpers 100
persist 100
pexpect 100
seconds 100
▁double 100
▁report 100
▁travis 100
▁upload 100
literals 100
operator 100
response 100
▁returns 100
▁customer 100
▁location 100
startswith 100
(1 100
-8 100
-9 100
17 100
20 100
59 100
]: 100
dy 100
zz 100
*,* 100
:\\ 100
agr 100
any 100
bab 100
etc 100
fla 100
igh 100
sen 100
sig 100
xml 100
▁>= 100
▁ec 100
")), 100
==2. 100
amer 100
desc 100
expr 100
iven 100
okup 100
pair 100
reat 100
stor 100
trib 100
unds 100
vers 100
▁ele 100
▁how 100
▁vis 100
alive 100
bject 100
email 100
enter 100
pache 100
relev 100
shard 100
spath 100
theme 100
tocol 100
zeros 100
▁addr 100
▁also 100
▁exec 100
▁font 100
▁play 100
▁post 100
▁sequ 100
adding 100
agrant 100
andard 100
bottom 100
define 100
header 100
lation 100
return 100
schema 100
stract 100
tzinfo 100
▁linux 100
▁shell 100
▁tuple 100
account 100
builder 100
factory 100
mission 100
product 100
reenode 100
valuate 100
▁failed 100
▁multip 100
▁params 100
▁plugin 100
▁simple 100
▁stream 100
######## 100
▁changes 100
▁details 100
▁failure 100
▁general 100
▁ipython 100
▁library 100
▁product 100
▁working 100
▁datetime 100
▁platform 100
▁127.0.0.1 100
'} 100
18 100
2) 100
29 100
3* 100
3, 100
aw 100
df 100
fp 100
go 100
ze 100
)), 100
.') 100
:`~ 100
boo 100
bro 100
ful 100
ian 100
now 100
opt 100
req 100
rid 100
sam 100
std 100
top 100
}}` 100
▁". 100
▁(` 100
▁0) 100
blur 100
bust 100
copy 100
erge 100
ized 100
jail 100
like 100
mary 100
mory 100
ongo 100
ular 100
vate 100
very 100
wner 100
▁cat 100
▁got 100
▁job 100
▁non 100
▁obj 100
▁org 100
▁rep 100
▁ssl 100
close 100
olute 100
other 100
ptcha 100
ready 100
ssing 100
stamp 100
story 100
tuple 100
uring 100
ution 100
▁bool 100
▁flex 100
▁info 100
▁news 100
▁remo 100
▁uuid 100
center 100
depend 100
extend 100
graphy 100
hidden 100
images 100
imgaug 100
logger 100
report 100
▁about 100
▁admin 100
▁bytes 100
▁email 100
▁impro 100
▁place 100
▁proxy 100
▁scipy 100
▁still 100
integer 100
results 100
upgrade 100
▁device 100
▁handle 100
▁kernel 100
▁models 100
▁parent 100
▁reload 100
▁target 100
platform 100
relevant 100
▁channel 100
▁hasattr 100
attribute 100
distribut 100
struction 100
variables 100
▁callable 100
▁commands 100
▁unittest 100
identifier 100
utebrowser 100
▁different 100
ryptography 100
▁homeassistant 100
"; 100
1' 100
57 100
=/ 100
>\ 100
][ 100
`: 100
sb 100
sm 100
▁? 100
('/ 100
200 100
=1, 100
==2 100
cal 100
dri 100
fin 100
gcd 100
gex 100
irt 100
nta 100
rbm 100
rin 100
rol 100
sdl 100
tip 100
ven 100
wer 100
xis 100
▁$( 100
▁0: 100
▁1) 100
▁]; 100
▁da 100
▁my 100
"></ 100
++++ 100
==8. 100
[0], 100
[1], 100
addr 100
ared 100
body 100
bole 100
dump 100
gger 100
imal 100
itor 100
mous 100
mpty 100
otes 100
part 100
prec 100
send 100
show 100
univ 100
▁dat 100
▁eax 100
▁eps 100
▁exc 100
▁off 100
▁sph 100
▁war 100
▁}); 100
ables 100
alloc 100
allpa 100
cause 100
extra 100
ified 100
lower 100
numpy 100
train 100
▁(`#4 100
▁2000 100
▁auto 100
▁axis 100
▁cell 100
▁soft 100
▁than 100
ariate 100
buffer 100
curacy 100
curity 100
delete 100
django 100
errors 100
fields 100
lambda 100
lastic 100
lector 100
pboard 100
robust 100
▁after 100
▁break 100
▁clean 100
▁exist 100
▁extra 100
▁super 100
▁yield 100
==8.1.2 100
filters 100
onymous 100
routing 100
▁ignore 100
▁prefix 100
▁recent 100
▁render 100
▁single 100
▁sorted 100
▁sphinx 100
dispatch 100
internal 100
property 100
rotation 100
symbolic 100
▁defined 100
▁instead 100
▁methods 100
formation 100
▁absolute 100
▁composer 100
▁defaults 100
▁multiple 100
▁override 100
▁previous 100
▁settings 100
▁software 100
▁symbolic 100
▁testcase 100
▁training 100
univariate 100
▁copyright 100
lasticsearch 100
/' 100
13 100
19 100
2_ 100
53 100
6. 100
7. 100
\' 100
`, 100
ia 100
lc 100
na 100
▁6 100
',' 100
--- 100
-03 100
/</ 100
alg 100
cdf 100
cls 100
dst 100
hed 100
ice 100
ide 100
isc 100
ket 100
lux 100
mar 100
pat 100
uch 100
zip 100
▁() 100
▁1: 100
▁2. 100
▁=> 100
▁cy 100
▁fp 100
**** 100
="10 100
>=1. 100
auto 100
cast 100
cept 100
dest 100
ench 100
ense 100
hook 100
imer 100
kern 100
lime 100
mock 100
nums 100
only 100
opub 100
over 100
prog 100
raph 100
shot 100
spec 100
wait 100
▁"${ 100
▁"-- 100
▁("% 100
▁([# 100
▁**9 100
▁=== 100
▁fin 100
▁gui 100
▁put 100
amera 100
ather 100
batch 100
first 100
inner 100
isnip 100
jails 100
lines 100
route 100
▁chef 100
▁cond 100
▁each 100
▁full 100
▁lock 100
▁null 100
▁save 100
ground 100
ignore 100
irange 100
parent 100
peline 100
remote 100
stropy 100
▁array 100
▁chart 100
▁edges 100
▁entry 100
▁fixes 100
▁given 100
▁lines 100
▁polic 100
▁query 100
▁unset 100
▁write 100
augment 100
failure 100
general 100
ndarray 100
nippets 100
sublime 100
ventory 100
visible 100
▁before 100
▁delete 100
▁editor 100
▁ffmpeg 100
▁matrix 100
▁modgcd 100
▁parame 100
▁please 100
▁wallet 100
▁window 100
expected 100
hostname 100
metadata 100
packages 100
redirect 100
register 100
ultisnip 100
▁initial 100
▁manager 100
▁objects 100
▁replace 100
▁restart 100
▁updated 100
directory 100
tracename 100
connecting 100
mplemented 100
▁changelog 100
▁installed 100
▁127.0.0.1: 100
▁attributes 100
▁description 100
▁development 100
▁organization 100
14 100
16 100
68 100
89 100
\. 100
cy 100
eq 100
gg 100
pb 100
}- 100
"), 100
("- 100
/{} 100
0-9 100
=", 100
=$( 100
](# 100
_00 100
arf 100
aws 100
ban 100
chk 100
cla 100
cpu 100
ear 100
ech 100
hes 100
ick 100
neg 100
opp 100
plo 100
qrt 100
shm 100
ted 100
tox 100
ump 100
wal 100
yes 100
▁'% 100
▁0; 100
▁cp 100
▁gl 100
▁io 100
/'), 100
>`_) 100
^^^^ 100
arly 100
ateg 100
chan 100
cuda 100
dify 100
drop 100
eded 100
ends 100
etch 100
fice 100
geom 100
medi 100
noul 100
peri 100
reet 100
regs 100
samp 100
tail 100
venv 100
▁1), 100
▁_(" 100
▁don 100
▁err 100
▁ite 100
▁map 100
▁pep 100
▁ref 100
▁sso 100
▁tri 100
▁via 100
blend 100
dicts 100
ences 100
entry 100
exist 100
ivate 100
regex 100
scope 100
total 100
trade 100
vices 100
▁best 100
▁conn 100
▁grep 100
▁inte 100
▁loop 100
▁stri 100
▁sure 100
▁take 100
▁tran 100
▁want 100
access 100
arsnap 100
domain 100
double 100
encode 100
github 100
httpre 100
legate 100
native 100
noulli 100
random 100
verify 100
▁avoid 100
▁basic 100
▁could 100
▁cover 100
▁decor 100
▁elect 100
▁fails 100
▁noset 100
▁point 100
▁right 100
▁store 100
▁there 100
▁track 100
ansible 100
astropy 100
ational 100
contact 100
contrib 100
created 100
cursive 100
display 100
doctype 100
encoder 100
samples 100
tection 100
▁httpre 100
▁normal 100
▁qubole 100
▁second 100
▁unused 100
▁urllib 100
customer 100
iterator 100
periment 100
provider 100
shmallow 100
▁because 100
▁cluster 100
▁enabled 100
▁httpchk 100
▁windows 100
==8.1.2", 100
connected 100
▁endpoint 100
▁messages 100
▁newsblur 100
▁packages 100
▁redirect 100
▁validate 100
▁versions 100
directcode 100
marginleft 100
metricname 100
▁nosetests 100
classmethod 100
routingrule 100
▁exceptions 100
▁qutebrowser 100
▁unsupported 100
classification 100
keyprefixequals 100
httpredirectcode 100
'' 100
'; 100
($ 100
-% 100
1" 100
1: 100
3_ 100
75 100
90 100
:\ 100
]; 100
mk 100
np 100
nu 100
rm 100
yo 100
)): 100
1.0 100
="# 100
[1] 100
ast 100
cum 100
exc 100
fit 100
gin 100
ily 100
msg 100
ped 100
pep 100
sel 100
tty 100
vre 100
}), 100
▁'- 100
▁), 100
▁_` 100
▁pe 100
▁pr 100
▁qs 100
▁}; 100
bose 100
ched 100
duce 100
feed 100
gest 100
hist 100
lack 100
lint 100
next 100
nmap 100
pass 100
pers 100
slug 100
uted 100
wrap 100
▁ber 100
▁cla 100
▁dev 100
▁gnu 100
▁loc 100
▁opt 100
▁ord 100
▁pil 100
▁pos 100
▁req 100
▁row 100
▁top 100
▁typ 100
▁was 100
agent 100
ancel 100
attrs 100
babel 100
cloud 100
cture 100
dient 100
ended 100
geome 100
glget 100
guide 100
icles 100
iopub 100
ished 100
issue 100
isted 100
loads 100
mpath 100
nored 100
raise 100
scale 100
strip 100
stroy 100
sympy 100
ually 100
witch 100
▁both 100
▁byte 100
▁cons 100
▁dbus 100
▁grid 100
▁icon 100
▁ivre 100
▁look 100
▁node 100
▁orig 100
▁pair 100
▁plot 100
▁sign 100
▁sinc 100
▁stop 100
▁uses 100
▁what 100
angout 100
branch 100
bucket 100
compat 100
driver 100
enable 100
encies 100
factor 100
folder 100
holder 100
layers 100
lookup 100
parser 100
rainer 100
sample 100
serial 100
static 100
stdout 100
system 100
▁close 100
▁color 100
▁debug 100
▁label 100
▁noise 100
▁patch 100
▁style 100
backend 100
cookies 100
editing 100
execute 100
feature 100
logfile 100
private 100
release 100
variant 100
▁checks 100
▁images 100
▁latest 100
▁needed 100
▁thread 100
▁widget 100
allpaper 100
bindings 100
commands 100
counters 100
disabled 100
geometry 100
normpath 100
pression 100
starting 100
timezone 100
vertical 100
~~~~~~~~ 100
▁backend 100
▁browser 100
▁convert 100
▁imports 100
▁program 100
▁running 100
▁section 100
▁timeout 100
▁twisted 100
iteration 100
noullirbm 100
transform 100
▁-------- 100
▁callback 100
▁disabled 100
▁entities 100
▁evaluate 100
▁features 100
▁hptuning 100
▁register 100
▁sequence 100
javascript 100
▁initiator 100
▁interface 100
▁keepalive 100
▁variables 100
assertequal 100
replication 100
▁background 100
▁setuptools 100
▁application 100
▁bernoullirbm 100
0000000000000000 100
'" 100
(- 100
.' 100
36 100
41 100
44 100
5) 100
7, 100
>" 100
ba 100
bb 100
bc 100
nz 100
sd 100
wd 100
$</ 100
'") 100
'); 100
(0) 100
([' 100
(__ 100
0.5 100
10. 100
btn 100
cat 100
cle 100
dat 100
ini 100
jor 100
lap 100
ltk 100
nzb 100
ody 100
ote 100
tps 100
ugh 100
▁#% 100
▁%( 100
▁*/ 100
▁/* 100
▁3, 100
▁4, 100
▁ci 100
▁cv 100
▁fn 100
('-- 100
())) 100
="${ 100
="{{ 100
=10, 100
[0]) 100
__': 100
ason 100
atra 100
bash 100
buzz 100
chef 100
cogn 100
conn 100
dent 100
difi 100
draw 100
feat 100
ibre 100
ired 100
mbed 100
mmat 100
norm 100
note 100
ntax 100
null 100
ogle 100
pidy 100
ploy 100
pyqt 100
rame 100
rant 100
resh 100
seed 100
sole 100
sort 100
sque 100
uses 100
utor 100
vbox 100
▁'', 100
▁10, 100
▁ali 100
▁bet 100
▁btn 100
▁sli 100
▁sug 100
alarm 100
align 100
anced 100
ances 100
andas 100
annot 100
click 100
delta 100
float 100
iline 100
isode 100
ither 100
ogram 100
omial 100
owner 100
patch 100
redis 100
serve 100
slave 100
▁bash 100
▁body 100
▁book 100
▁calc 100
▁elem 100
▁next 100
▁temp 100
▁vide 100
active 100
cumsum 100
ectors 100
groups 100
inputs 100
lative 100
letion 100
posure 100
proces 100
raises 100
rapped 100
regist 100
scalar 100
secret 100
sender 100
tabdoc 100
tensor 100
utable 100
▁based 100
▁cloud 100
▁delay 100
▁match 100
▁repos 100
▁split 100
▁token 100
▁tools 100
arfbuzz 100
atraces 100
blender 100
hashkey 100
initial 100
invalid 100
mobject 100
network 100
offsets 100
plotlib 100
publish 100
pvector 100
trigger 100
windows 100
▁apache 100
▁branch 100
▁compat 100
▁during 100
▁either 100
▁enable 100
▁errors 100
▁events 100
▁integr 100
▁layout 100
▁linear 100
▁offset 100
▁recogn 100
▁sensor 100
▁useful 100
document 100
gradient 100
original 100
playback 100
selector 100
transfer 100
validate 100
▁already 100
▁calibre 100
▁environ 100
▁matches 100
▁missing 100
▁modname 100
▁outputs 100
▁suggest 100
▁transpa 100
▁vagrant 100
▁variant 100
datastore 100
framework 100
ningerror 100
particles 100
processor 100
ultisnips 100
▁learning 100
▁operator 100
▁provided 100
attributes 100
completion 100
▁namespace 100
▁normalize 100
▁operation 100
▁parameter 100
tabdocfield 100
translation 100
▁datatraces 100
▁dependency 100
▁javascript 100
▁likelihood 100
▁validation 100
organization 100
requirements 100
▁distributed 100
▁information 100
▁recognition 100
elasticsearch 100
▁------------- 100
!/ 100
)" 100
02 100
0} 100
22 100
26 100
48 100
96 100
:" 100
=3 100
[] 100
_1 100
au 100
cf 100
dt 100
gt 100
hq 100
nb 100
qs 100
('. 100
(1) 100
)', 100
012 100
24, 100
256 100
500 100
8.0 100
=0. 100
=== 100
>{% 100
])) 100
apt 100
bre 100
coe 100
dot 100
ffi 100
foo 100
ima 100
mas 100
nlu 100
ons 100
osx 100
oto 100
pin 100
pix 100
seq 100
ten 100
ula 100
▁"# 100
▁", 100
▁(% 100
▁): 100
▁/> 100
▁15 100
▁1; 100
▁1] 100
▁20 100
▁2: 100
▁64 100
▁ap 100
▁df 100
▁ml 100
▁mx 100
▁ok 100
▁sa 100
▁sm 100
▁tm 100
0.9. 100
3.0. 100
5000 100
="{% 100
[1]) 100
_008 100
axis 100
bool 100
cell 100
cing 100
cord 100
eryd 100
etcd 100
font 100
iler 100
lyph 100
mber 100
ness 100
nose 100
nown 100
ongs 100
rain 100
ront 100
some 100
sses 100
tain 100
warm 100
wise 100
▁20, 100
▁_(' 100
▁boo 100
▁clf 100
▁dir 100
▁gas 100
▁its 100
▁mem 100
▁mon 100
▁sdl 100
▁six 100
▁tab 100
▁tor 100
async 100
boost 100
defer 100
devel 100
dumps 100
empty 100
endar 100
forms 100
https 100
lated 100
marks 100
merge 100
modal 100
price 100
retry 100
setup 100
slice 100
spack 100
stdin 100
timer 100
tower 100
which 100
▁anim 100
▁cron 100
▁drop 100
▁fail 100
▁free 100
▁geom 100
▁last 100
▁left 100
▁role 100
▁send 100
▁such 100
▁them 100
▁tool 100
▁vari 100
broker 100
camera 100
ceback 100
detail 100
lement 100
memory 100
reader 100
webkit 100
weight 100
▁attrs 100
▁chunk 100
▁conda 100
▁early 100
▁endif 100
▁enter 100
▁forms 100
▁later 100
▁layer 100
▁needs 100
▁react 100
▁sites 100
▁story 100
▁theme 100
abspath 100
ception 100
cluster 100
compile 100
control 100
destroy 100
episode 100
iarange 100
itional 100
openssl 100
padding 100
rednose 100
schemas 100
tarsnap 100
tonotes 100
unicode 100
winsize 100
▁amount 100
▁assume 100
▁bucket 100
▁common 100
▁deploy 100
▁domain 100
▁expose 100
▁future 100
▁github 100
▁helper 100
▁metric 100
▁mopidy 100
▁netcdf 100
▁packer 100
▁remote 100
▁static 100
database 100
duration 100
entities 100
harfbuzz 100
mbedding 100
mmatizer 100
position 100
reqtrade 100
treenode 100
variable 100
▁choices 100
▁columns 100
▁compute 100
▁english 100
▁getattr 100
▁history 100
▁improve 100
▁libpath 100
▁propert 100
▁removed 100
▁session 100
▁specify 100
▁success 100
▁trainer 100
▁vectors 100
▁warrant 100
▁wrapper 100
functions 100
localhost 100
multiline 100
storation 100
timestamp 100
▁checking 100
▁discover 100
▁supports 100
properties 100
structions 100
validation 100
▁component 100
▁connector 100
▁inventory 100
▁reference 100
▁subreddit 100
implemented 100
▁controller 100
augmentables 100
cryptography 100
distribution 100
▁editorstate 100
▁environment 100
▁transparent 100
clientfactory 100
▁distribution 100
▁configuration 100
geodistribution 100
"' 100
'/ 100
)/ 100
*] 100
-> 100
0" 100
2/ 100
2: 100
37 100
4) 100
4, 100
42 100
63 100
88 100
94 100
:@ 100
>. 100
\[ 100
fc 100
fd 100
iq 100
kg 100
ko 100
mt 100
nn 100
nr 100
pn 100
rb 100
rf 100
tt 100
uc 100
}) 100
▁9 100
">< 100
('\ 100
*** 100
.") 100
/*. 100
/\. 100
3.0 100
425 100
:@" 100
:{} 100
="/ 100
=${ 100
=[' 100
`__ 100
``, 100
ado 100
aff 100
aro 100
att 100
bad 100
bum 100
cmd 100
ctx 100
exe 100
gcc 100
irr 100
iss 100
kes 100
kwd 100
lor 100
met 100
mid 100
rtd 100
rte 100
rum 100
sec 100
tor 100
ule 100
usr 100
vpc 100
▁"< 100
▁)) 100
▁*. 100
▁./ 100
▁<= 100
▁[> 100
▁aw 100
▁gp 100
'])) 100
()): 100
(_(" 100
).__ 100
8000 100
="23 100
>/\. 100
](#- 100
aded 100
char 100
cial 100
come 100
conv 100
dbot 100
exit 100
gres 100
ions 100
izip 100
macs 100
mbol 100
meta 100
mirr 100
misc 100
oter 100
real 100
rink 100
rypt 100
shed 100
sudo 100
sure 100
upic 100
void 100
ways 100
ween 100
writ 100
wsgi 100
▁### 100
▁'-- 100
▁100 100
▁200 100
▁64- 100
▁bro 100
▁cff 100
▁cha 100
▁dra 100
▁inv 100
▁mlt 100
▁our 100
▁pas 100
▁src 100
▁sum 100
▁two 100
▁way 100
0-9._ 100
3.0.0 100
=300, 100
antom 100
bytes 100
creen 100
delay 100
entic 100
found 100
inspe 100
itive 100
matiq 100
media 100
postf 100
props 100
propt 100
raint 100
rough 100
sites 100
stats 100
swarm 100
uplic 100
views 100
words 100
▁been 100
▁cart 100
▁chat 100
▁dont 100
▁exog 100
▁fill 100
▁item 100
▁kern 100
▁mail 100
▁npix 100
▁pdst 100
▁rest 100
▁they 100
▁tree 100
▁util 100
▁virt 100
dified 100
editor 100
ending 100
ensity 100
ensure 100
linear 100
lished 100
parame 100
public 100
recent 100
rstrip 100
slices 100
spaces 100
speech 100
spline 100
untime 100
xtured 100
▁above 100
▁actor 100
▁align 100
▁assoc 100
▁being 100
▁conll 100
▁doesn 100
▁emacs 100
▁frame 100
▁light 100
▁msgid 100
▁pysma 100
▁separ 100
▁sheet 100
▁these 100
▁times 100
▁usage 100
▁users 100
▁video 100
antomjs 100
basedir 100
captcha 100
correct 100
dropout 100
imaging 100
kwdargs 100
nonzero 100
olution 100
pective 100
rowsers 100
spacket 100
trained 100
utorial 100
working 100
▁access 100
▁applic 100
▁direct 100
▁engine 100
▁indent 100
▁inputs 100
▁manage 100
▁modify 100
▁policy 100
▁reader 100
▁reason 100
▁reduce 100
▁sample 100
▁screen 100
▁serial 100
▁spline 100
▁system 100
▁termin 100
▁toxenv 100
▁typing 100
▁unless 100
abstract 100
activate 100
binomial 100
channels 100
constant 100
descript 100
hptuning 100
lability 100
lineedit 100
nsstring 100
pipeline 100
protocol 100
revision 100
schedule 100
selected 100
standard 100
versions 100
▁comment 100
▁console 100
▁contain 100
▁created 100
▁handler 100
▁hangout 100
▁provide 100
▁started 100
▁updates 100
▁virtual 100
configure 100
getlogger 100
inspector 100
iteritems 100
qtwidgets 100
renderers 100
▁abstract 100
▁comments 100
▁complete 100
▁database 100
▁determin 100
▁endblock 100
▁examples 100
▁original 100
▁protocol 100
▁snippets 100
▁specific 100
▁standard 100
constraint 100
experiment 100
expression 100
postflight 100
withformat 100
▁anonymous 100
▁bitstring 100
▁clipboard 100
▁correctly 100
▁dimension 100
▁histogram 100
▁imagedata 100
▁implement 100
▁recursive 100
▁testcases 100
▁uninstall 100
addcallback 100
annotations 100
autoinstall 100
marginright 100
proptrainer 100
▁extensions 100
xturedensity 100
▁likelihoods 100
▁marshmallow 100
keyprefixwith 100
▁dependencies 100
centervertical 100
lightningerror 100
pbclientfactory 100
▁|------------- 100
$/ 100
){ 100
*. 100
03 100
08 100
1> 100
1_ 100
2- 100
21 100
3- 100
43 100
4_ 100
66 100
6_ 100
=( 100
=0 100
af 100
eb 100
uv 100
vc 100
{' 100
▁7 100
"): 100
("_ 100
(1, 100
-06 100
/(\ 100
2', 100
3.1 100
="< 100
]): 100
__) 100
aml 100
ano 100
awx 100
bam 100
btc 100
cel 100
chi 100
cos 100
cov 100
cts 100
det 100
dog 100
eng 100
eze 100
gen 100
glm 100
igr 100
ild 100
inf 100
jpe 100
lip 100
oly 100
pem 100
ral 100
ret 100
rss 100
seg 100
sep 100
svn 100
ugc 100
uni 100
ups 100
▁"% 100
▁'$ 100
▁2) 100
▁2; 100
▁\\ 100
▁am 100
▁cd 100
▁cs 100
▁fs 100
▁na 100
▁ns 100
▁vo 100
▁wo 100
("-- 100
2000 100
4012 100
509. 100
=1): 100
aign 100
ands 100
arge 100
atio 100
avai 100
bers 100
brew 100
cert 100
city 100
flat 100
hass 100
jpeg 100
lied 100
mean 100
moto 100
onet 100
ored 100
peer 100
poly 100
quiv 100
reds 100
reed 100
rons 100
sock 100
spro 100
sqrt 100
tins 100
untu 100
urro 100
▁'0. 100
▁[0, 100
▁[1, 100
▁[], 100
▁ami 100
▁aut 100
▁ccd 100
▁cra 100
▁gam 100
▁ide 100
▁ipv 100
▁opp 100
▁pkg 100
▁raw 100
▁sca 100
▁sen 100
▁sim 100
▁sky 100
▁spe 100
▁std 100
▁uni 100
▁utf 100
▁vcp 100
▁zer 100
2.0.5 100
ategy 100
bench 100
cimal 100
coefs 100
dices 100
dlist 100
epage 100
flash 100
imize 100
licit 100
lying 100
major 100
mixed 100
month 100
mysql 100
nodes 100
notes 100
orith 100
ority 100
plain 100
produ 100
pture 100
quote 100
using 100
▁#### 100
▁camp 100
▁cast 100
▁core 100
▁deli 100
▁deps 100
▁done 100
▁func 100
▁gain 100
▁join 100
▁keys 100
▁loss 100
▁pipe 100
▁poly 100
▁pypy 100
▁rate 100
▁rece 100
▁root 100
▁safe 100
▁scal 100
▁sock 100
▁stru 100
▁well 100
/*")), 100
==0.8. 100
author 100
bounds 100
coding 100
export 100
frames 100
igraph 100
instal 100
integr 100
latest 100
normal 100
pytest 100
reater 100
resume 100
scribe 100
simple 100
struct 100
tables 100
ternet 100
ubuntu 100
unsafe 100
vanced 100
visual 100
▁badge 100
▁below 100
▁chain 100
▁click 100
▁inner 100
▁least 100
▁login 100
▁minor 100
▁mount 100
▁nargs 100
▁nupic 100
▁quant 100
▁quick 100
▁since 100
▁slave 100
▁trust 100
▁would 100
allowed 100
celeryd 100
element 100
ermixin 100
estcase 100
formula 100
forward 100
getattr 100
ibility 100
license 100
mplated 100
pattern 100
reactor 100
squeeze 100
▁adding 100
▁attemp 100
▁backup 100
▁button 100
▁calcul 100
▁cancel 100
▁comput 100
▁duplic 100
▁ensure 100
▁extras 100
▁gittip 100
▁global 100
▁height 100
▁kwargs 100
▁loader 100
▁msgstr 100
▁pandas 100
▁partic 100
▁proper 100
▁raised 100
▁review 100
▁schema 100
▁strict 100
▁syntax 100
▁within 100
++++++++ 100
==22.0.5 100
==23.0.0 100
accuracy 100
activity 100
backward 100
coverage 100
creation 100
datasets 100
deferred 100
delegate 100
interval 100
learning 100
lowlevel 100
mainloop 100
markdown 100
samtools 100
security 100
splitter 100
▁abspath 100
▁between 100
▁boolean 100
▁captcha 100
▁extends 100
▁headers 100
▁padding 100
▁passing 100
▁prevent 100
▁runtime 100
▁samples 100
▁setattr 100
▁through 100
▁upgrade 100
▁wrapped 100
processed 100
registers 100
terminate 100
useragent 100
verything 100
wallpaper 100
▁accuracy 100
▁actually 100
▁campaign 100
▁consumer 100
▁coverage 100
▁creating 100
▁explicit 100
▁independ 100
▁iterator 100
▁qspacket 100
▁relative 100
▁security 100
▁username 100
▁variable 100
chefserver 100
mainwindow 100
persistent 100
setwinsize 100
▁condition 100
▁contribut 100
▁earlyinit 100
▁electrons 100
▁extension 100
▁fieldtype 100
▁otherwise 100
▁processor 100
▁transform 100
▁typeerror 100
buildmaster 100
countrobust 100
integration 100
transaction 100
▁completion 100
▁defaultvpc 100
▁namedtuple 100
▁virtualenv 100
availability 100
datasetequal 100
featureerror 100
▁performance 100
▁placeholder 100
▁restoration 100
▁setrotation 100
visualization 100
▁notimplemented 100
################ 100
countrobustmixin 100
*( 100
.* 100
07 100
1} 100
2> 100
3" 100
4* 100
4- 100
77 100
8, 100
85 100
8] 100
91 100
93 100
:/ 100
>3 100
>> 100
\" 100
\% 100
_0 100
dd 100
fl 100
hh 100
mq 100
rg 100
vt 100
wb 100
wo 100
ww 100
zy 100
!") 100
",\ 100
"]' 100
"]) 100
''' 100
']: 100
('% 100
(', 100
()` 100
([\ 100
({' 100
-10 100
.', 100
0.2 100
2.7 100
207 100
27, 100
3.2 100
71, 100
:]( 100
="" 100
=0, 100
=1. 100
={{ 100
[1: 100
ape 100
bas 100
css 100
day 100
dic 100
dio 100
hal 100
ioc 100
ipv 100
ism 100
its 100
lan 100
lid 100
pha 100
pop 100
sor 100
stm 100
tib 100
tsx 100
vcp 100
www 100
yum 100
}") 100
▁"- 100
▁#. 100
▁'/ 100
▁'< 100
▁(( 100
▁/_ 100
▁dn 100
▁eq 100
▁nd 100
▁nx 100
▁sr 100
▁ui 100
▁vc 100
'))) 100
("// 100
((1, 100
..., 100
1'}, 100
://% 100
==3. 100
alrm 100
anel 100
ards 100
ates 100
bank 100
coun 100
dash 100
emon 100
eval 100
frac 100
ggle 100
grow 100
guid 100
iate 100
inja 100
ived 100
jobs 100
late 100
lobj 100
olve 100
ones 100
ping 100
pyro 100
ring 100
room 100
saml 100
sing 100
skip 100
slot 100
stri 100
sync 100
tach 100
term 100
ural 100
uuid 100
ving 100
yaml 100
year 100
zzan 100
▁%}< 100
▁'/' 100
▁'{{ 100
▁**8 100
▁2.0 100
▁[5, 100
▁cnt 100
▁dee 100
▁dom 100
▁eas 100
▁etc 100
▁fit 100
▁foo 100
▁gen 100
▁ger 100
▁nsu 100
▁pur 100
▁pyb 100
▁rbm 100
▁sam 100
▁seq 100
▁sig 100
▁slc 100
▁vim 100
▁why 100
▁{}, 100
[-1]. 100
__'): 100
aroot 100
bound 100
carts 100
clean 100
dtype 100
egers 100
endif 100
endog 100
eries 100
fetch 100
glyph 100
hints 100
idual 100
itory 100
learn 100
lfrom 100
lists 100
mongo 100
opped 100
orary 100
otent 100
pping 100
press 100
pysma 100
quivo 100
reply 100
retch 100
rrule 100
secre 100
small 100
smart 100
topro 100
verse 100
vised 100
where 100
white 100
▁%}</ 100
▁([#4 100
▁-1), 100
▁...) 100
▁1000 100
▁clar 100
▁dark 100
▁deep 100
▁diff 100
▁enum 100
▁eval 100
▁flag 100
▁give 100
▁haff 100
▁high 100
▁izip 100
▁just 100
▁moto 100
▁mugc 100
▁norm 100
▁peer 100
▁poss 100
▁pref 100
▁rout 100
▁secp 100
▁slow 100
▁symp 100
▁sync 100
▁team 100
▁tele 100
▁vdim 100
▁very 100
▁}}</ 100
[-1][' 100
absent 100
aconda 100
actual 100
amount 100
apache 100
binary 100
blocks 100
checks 100
cookie 100
decode 100
gitlab 100
handle 100
istics 100
keting 100
linalg 100
lugins 100
manage 100
office 100
opengl 100
prospe 100
protot 100
pubkey 100
qtcore 100
routes 100
shaped 100
should 100
sorted 100
street 100
tibber 100
tmpdir 100
toggle 100
uncate 100
upload 100
windex 100
▁alloc 100
▁along 100
▁apply 100
▁bench 100
▁clear 100
▁cpdef 100
▁curve 100
▁dicts 100
▁discu 100
▁fetch 100
▁front 100
▁graph 100
▁httpd 100
▁links 100
▁manif 100
▁merge 100
▁mitem 100
▁month 100
▁names 100
▁pages 100
▁press 100
▁recor 100
▁share 100
▁shirt 100
▁stack 100
▁torch 100
▁width 100
boolean 100
crement 100
dbcheck 100
develop 100
domains 100
generic 100
jobguid 100
keyname 100
loading 100
locally 100
loviews 100
monitor 100
napshot 100
pointer 100
posargs 100
primary 100
restore 100
signing 100
started 100
success 100
thedocs 100
threads 100
useradd 100
vagrant 100
verbose 100
zzanine 100
▁====== 100
▁author 100
▁coding 100
▁factor 100
▁groups 100
▁memory 100
▁notify 100
▁office 100
▁pipenv 100
▁replic 100
▁secret 100
▁shards 100
▁shared 100
▁shutil 100
▁stdout 100
▁unable 100
▁unique 100
algorith 100
calendar 100
compiler 100
contents 100
ctionary 100
dataroot 100
deletion 100
estimate 100
exposure 100
finished 100
integers 100
mixedglm 100
optional 100
playlist 100
rowindex 100
sequence 100
swarming 100
writable 100
▁actions 100
▁callobj 100
▁chainer 100
▁compile 100
▁decimal 100
▁element 100
▁ignored 100
▁implied 100
▁linprog 100
▁minimal 100
▁purpose 100
▁pybrain 100
▁related 100
▁rewrite 100
▁scripts 100
▁sensors 100
▁servers 100
▁tagging 100
▁threads 100
▁tracker 100
▁widgets 100
addwidget 100
anonymous 100
authproxy 100
bitstring 100
clipboard 100
completer 100
detection 100
embedding 100
estimated 100
filterset 100
initiator 100
installto 100
isvisible 100
namespace 100
prototype 100
selection 100
sequences 100
templates 100
typeerror 100
validator 100
viewmodel 100
▁building 100
▁chatroom 100
▁contents 100
▁decorate 100
▁deferred 100
▁dramatiq 100
▁haffmpeg 100
▁handling 100
▁identity 100
▁improved 100
▁modified 100
▁observer 100
▁possible 100
▁provider 100
▁requires 100
▁resource 100
▁returned 100
▁revision 100
▁variance 100
▁warranty 100
basestring 100
dispersion 100
extensions 100
prospector 100
▁alignment 100
▁authentic 100
▁callbacks 100
▁clusterhq 100
▁currently 100
▁decorator 100
▁execution 100
▁freqtrade 100
▁functions 100
▁marketing 100
▁ontonotes 100
▁phantomjs 100
▁resources 100
▁something 100
▁supported 100
▁ultisnips 100
installfrom 100
toprowindex 100
tributepage 100
yesmixedglm 100
▁discussion 100
▁domwrapper 100
▁functional 100
▁matplotlib 100
▁methodname 100
▁nsuinteger 100
▁permission 100
▁subprocess 100
▁underlying 100
▁collections 100
▁importerror 100
configuration 100
rowsersupport 100
▁cryptography 100
▁httpresponse 100
▁installation 100
▁instructions 100
cursorrowindex 100
▁127.0.0.1:5000 100
▁127.0.0.1:8000 100
▁quboleoperator 100
"/ 100
(3 100
(: 100
+) 100
.+ 100
., 100
.\ 100
/; 100
05 100
06 100
15 100
2' 100
2* 100
4/ 100
45 100
67 100
69 100
95 100
=< 100
=_ 100
[\ 100
[^ 100
\1 100
_2 100
`) 100
em 100
hr 100
jo 100
lg 100
lr 100
pd 100
qp 100
ti 100
xp 100
}; 100
▁; 100
▁^ 100
'}) 100
('# 100
()] 100
(/\ 100
(2, 100
)", 100
)}} 100
**4 100
++; 100
-07 100
100 100
105 100
2.0 100
32( 100
5.1 100
59: 100
6', 100
="_ 100
=2, 100
>') 100
>{{ 100
``. 100
``: 100
abs 100
ava 100
cpp 100
ctl 100
dle 100
gam 100
ged 100
gic 100
gne 100
got 100
hdf 100
inc 100
ips 100
ipt 100
itu 100
ivy 100
lem 100
lon 100
lov 100
mpk 100
nam 100
ock 100
odb 100
ose 100
pot 100
ptr 100
rac 100
ren 100
scm 100
sup 100
tcp 100
tit 100
tle 100
ung 100
vpn 100
way 100
wnd 100
xel 100
zmq 100
▁#" 100
▁'0 100
▁(! 100
▁($ 100
▁++ 100
▁3* 100
▁30 100
▁4- 100
▁5, 100
▁6, 100
▁<% 100
▁[% 100
▁_, 100
▁cx 100
▁cz 100
▁hy 100
▁ie 100
▁ja 100
▁mk 100
▁nb 100
▁op 100
▁rc 100
▁sw 100
▁sx 100
▁sz 100
▁um 100
▁ur 100
▁wr 100
▁{" 100
"]), 100
'}], 100
*)', 100
-200 100
.*$/ 100
1.0. 100
:59: 100
==4. 100
[-1] 100
[1]: 100
__', 100
agot 100
argv 100
atul 100
auss 100
bian 100
boot 100
chat 100
cier 100
cupy 100
dask 100
deep 100
does 100
echo 100
elli 100
enot 100
fast 100
gend 100
gent 100
grad 100
high 100
href 100
idir 100
ighb 100
ires 100
isel 100
lers 100
mble 100
nltk 100
orms 100
pace 100
phot 100
ppav 100
pped 100
rapy 100
rece 100
repr 100
role 100
rosa 100
rupt 100
serv 100
side 100
spac 100
subs 100
tang 100
twit 100
uler 100
ulum 100
uman 100
unch 100
vari 100
what 100
your 100
{}'. 100
▁"./ 100
▁"3. 100
▁#!/ 100
▁%}" 100
▁-1) 100
▁0.5 100
▁1)) 100
▁1.0 100
▁[(' 100
▁[{' 100
▁]), 100
▁`-- 100
▁bam 100
▁boc 100
▁box 100
▁cel 100
▁cip 100
▁cos 100
▁cpu 100
▁div 100
▁enh 100
▁fun 100
▁gla 100
▁glv 100
▁gpu 100
▁gra 100
▁idx 100
▁inc 100
▁isn 100
▁lon 100
▁mix 100
▁myp 100
▁osx 100
▁sym 100
▁tol 100
▁tst 100
▁whe 100
▁zip 100
('201 100
-07-0 100
="#"> 100
=0.1, 100
[..., 100
after 100
alche 100
chunk 100
clang 100
clear 100
cycle 100
force 100
gname 100
golem 100
green 100
gress 100
herit 100
hesis 100
ialog 100
iated 100
icons 100
ision 100
isson 100
lform 100
minor 100
miter 100
named 100
nelid 100
norms 100
oppia 100
pause 100
polic 100
polys 100
popen 100
qtgui 100
recur 100
reset 100
sagne 100
score 100
sence 100
songs 100
stock 100
strap 100
terns 100
theta 100
topic 100
toxin 100
uples 100
xture 100
yload 100
▁$('# 100
▁("\\ 100
▁bins 100
▁care 100
▁cred 100
▁days 100
▁even 100
▁fake 100
▁game 100
▁good 100
▁hard 100
▁hass 100
▁lang 100
▁logs 100
▁mime 100
▁misc 100
▁most 100
▁move 100
▁much 100
▁nltk 100
▁offi 100
▁once 100
▁pend 100
▁prec 100
▁real 100
▁rows 100
▁shut 100
▁side 100
▁sqrt 100
▁tags 100
▁uint 100
▁urls 100
▁wrap 100
▁writ 100
adcast 100
artist 100
backup 100
before 100
cluded 100
ctypes 100
differ 100
exists 100
footer 100
gather 100
google 100
gratul 100
hashes 100
indent 100
labels 100
liance 100
lihood 100
locate 100
market 100
nippet 100
places 100
pretty 100
record 100
resses 100
router 100
screen 100
second 100
signed 100
single 100
stderr 100
stripe 100
titles 100
urllib 100
wallet 100
wnagot 100
worker 100
▁2014/ 100
▁agent 100
▁alpha 100
▁appro 100
▁basis 100
▁cases 100
▁catch 100
▁child 100
▁delet 100
▁devel 100
▁ember 100
▁empty 100
▁fixme 100
▁flash 100
▁ispkg 100
▁large 100
▁looks 100
▁makes 100
▁might 100
▁modal 100
▁mongo 100
▁mxnet 100
▁mycli 100
▁norms 100
▁notes 100
▁oppia 100
▁paper 100
▁paths 100
▁peter 100
▁pixel 100
▁ratio 100
▁reuse 100
▁sched 100
▁shard 100
▁shown 100
▁shows 100
▁spawn 100
▁units 100
▁while 100
▁wrong 100
------- 100
ability 100
alchemy 100
asarray 100
authors 100
cessary 100
changes 100
choices 100
devices 100
dirname 100
flatten 100
ignored 100
macroot 100
mailbox 100
matches 100
missing 100
patches 100
payment 100
poisson 100
ppavlov 100
present 100
preview 100
qdialog 100
ression 100
running 100
sigalrm 100
signals 100
stacked 100
stories 100
stretch 100
tangent 100
targets 100
testing 100
toolbar 100
tooltip 100
torrent 100
twitter 100
tzinfos 100
witches 100
zeronet 100
▁always 100
▁around 100
▁bitmap 100
▁bounds 100
▁buffer 100
▁cursor 100
▁debian 100
▁deprec 100
▁dialog 100
▁enumer 100
▁google 100
▁insert 100
▁legend 100
▁longer 100
▁lookup 100
▁myplex 100
▁passed 100
▁player 100
▁pretty 100
▁pylint 100
▁reprec 100
▁runner 100
▁shells 100
▁slices 100
▁struct 100
▁switch 100
▁symbol 100
▁tensor 100
▁zerver 100
******** 100
^^^^^^^^ 100
accounts 100
babelpkg 100
bsession 100
comments 100
complete 100
directed 100
dividual 100
encoding 100
evaluate 100
features 100
identity 100
integerv 100
longname 100
notebook 100
override 100
pagesize 100
presence 100
readonly 100
reground 100
renderer 100
rollback 100
sessions 100
strategy 100
tutorial 100
verified 100
▁ability 100
▁account 100
▁classes 100
▁clauses 100
▁control 100
▁depends 100
▁disable 100
▁editing 100
▁edition 100
▁execute 100
▁feature 100
▁filters 100
▁lengths 100
▁mobject 100
▁pexpect 100
▁reactor 100
▁setting 100
▁snippet 100
▁spotify 100
▁targets 100
▁verbose 100
baseestim 100
dataframe 100
different 100
dimension 100
entifiers 100
extension 100
generator 100
inputtype 100
insertion 100
interface 100
keepalive 100
mezzanine 100
modelform 100
subreddit 100
toxinidir 100
wnagotchi 100
▁argparse 100
▁builtins 100
▁consider 100
▁constant 100
▁delegate 100
▁download 100
▁electrum 100
▁feedback 100
▁finished 100
▁generate 100
▁hostname 100
▁importer 100
▁includes 100
▁integral 100
▁interval 100
▁makefile 100
▁maxdelay 100
▁notebook 100
▁official 100
▁patterns 100
▁pipeline 100
▁policies 100
▁preserve 100
▁priority 100
▁property 100
▁schedule 100
▁selected 100
▁separate 100
▁terminal 100
▁treenode 100
▁warnings 100
▁webnotes 100
asserttrue 100
descriptor 100
dexception 100
editobject 100
likelihood 100
screenshot 100
workspaces 100
▁congratul 100
▁construct 100
▁dataframe 100
▁deferreds 100
▁determine 100
▁distutils 100
▁ffversion 100
▁placement 100
▁selection 100
▁suggested 100
▁taoptions 100
▁traceback 100
▁tracename 100
▁validated 100
lengthscale 100
marketplace 100
operational 100
qmainwindow 100
unprocessed 100
▁additional 100
▁deeppavlov 100
▁dictionary 100
▁lemmatizer 100
▁mainwindow 100
▁namelength 100
▁operations 100
▁webbrowser 100
assertequals 100
baseoperator 100
construction 100
experimental 100
▁limitations 100
▁sortimports 100
▁transaction 100
baseestimator 100
bayesmixedglm 100
glgetintegerv 100
layoutediting 100
variantinline 100
▁applications 100
▁contributors 100
▁independence 100
▁reconnecting 100
▁slavebuilder 100
nelidentifiers 100
proptrainermix 100
▁attributeerror 100
▁mixturedensity 100
~~~~~~~~~~~~~~~~ 100
▁congratulations 100
▁geodistribution 100
#3 100
$_ 100
%- 100
*- 100
+" 100
+0 100
-3 100
." 100
.1 100
/" 100
09 100
1( 100
1* 100
1= 100
3' 100
3} 100
55 100
65 100
71 100
9, 100
92 100
98 100
:' 100
:^ 100
;" 100
=- 100
=2 100
=` 100
[( 100
[2 100
[< 100
[[ 100
]* 100
_. 100
cm 100
ef 100
ii 100
ka 100
ku 100
mx 100
nx 100
ov 100
pm 100
pr 100
pv 100
sr 100
tk 100
tx 100
vm 100
wt 100
xz 100
{2 100
{: 100
")" 100
"). 100
### 100
'$_ 100
("( 100
($_ 100
(2) 100
(:? 100
)). 100
)]) 100
**3 100
,'/ 100
-1] 100
.0/ 100
/0. 100
001 100
00; 100
08/ 100
160 100
197 100
1}{ 100
227 100
23, 100
25, 100
288 100
3', 100
501 100
577 100
5]( 100
64, 100
64. 100
64_ 100
650 100
66, 100
7.0 100
806 100
8]` 100
998 100
:') 100
:00 100
;"' 100
="7 100
='* 100
=0) 100
=10 100
=2) 100
=5, 100
=[" 100
={' 100
[*] 100
][\ 100
_]. 100
__, 100
`). 100
amo 100
bat 100
can 100
cca 100
cfg 100
cin 100
cmp 100
cro 100
dfs 100
dll 100
dna 100
duo 100
ene 100
eno 100
enr 100
fam 100
fmt 100
ias 100
idx 100
idy 100
ios 100
jai 100
jid 100
ked 100
lah 100
may 100
mgr 100
mov 100
mrc 100
mtx 100
mut 100
ndk 100
nmy 100
oms 100
ows 100
pow 100
ppe 100
pth 100
pur 100
rbf 100
rgx 100
rse 100
sim 100
src 100
ssh 100
sso 100
tel 100
tof 100
tok 100
two 100
uff 100
umb 100
utc 100
vat 100
vie 100
vor 100
xcv 100
xor 100
ypo 100
zen 100
{1, 100
}-{ 100
}/> 100
▁"' 100
▁"_ 100
▁#3 100
▁#{ 100
▁$? 100
▁%% 100
▁&. 100
▁': 100
▁'{ 100
▁(- 100
▁({ 100
▁); 100
▁*[ 100
▁-2 100
▁19 100
▁2* 100
▁23 100
▁3: 100
▁40 100
▁:: 100
▁;; 100
▁<! 100
▁[1 100
▁[@ 100
▁[[ 100
▁_( 100
▁_: 100
▁bf 100
▁cc 100
▁du 100
▁dy 100
▁et 100
▁fq 100
▁hb 100
▁he 100
▁ll 100
▁lr 100
▁ru 100
▁sv 100
▁ti 100
')]) 100
'])+ 100
()), 100
()]) 100
(1), 100
/../ 100
0-9] 100
0001 100
01</ 100
200\ 100
4-01 100
4788 100
4_0. 100
6,7, 100
9-10 100
9207 100
9999 100
="#" 100
="$_ 100
="0" 100
=0), 100
=_(" 100
_][\ 100
__') 100
__)) 100
amos 100
amqp 100
anto 100
apit 100
area 100
babf 100
band 100
bber 100
bbox 100
berg 100
buff 100
byte 100
cexp 100
coal 100
cobb 100
cort 100
cron 100
ctgg 100
ctoc 100
days 100
east 100
erta 100
fair 100
fill 100
four 100
gate 100
gwin 100
haps 100
hest 100
hide 100
ient 100
ifai 100
iloc 100
isor 100
iver 100
ives 100
ivre 100
java 100
lank 100
leep 100
life 100
look 100
mant 100
mbin 100
mini 100
more 100
most 100
msie 100
nado 100
ncur 100
nvis 100
nzbs 100
oice 100
omat 100
otal 100
pipe 100
plex 100
poch 100
rand 100
rest 100
same 100
shes 100
shop 100
strf 100
tabs 100
team 100
tist 100
tran 100
tree 100
uest 100
uint 100
utco 100
ypot 100
ysql 100
{1}{ 100
{22, 100
▁"$( 100
▁%>" 100
▁%>> 100
▁'') 100
▁([4 100
▁-*- 100
▁1") 100
▁2), 100
▁300 100
▁40, 100
▁<%= 100
▁[*] 100
▁[-- 100
▁]]; 100
▁__` 100
▁age 100
▁air 100
▁awx 100
▁cgi 100
▁cle 100
▁dct 100
▁dot 100
▁esc 100
▁fpm 100
▁ips 100
▁mer 100
▁mov 100
▁own 100
▁pid 100
▁pop 100
▁rpc 100
▁sci 100
▁sed 100
▁smd 100
▁sol 100
▁ssh 100
▁too 100
▁unk 100
▁uri 100
▁urn 100
▁vul 100
▁yet 100
▁{0} 100
▁{}; 100
!](#- 100
(',') 100
('.') 100
('../ 100
(-0.2 100
(/\/\ 100
*)/(\ 100
.0/24 100
="<%- 100
\[([\ 100
`__{: 100
ached 100
actly 100
album 100
alian 100
black 100
casts 100
cells 100
cepts 100
chain 100
chema 100
cloak 100
codes 100
coind 100
dense 100
encen 100
erial 100
ested 100
evalu 100
facts 100
ffici 100
fixed 100
flags 100
formp 100
going 100
ially 100
ibler 100
ilent 100
imate 100
jaili 100
journ 100
lopen 100
maker 100
mbers 100
meval 100
modul 100
mxnet 100
namic 100
ndims 100
nmyst 100
ories 100
orrow 100
orted 100
pagin 100
pairs 100
paste 100
paths 100
peers 100
phony 100
popup 100
posal 100
proto 100
quece 100
radio 100
ramid 100
sport 100
surro 100
tline 100
trust 100
ucher 100
udesc 100
unbro 100
undle 100
vatar 100
vdims 100
vicon 100
watch 100
{1,3} 100
{}/{} 100
▁""". 100
▁"[*] 100
▁%}"> 100
▁([#3 100
▁([47 100
▁appe 100
▁boto 100
▁buff 100
▁bugs 100
▁buku 100
▁card 100
▁chan 100
▁cols 100
▁cook 100
▁disk 100
▁draw 100
▁dump 100
▁easy 100
▁fall 100
▁fast 100
▁fork 100
▁fuse 100
▁hack 100
▁hope 100
▁ints 100
▁khal 100
▁kind 100
▁late 100
▁lead 100
▁logo 100
▁many 100
▁mean 100
▁migr 100
▁mong 100
▁pers 100
▁pick 100
▁pool 100
▁prev 100
▁pull 100
▁pypi 100
▁qtpy 100
▁repe 100
▁repl 100
▁rule 100
▁scud 100
▁simp 100
▁typo 100
▁unne 100
▁vars 100
▁wide 100
▁xcha 100
▁year 100
(:?)', 100
+0200\ 100
------ 100
="$($_ 100
>301</ 100
assign 100
assume 100
bindir 100
called 100
cancel 100
deprec 100
engine 100
events 100
expand 100
explor 100
finder 100
frappe 100
getype 100
granto 100
hasarg 100
ically 100
ighest 100
isfile 100
issues 100
lapsed 100
latent 100
licing 100
linked 100
linter 100
loaded 100
loader 100
lstrip 100
middle 100
mirror 100
mkdocs 100
negbin 100
neighb 100
netcdf 100
packer 100
parsed 100
person 100
pkgref 100
regexm 100
ritain 100
rypted 100
scheme 100
sentry 100
shrink 100
sprops 100
submit 100
syslog 100
ticker 100
tokens 100
typing 100
walker 100
▁([#47 100
▁**93. 100
▁0.50, 100
▁0.66, 100
▁14788 100
▁3.71, 100
▁again 100
▁album 100
▁bases 100
▁begin 100
▁blank 100
▁books 100
▁cache 100
▁calls 100
▁categ 100
▁crash 100
▁creep 100
▁dirac 100
▁faces 100
▁flake 100
▁force 100
▁gamos 100
▁gname 100
▁guide 100
▁hypot 100
▁isosx 100
▁items 100
▁jails 100
▁klass 100
▁magic 100
▁modes 100
▁mysql 100
▁owner 100
▁pairs 100
▁power 100
▁price 100
▁pydoc 100
▁qmenu 100
▁qvbox 100
▁rules 100
▁seems 100
▁sense 100
▁shape 100
▁shrin 100
▁simil 100
▁slice 100
▁small 100
▁space 100
▁speed 100
▁stats 100
▁steps 100
▁suite 100
▁synap 100
▁terms 100
▁texts 100
▁those 100
▁total 100
▁works 100
.*$/,'/ 100
2014-01 100
6,7,8]` 100
9-10-03 100
android 100
asserta 100
binding 100
capture 100
classes 100
cobbler 100
counter 100
country 100
ctories 100
defined 100
denberg 100
divisor 100
edition 100
example 100
expired 100
extract 100
filterm 100
fixture 100
foreach 100
gccname 100
gettext 100
greater 100
headers 100
indices 100
instate 100
instead 100
journal 100
loaders 100
metrics 100
mirrors 100
ncurses 100
numbers 100
observe 100
ongoing 100
photons 100
profile 100
ranches 100
refresh 100
revised 100
rollers 100
shifted 100
spacing 100
ssorted 100
stringi 100
summary 100
testenv 100
toblock 100
umanize 100
unknown 100
veloper 100
websafe 100
{22,23, 100
▁1))")" 100
▁active 100
▁allows 100
▁append 100
▁artist 100
▁attach 100
▁basket 100
▁border 100
▁bottom 100
▁breaks 100
▁builds 100
▁camera 100
▁cannot 100
▁censor 100
▁chosen 100
▁cipher 100
▁daemon 100
▁dbusqt 100
▁detect 100
▁encode 100
▁exceed 100
▁german 100
▁header 100
▁iocage 100
▁libffi 100
▁mainta 100
▁neural 100
▁online 100
▁pillow 100
▁prefer 100
▁proble 100
▁proces 100
▁raises 100
▁rather 100
▁recomm 100
▁region 100
▁rounds 100
▁scalar 100
▁scaled 100
▁secexp 100
▁sender 100
▁shrink 100
▁signum 100
▁sizeof 100
▁states 100
▁stored 100
▁street 100
▁syslog 100
▁thanks 100
▁things 100
▁threat 100
▁traces 100
▁vision 100
▁vulner 100
▁walker 100
▁webres 100
▁worker 100
▁xrange 100
▁xvalue 100
('../../ 100
0-9._(), 100
blockdim 100
bookmark 100
buildbot 100
cfstring 100
checkout 100
computed 100
contacts 100
endpoint 100
endswith 100
ensemble 100
examples 100
failures 100
fairness 100
fieldset 100
finditer 100
gasprice 100
generate 100
hdfstore 100
headless 100
homebrew 100
iblerows 100
ingerror 100
internet 100
jailicon 100
markread 100
negative 100
nmystery 100
noscript 100
observer 100
polation 100
postgres 100
previous 100
profiles 100
pytables 100
question 100
readable 100
rsequece 100
services 100
snippets 100
strftime 100
subtitle 100
switches 100
tomorrow 100
trackers 100
transact 100
valuable 100
▁------- 100
▁charact 100
▁chardet 100
▁compare 100
▁deleted 100
▁envlist 100
▁extract 100
▁flashid 100
▁getting 100
▁glances 100
▁gobject 100
▁inherit 100
▁invalid 100
▁iocstop 100
▁lasagne 100
▁layouts 100
▁librosa 100
▁metavar 100
▁mongodb 100
▁mutable 100
▁openvpn 100
▁pathing 100
▁perhaps 100
▁pkgutil 100
▁prefect 100
▁private 100
▁publish 100
▁pymongo 100
▁queries 100
▁simplex 100
▁sources 100
▁spacing 100
▁special 100
▁summary 100
▁sympify 100
▁testdir 100
▁trigger 100
▁unknown 100
▁urlopen 100
▁visible 100
▁voucher 100
▁website 100
▁writing 100
arguments 100
bandwidth 100
benchmark 100
bootstrap 100
charfield 100
collector 100
connector 100
datapoint 100
direction 100
downloads 100
envbindir 100
increment 100
innerhtml 100
installed 100
languages 100
lifecycle 100
minilight 100
operation 100
published 100
recursive 100
reference 100
rendering 100
sequencen 100
showflash 100
structure 100
subtensor 100
surrogate 100
templated 100
utcoffset 100
validated 100
▁2014/08/ 100
▁activate 100
▁advanced 100
▁anaconda 100
▁buildbot 100
▁chainerx 100
▁checkout 100
▁clarifai 100
▁deletion 100
▁encoding 100
▁exchange 100
▁existing 100
▁exposure 100
▁frontend 100
▁gasprice 100
▁handlers 100
▁included 100
▁keepdims 100
▁keyboard 100
▁licensed 100
▁maintain 100
▁minimize 100
▁networkx 100
▁nsstring 100
▁operands 100
▁overflow 100
▁pendulum 100
▁performs 100
▁playlist 100
▁position 100
▁postgres 100
▁progress 100
▁quantity 100
▁readline 100
▁received 100
▁releases 100
▁removing 100
▁shutting 100
▁startgas 100
▁tempfile 100
▁transfer 100
▁updating 100
▁xchainer 100
2014-01-06 100
algorithms 100
allocation 100
changetype 100
dockerfile 100
evaluation 100
everything 100
formplugin 100
functional 100
individual 100
lemmatizer 100
management 100
matplotlib 100
parameters 100
parentleft 100
preference 100
pwnagotchi 100
resolution 100
subproject 100
unverified 100
windowlong 100
▁bookmarks 100
▁botplugin 100
▁byteorder 100
▁chartview 100
▁container 100
▁datapoint 100
▁defaultip 100
▁despotify 100
▁detection 100
▁discovery 100
▁enumerate 100
▁fieldname 100
▁formatter 100
▁generated 100
▁holoviews 100
▁important 100
▁mxndarray 100
▁overrides 100
▁persistor 100
▁powerline 100
▁pyopenssl 100
▁qlineedit 100
▁rendering 100
▁scudcloud 100
▁sequences 100
▁specified 100
▁temporary 100
▁wallpaper 100
cfstringref 100
classobject 100
constraints 100
environment 100
filebrowser 100
grantoption 100
marshmallow 100
perspective 100
placeholder 100
pluginjails 100
recentfiles 100
unbroadcast 100
▁---------- 100
▁2019-10-03 100
▁========== 100
▁[5,6,7,8]` 100
▁associated 100
▁botfactory 100
▁chartmodel 100
▁compliance 100
▁conditions 100
▁configured 100
▁containing 100
▁diracdelta 100
▁experiment 100
▁foundation 100
▁hypothesis 100
▁identifier 100
▁initialize 100
▁installing 100
▁iocdestroy 100
▁libspotify 100
▁makedevice 100
▁methoddesc 100
▁particular 100
▁persistent 100
▁processing 100
▁properties 100
▁repository 100
assertaccess 100
baseplayback 100
detailsprops 100
nodeselector 100
nvisiblerows 100
packagestore 100
searchparams 100
▁----------- 100
▁directories 100
▁implemented 100
▁perspective 100
▁qvboxlayout 100
▁recursively 100
▁redisbroker 100
▁screencasts 100
▁stepdivisor 100
▁thispointer 100
endinghashkey 100
gatherresults 100
modulessorted 100
▁gettracename 100
▁telepresence 100
▁testhdfstore 100
▁transmission 100
browsersupport 100
initialization 100
▁attributepage 100
▁compatibility 100
▁elasticsearch 100
▁endblocktrans 100
▁interpolation 100
▁mxndarrayload 100
▁setwindowlong 100
▁specification 100
alignparentleft 100
startinghashkey 100
▁datadescriptor 100
▁dbusqtmainloop 100
▁reconstruction 100
abstractwritable 100
connectionfailed 100
▁evaluatetangent 100
▁linearbandwidth 100
$1 100
%; 100
(5 100
(? 100
*' 100
+= 100
/# 100
/` 100
/{ 100
0_ 100
31 100
4: 100
4; 100
5' 100
5: 100
5; 100
5> 100
6: 100
7: 100
8' 100
83 100
:1 100
=% 100
=4 100
=\ 100
>, 100
>/ 100
>] 100
>` 100
?' 100
@% 100
@2 100
_) 100
aa 100
bf 100
bi 100
br 100
fb 100
fn 100
fr 100
fx 100
gp 100
hg 100
hi 100
hy 100
ik 100
ix 100
jn 100
ju 100
mr 100
qa 100
rd 100
sn 100
wi 100
xa 100
xf 100
yu 100
zn 100
|( 100
}. 100
▁~ 100
"]. 100
"]: 100
("" 100
(". 100
(${ 100
('_ 100
(5) 100
)); 100
))] 100
*)| 100
++) 100
-3) 100
-64 100
-{} 100
*/ 100
(** 100
)</ 100
.+? 100
/(. 100
/7. 100
106 100
1]( 100
2") 100
2): 100
2.6 100
225 100
237 100
2[' 100
3': 100
311 100
316 100
32_ 100
33, 100
34, 100
348 100
3]) 100
5.4 100
507 100
7.3 100
9.0 100
:") 100
:${ 100
:*/ 100
:28 100
:^{ 100
={} 100
>', 100
[5: 100
\.\ 100
]') 100
]), 100
]). 100
]); 100
]*) 100
_2: 100
_2_ 100
_{} 100
`_. 100
abc 100
abi 100
acc 100
adj 100
alt 100
arr 100
asn 100
bbl 100
bid 100
bil 100
bir 100
bul 100
ccd 100
cgi 100
cks 100
clf 100
cnt 100
cry 100
cwd 100
dac 100
dsa 100
emp 100
enh 100
eso 100
fbe 100
fep 100
flt 100
fpm 100
fro 100
har 100
hex 100
ico 100
ied 100
ife 100
ifs 100
ili 100
iod 100
ird 100
ish 100
jup 100
lls 100
ltc 100
maz 100
mis 100
miv 100
mul 100
nbe 100
nca 100
ndr 100
neo 100
nil 100
nle 100
nlg 100
nos 100
ogs 100
oir 100
]" 100
2.1 100
3]( 100
4', 100
4.7 100
_1, 100
_`` 100
acl 100
agg 100
dia 100
don 100
ora 100
ord 100
orn 100
pam 100
php 100
por 100
pwd 100
pyx 100
ram 100
rar 100
rds 100
rec 100
rem 100
rev 100
rod 100
rut 100
sat 100
scp 100
shr 100
sla 100
smb 100
sph 100
sse 100
tar 100
til 100
tin 100
trl 100
ube 100
uby 100
uda 100
upt 100
urf 100
ves 100
vim 100
wee 100
you 100
zma 100
}') 100
})) 100
▁!$ 100
▁") 100
▁"^ 100
▁'& 100
▁(1 100
▁*= 100
▁/^ 100
▁0] 100
▁17 100
▁25 100
▁35 100
▁5. 100
▁50 100
▁7, 100
▁=~ 100
▁[( 100
▁[- 100
▁[2 100
▁[< 100
▁\' 100
▁], 100
▁bg 100
▁dx 100
▁ed 100
▁gh 100
▁js 100
▁ko 100
▁oc 100
▁pq 100
▁ps 100
▁rd 100
▁sd 100
▁sn 100
▁sq 100
▁tx 100
▁zz 100
▁{! 100
▁}) 100
▁}: 100
""), 100
')); 100
'/(\ 100
']), 100
(""" 100
(.+? 100
([], 100
({1: 100
))/( 100
-8') 100
..." 100
cs 100
004 100
257 100
1.12 100
2278 100
3000 100
32") 100
3500 100
36}- 100
97]( 100
="1" 100
[1]. 100
[:-1 100
\\', 100
__(* 100
`'): 100
adam 100
ales 100
amel 100
aped 100
appy 100
ario 100
ases 100
awsp 100
bler 100
blue 100
bold 100
boto 100
capa 100
card 100
clip 100
copg 100
cors 100
ctic 100
cule 100
cump 100
deis 100
dian 100
dupe 100
else 100
erty 100
erun 100
exim 100
exog 100
fact 100
figs 100
fing 100
foun 100
full 100
gain 100
havi 100
hhhh 100
htof 100
ials 100
ilip 100
inds 100
irsb 100
isin 100
istr 100
izes 100
jump 100
jupo 100
kill 100
kivy 100
lazy 100
leaf 100
loit 100
lstm 100
luxt 100
mach 100
meth 100
migr 100
mime 100
moid 100
mole 100
news 100
nife 100
okta 100
orgs 100
oton 100
pare 100
pdst 100
pper 100
priv 100
pull 100
pytz 100
quit 100
raps 100
remo 100
risk 100
rols 100
ropy 100
ross 100
scue 100
ship 100
shut 100
simp 100
sinc 100
spar 100
sted 100
tely 100
ture 100
udnn 100
ulip 100
ulth 100
unic 100
urls 100
vide 100
warn 100
weak 100
west 100
wget 100
wily 100
znab 100
{27, 100
}.${ 100
▁""; 100
▁"$_ 100
▁"," 100
▁"0" 100
▁%}? 100
▁'-' 100
▁(10 100
▁--- 100
▁--> 100
▁0), 100
▁0.7 100
▁1). 100
▁1)] 100
▁12- 100
▁120 100
▁1], 100
▁3.0 100
▁4), 100
▁[]) 100
▁adj 100
▁aga 100
▁aio 100
▁ang 100
▁ard 100
▁awk 100
▁bag 100
▁bal 100
▁bar 100
▁cas 100
▁css 100
▁den 100
▁dns 100
▁fam 100
▁fed 100
▁few 100
▁fre 100
▁gcc 100
▁gtk 100
▁ima 100
▁img 100
▁law 100
▁lit 100
▁mac 100
▁mit 100
▁mpk 100
▁nmp 100
▁occ 100
▁psy 100
▁pyg 100
▁red 100
▁scm 100
▁sco 100
▁seg 100
▁sma 100
▁sty 100
▁sus 100
▁svn 100
▁tee 100
▁tmp 100
▁vpn 100
▁wav 100
▁who 100
▁xml 100
▁{1: 100
▁{}> 100
'][0] 100
']}), 100
(".") 100
('/') 100
***)| 100
-2000 100
507]( 100
6.6', 100
86_64 100
904.7 100
:{}". 100
="$1" 100
=()): 100
=[(0, 100
=[]): 100
={}): 100
[0][' 100
[1],1 100
[:3]) 100
agerc 100
aking 100
alert 100
anger 100
anism 100
apped 100
aries 100
avbar 100
based 100
bdist 100
birth 100
bokeh 100
books 100
built 100
chase 100
cmake 100
could 100
death 100
decor 100
depth 100
digit 100
edire 100
ently 100
epoch 100
ffero 100
front 100
fspro 100
given 100
hasis 100
ident 100
iming 100
ingsd 100
inpre 100
iodic 100
itude 100
izers 100
izing 100
jinja 100
later 100
latex 100
linet 100
maked 100
maybe 100
mazon 100
metic 100
mkdir 100
modes 100
nginx 100
noise 100
nonce 100
oname 100
parts 100
peech 100
posed 100
ptime 100
pyter 100
quick 100
refer 100
sales 100
shall 100
sleep 100
soabi 100
speed 100
spons 100
steps 100
super 100
takes 100
tasks 100
three 100
torig 100
trast 100
uming 100
unded 100
unnel 100
voice 100
wards 100
wider 100
young 100
▁'../ 100
▁(*** 100
▁(201 100
▁---> 100
▁..., 100
▁10), 100
▁1})) 100
▁2013 100
▁5000 100
▁800; 100
▁<!-- 100
▁['-- 100
▁apps 100
▁arch 100
▁aren 100
▁away 100
▁bias 100
▁bind 100
▁blah 100
▁brew 100
▁cgit 100
▁clon 100
▁come 100
▁ctrl 100
▁cuda 100
▁dele 100
▁desc 100
▁disp 100
▁face 100
▁gets 100
▁ical 100
▁idea 100
▁jump 100
▁less 100
▁live 100
▁lstm 100
▁lzma 100
▁mmap 100
▁nose 100
▁obso 100
▁osxv 100
▁past 100
▁perl 100
▁pyro 100
▁quit 100
▁qweb 100
▁repo 100
▁rtmp 100
▁ruby 100
▁runs 100
▁scen 100
▁sets 100
▁spin 100
▁spre 100
▁vary 100
▁walk 100
▁went 100
▁were 100
▁{}'. 100
▁}}{% 100
",""), 100
'")[0] 100
-2001. 100
0000') 100
==0.1. 100
==1.0. 100
>=1.8, 100
[0],)) 100
adderr 100
always 100
ameram 100
andler 100
atives 100
attles 100
basket 100
choice 100
clause 100
commit 100
confli 100
corpor 100
ctions 100
ctures 100
cython 100
destin 100
during 100
elcome 100
ention 100
erture 100
finger 100
gettra 100
havior 100
ignkey 100
imizer 100
ioloop 100
iplist 100
iptest 100
isgrid 100
istral 100
itlets 100
ledger 100
lfield 100
linger 100
london 100
magent 100
mantic 100
minust 100
mitted 100
modify 100
monkey 100
multis 100
observ 100
outube 100
pandas 100
policy 100
poller 100
polyps 100
poster 100
presse 100
priate 100
primit 100
prints 100
resize 100
selves 100
series 100
served 100
signum 100
sphinx 100
squeze 100
switch 100
symbol 100
syntax 100
trusty 100
tuples 100
uiview 100
umenta 100
unding 100
unpack 100
vevent 100
waiter 100
wallpa 100
xvalue 100
▁(`#43 100
▁**89. 100
▁**96. 100
▁100%; 100
▁accor 100
▁atoms 100
▁await 100
▁black 100
▁clone 100
▁ecdsa 100
▁euler 100
▁every 100
▁faker 100
▁fdiff 100
▁funcs 100
▁games 100
▁glyph 100
▁going 100
▁gover 100
▁happy 100
▁hosts 100
▁hyper 100
▁idemp 100
▁ident 100
▁imple 100
▁intro 100
▁jinja 100
▁lists 100
▁logic 100
▁lower 100
▁macos 100
▁major 100
▁mkdir 100
▁newer 100
▁nginx 100
▁oldac 100
▁panel 100
▁parts 100
▁party 100
▁props 100
▁pyasn 100
▁quote 100
▁rally 100
▁relev 100
▁remot 100
▁reply 100
▁rerun 100
▁rfile 100
▁roles 100
▁route 100
▁rprop 100
▁slack 100
▁smart 100
▁songs 100
▁stdin 100
▁strip 100
▁stuff 100
▁surro 100
▁synta 100
▁takes 100
▁tasks 100
▁their 100
▁toolz 100
▁trade 100
▁tweak 100
▁until 100
▁uwsgi 100
▁vcard 100
▁views 100
▁{}/{} 100
('20180 100
==1.0.1 100
accepts 100
angular 100
archive 100
arquivo 100
atewith 100
awsprop 100
backsla 100
blocked 100
boosted 100
capabil 100
chantab 100
chooser 100
compute 100
creates 100
cumprod 100
depends 100
dialogs 100
disable 100
dscript 100
duction 100
edirect 100
endency 100
exclude 100
favicon 100
findall 100
fsprogs 100
getters 100
grabber 100
hangout 100
hasattr 100
ificate 100
include 100
inition 100
keyword 100
lineare 100
linprog 100
listenr 100
luxtask 100
machine 100
methods 100
mutable 100
origins 100
osition 100
outputs 100
overlap 100
plugins 100
privacy 100
pyramid 100
quality 100
qwidget 100
refused 100
regular 100
related 100
sdfiles 100
secretp 100
servers 100
setattr 100
setsock 100
setting 100
slicing 100
sponser 100
stopped 100
streets 100
subform 100
uniform 100
workers 100
wrapped 100
zmatrix 100
zonekey 100
▁'.0/24 100
▁(1024, 100
▁(`#427 100
▁absent 100
▁accept 100
▁affero 100
▁agreed 100
▁amazon 100
▁arrays 100
▁better 100
▁broken 100
▁bukudb 100
▁celery 100
▁center 100
▁closes 100
▁cookie 100
▁cygwin 100
▁decode 100
▁define 100
▁detail 100
▁entire 100
▁errbot 100
▁exists 100
▁fixing 100
▁folder 100
▁footer 100
▁gather 100
▁intern 100
▁issues 100
▁joined 100
▁launch 100
▁linked 100
▁listen 100
▁little 100
▁logged 100
▁mapper 100
▁mocker 100
▁moment 100
▁nameko 100
▁newipv 100
▁obtain 100
▁period 100
▁permut 100
▁philip 100
▁pickle 100
▁potent 100
▁progra 100
▁quotes 100
▁really 100
▁record 100
▁rename 100
▁rescue 100
▁resume 100
▁revert 100
▁scrapy 100
▁spaces 100
▁sparse 100
▁starts 100
▁theano 100
▁trusty 100
▁whites 100
advanced 100
basepath 100
baseview 100
bounding 100
branches 100
building 100
contrast 100
cortical 100
defaults 100
discover 100
drawable 100
enotfoun 100
exchange 100
exeption 100
explorer 100
external 100
formulas 100
gravatar 100
idigraph 100
istrator 100
limiters 100
longlong 100
luxmerge 100
molecule 100
networkx 100
notexist 100
positive 100
produces 100
progress 100
purchase 100
qtwebkit 100
receiver 100
relative 100
releases 100
requests 100
required 100
scmtools 100
shutdown 100
snapshot 100
spection 100
statuses 100
structor 100
truncate 100
variance 100
vertices 100
xception 100
{1,3}\.\ 100
{27,36}- 100
{}/{}/{} 100
▁against 100
▁airflow 100
▁arquivo 100
▁assumed 100
▁automat 100
▁bytesio 100
▁cameram 100
▁capture 100
▁charset 100
▁checked 100
▁cleared 100
▁consist 100
▁creates 100
▁credent 100
▁devices 100
▁dropout 100
▁escaped 100
▁exactly 100
▁expires 100
▁express 100
▁finally 100
▁fitness 100
▁fixture 100
▁glacier 100
▁greater 100
▁handles 100
▁indices 100
▁instant 100
▁intelli 100
▁italian 100
▁matched 100
▁members 100
▁ndarray 100
▁numbers 100
▁numenta 100
▁occured 100
▁operand 100
▁ordered 100
▁overlap 100
▁pathlib 100
▁payload 100
▁plugins 100
▁precise 100
▁present 100
▁psycopg 100
▁quantum 100
▁records 100
▁refresh 100
▁resolve 100
▁respons 100
▁restore 100
▁reverse 100
▁signing 100
▁skipped 100
▁sorting 100
▁startup 100
▁stopped 100
▁strings 100
▁synapse 100
▁tarsnap 100
▁tornado 100
▁tribler 100
▁various 100
▁whether 100
'")[0][0] 100
127.0.0.1 100
addresses 100
adminform 100
boxlayout 100
byteorder 100
clusterhq 100
constants 100
edbrowser 100
erializer 100
existence 100
formatter 100
freqtrade 100
highlight 100
ientation 100
important 100
inventory 100
locations 100
negbinclu 100
neighbors 100
omwrapper 100
ontonotes 100
osascript 100
placement 100
portjails 100
promptlen 100
questions 100
quickmark 100
setoption 100
something 100
sysconfig 100
timedelta 100
torightof 100
transport 100
verifying 100
verifykey 100
winpython 100
▁addition 100
▁aperture 100
▁aptitude 100
▁assuming 100
▁backward 100
▁basename 100
▁behavior 100
▁bitcoind 100
▁chunking 100
▁datasets 100
▁defining 100
▁delivery 100
▁describe 100
▁directly 100
▁division 100
▁edgelist 100
▁extended 100
▁failures 100
▁getchart 100
▁imported 100
▁internet 100
▁manifest 100
▁manifold 100
▁markdown 100
▁marshall 100
▁obsolete 100
▁onelogin 100
▁optparse 100
▁pairinfo 100
▁pgettext 100
▁positive 100
▁propbank 100
▁properly 100
▁proposal 100
▁provides 100
▁pyqtslot 100
▁qtwebkit 100
▁randomly 100
▁readmemd 100
▁refactor 100
▁reoffset 100
▁repeated 100
▁reported 100
▁rollback 100
▁samtools 100
▁savepath 100
▁scenario 100
▁semantic 100
▁snapshot 100
▁stringio 100
▁stripped 100
▁truncate 100
▁tutorial 100
▁unsigned 100
▁workflow 100
("//",""), 100
('.')[:3]) 100
==22.0.5"] 100
==23.0.0"] 100
adderrback 100
augmenters 100
callremote 100
coveragerc 100
dependency 100
distribute 100
frameworks 100
ignorecase 100
ingsdfiles 100
linuxjails 100
loginstate 100
observable 100
pagination 100
poissonclu 100
pressevent 100
primitives 100
registered 100
serializer 100
setenabled 100
setsockopt 100
stacklevel 100
staticpage 100
statistics 100
transition 100
ulthandler 100
undirected 100
valueerror 100
veloperkey 100
wallpapers 100
withvalues 100
▁--------- 100
▁========= 100
▁according 100
▁actionban 100
▁animation 100
▁benchmark 100
▁calculate 100
▁constants 100
▁delimiter 100
▁downloads 100
▁duplicate 100
▁estimated 100
▁governing 100
▁gridstack 100
▁hbchannel 100
▁highlight 100
▁imagedraw 100
▁integrate 100
▁ipaddress 100
▁iteration 100
▁magicmock 100
▁persisted 100
▁processes 100
▁published 100
▁restarted 100
▁searching 100
▁seqrecord 100
▁serialize 100
▁statement 100
▁subtitles 100
▁syntactic 100
▁tableexpr 100
▁templated 100
▁textinput 100
▁timedelta 100
▁tokenizer 100
▁unchanged 100
▁webserver 100
==22.0.5"]' 100
==23.0.0"]' 100
awsproperty 100
backloading 100
baseimaging 100
baselibrary 100
conditional 100
contenttype 100
descriptors 100
destination 100
distributed 100
groupoffice 100
hiddeninput 100
information 100
isevaluable 100
metricnames 100
prettyprint 100
qutebrowser 100
readthedocs 100
recursively 100
requirement 100
transformer 100
unsupported 100
▁********** 100
▁++++++++++ 100
▁animations 100
▁applicable 100
▁blocktrans 100
▁buildslave 100
▁delimiters 100
▁deprecated 100
▁duplicates 100
▁everything 100
▁expression 100
▁foreground 100
▁idempotent 100
▁imageframe 100
▁implements 100
▁maintainer 100
▁management 100
▁merchantab 100
▁oldaccount 100
▁parameters 100
▁previously 100
▁qubolehook 100
▁regression 100
▁serializer 100
▁sqlalchemy 100
▁statements 100
▁statistics 100
▁subclasses 100
▁surrounded 100
▁userschema 100
▁visibility 100
▁warranties 100
▁whitespace 100
("//{}/{}/{} 100
assertraises 100
capabilities 100
disconnected 100
fingerprints 100
glgetstringi 100
instructions 100
joblifecycle 100
linetestcase 100
minustrainer 100
serviceproxy 100
spotifytrack 100
▁animatewith 100
▁appropriate 100
▁basecommand 100
▁cameramjpeg 100
▁clusterhqci 100
▁connections 100
▁contenttype 100
▁controllers 100
▁filenotfoun 100
▁fillsubform 100
▁gotpassword 100
▁imageinline 100
▁keybindings 100
▁lengthscale 100
▁permissions 100
▁potentially 100
▁readthedocs 100
▁recommended 100
▁reviewboard 100
▁tablesymbol 100
▁translation 100
▁unnecessary 100
▁vagrantfile 100
dashboarddata 100
dispersionset 100
exeptionerror 100
homeassistant 100
paddingbottom 100
referenceable 100
specification 100
▁commanderror 100
▁improvements 100
▁localstorage 100
▁papermanager 100
▁qapplication 100
▁redistribute 100
▁spotifytrack 100
exceptionerror 100
isgriddisabled 100
locallylineare 100
mixturedensity 100
secretpassword 100
sponseredirect 100
userserializer 100
▁anonymoususer 100
▁authenticated 100
▁canchangetype 100
▁clientdataset 100
▁packagefinder 100
▁vulnerability 100
backproptrainer 100
dialogmodelform 100
validationerror 100
▁authentication 100
▁feedbackdialog 100
▁implementation 100
▁initialization 100
▁paymentfailure 100
▁policyensemble 100
▁shirtadminform 100
▁subtitlespeech 100
▁testpoissonclu 100
▁uninstallation 100
negativebinomial 100
redditcontroller 100
▁createsubreddit 100
▁existingsdfiles 100
▁merchantability 100
▁viewpluginjails 100
"}, 100
($4 100
(*[ 100
(3) 100
(99 100
(\" 100
(_, 100
)-8 100
)/; 100
*[^ 100
+4- 100
-4) 100
-53 100
.,; 100
/'> 100
/(? 100
173 100
2/* 100
228 100
260 100
317 100
32, 100
330 100
367 100
37- 100
40) 100
405 100
411 100
454 100
476 100
477 100
496 100
537 100
547 100
549 100
60* 100
609 100
687 100
697 100
7.1 100
7.2 100
728 100
763 100
7\. 100
80/ 100
836 100
856 100
90; 100
946 100
953 100
970 100
977 100
999 100
=$? 100
=7, 100
=[{ 100
=`* 100
[:, 100
[:5 100
_-> 100
`:/ 100
awk 100
bay 100
bcc 100
bmc 100
"(( 100
'." 100
((( 100
-08 100
431 100
`.\ 100
ccn 100
cgg 100
ebp 100
emu 100
gwt 100
iaz 100
krb 100
mvt 100
pvc 100
six 100
sky 100
srt 100
udw 100
vfb 100
xbc 100
{0} 100
}". 100
▁5: 100
▁60 100
▁6; 100
▁7. 100
▁8* 100
▁8, 100
▁80 100
▁95 100
">\1 100
#389 100
'201 100
('./ 100
(**{ 100
(-1, 100
(1)) 100
(10, 100
(24, 100
(99) 100
(['( 100
)**2 100
)}/> 100
**14 100
**21 100
*,*. 100
-%02 100
-9]) 100
.650 100
/*", 100
/2', 100
/{}. 100
0.20 100
008' 100
0106 100
0144 100
0525 100
0})) 100
1059 100
1164 100
1197 100
1301 100
1821 100
2.7" 100
2.7- 100
256. 100
27}- 100
29]( 100
335, 100
3525 100
5068 100
6.4. 100
63]( 100
68]( 100
8">< 100
8'), 100
8050 100
8077 100
85", 100
90.1 100
9760 100
:8.0 100
="12 100
="20 100
="3" 100
="@+ 100
="{' 100
=0.1 100
=1., 100
=1{% 100
==0) 100
>/</ 100
>=0. 100
[:1: 100
[:5] 100
\1', 100
](/# 100
_024 100
`](# 100
$// 100
1". 100
5.0 100
506 100
6.0 100
924 100
=1) 100
=19 100
ecc 100
ecp 100
ncy 100
ofb 100
▁5* 100
"]*) 100
$//' 100
0.24 100
00.0 100
adow 100
aksh 100
alys 100
apex 100
asci 100
audi 100
beat 100
bech 100
bnzb 100
boxc 100
brid 100
clau 100
cntl 100
coef 100
crop 100
cros 100
crum 100
cvsp 100
ddly 100
each 100
flex 100
fold 100
freq 100
glob 100
gwtf 100
hold 100
idpc 100
inov 100
kits 100
laze 100
lbox 100
lccn 100
lify 100
marc 100
miva 100
mobi 100
mptt 100
nets 100
ombu 100
opts 100
phed 100
poll 100
rcsp 100
rtmp 100
snew 100
snmp 100
surf 100
tian 100
tidy 100
tttc 100
uous 100
vars 100
vmtx 100
vorb 100
wide 100
wiks 100
wood 100
|]') 100
}}]" 100
▁":" 100
▁#40 100
▁'*. 100
▁'?' 100
▁($5 100
▁(2, 100
▁)); 100
▁*/_ 100
▁+\% 100
▁-1: 100
▁.5, 100
▁/$1 100
▁/*! 100
▁10: 100
▁150 100
▁22: 100
▁3.5 100
▁7]) 100
▁80) 100
▁90; 100
▁<>\ 100
▁["/ 100
▁['$ 100
▁[1] 100
tg 100
(3, 100
)|( 100
*", 100
/", 100
5", 100
9]( 100
>", 100
acu 100
fol 100
iel 100
loa 100
mal 100
mer 100
osh 100
pir 100
vig 100
vol 100
▁$6 100
▁*` 100
▁`* 100
+=", 100
6[0] 100
atca 100
cost 100
cttg 100
lisp 100
taig 100
trun 100
vacu 100
▁$6} 100
▁0.0 100
▁[]; 100
▁`${ 100
▁`*` 100
▁aud 100
▁crt 100
▁csv 100
▁dna 100
▁dst 100
▁eof 100
▁hon 100
▁llc 100
▁ltd 100
▁nlg 100
▁pie 100
▁rng 100
▁rpm 100
▁srt 100
▁tty 100
▁vpc 100
▁xcv 100
▁ycm 100
▁{}) 100
'2000 100
']))) 100
("2") 100
('_', 100
)}/>} 100
)}}', 100
*$//' 100
***** 100
----# 100
.,;:' 100
0.3.1 100
0.9.9 100
0335, 100
1.0.7 100
10.00 100
23549 100
24}-{ 100
25}-{ 100
27763 100
2==2. 100
35254 100
47806 100
495]( 100
501]( 100
506]( 100
53760 100
6680/ 100
94500 100
://{} 100
:5000 100
:8000 100
::-1] 100
="))) 100
='/'> 100
==1.1 100
>=1.1 100
[-1], 100
[0])) 100
[2][' 100
[<(1, 100
\'')) 100
\.7\. 100
])[1] 100
_008= 100
`'):] 100
accat 100
=5 100
')] 100
('0 100
('? 100
0") 100
2}} 100
="! 100
=") 100
][0 100
cvs 100
dos 100
ema 100
gma 100
hip 100
seu 100
squ 100
vec 100
▁4: 100
▁[# 100
▁[` 100
▁gi 100
▁px 100
▁}. 100
"/>< 100
')): 100
-3.0 100
="!$ 100
alls 100
arty 100
atta 100
emai 100
gion 100
pseu 100
pypi 100
quid 100
xbmc 100
xone 100
▁-1; 100
▁alt 100
▁thr 100
▁yum 100
][0]( 100
alics 100
ander 100
aniel 100
aring 100
ascii 100
asive 100
attgt 100
audio 100
aussi 100
aware 100
awsec 100
basic 100
blaze 100
break 100
ccaat 100
child 100
comes 100
comms 100
couch 100
ctcgg 100
cudnn 100
cvsig 100
datum 100
disks 100
emote 100
endor 100
erics 100
esour 100
extre 100
fluid 100
gedin 100
gmail 100
great 100
guest 100
haust 100
hooks 100
icorn 100
idump 100
ilver 100
ircle 100
ising 100
keyus 100
knife 100
kombu 100
large 100
lexec 100
libgl 100
lined 100
loits 100
lural 100
misag 100
monty 100
msgid 100
naker 100
nutil 100
ptvie 100
quene 100
ragma 100
ky 100
|. 100
}` 100
(-1 100
--; 100
/__ 100
128 100
6'] 100
abb 100
ahi 100
aki 100
ijn 100
ium 100
kps 100
med 100
sol 100
thr 100
unl 100
▁*) 100
▁-4 100
▁eb 100
2>{% 100
__() 100
abbb 100
aged 100
cili 100
ders 100
haan 100
igns 100
isal 100
kers 100
orge 100
rief 100
thre 100
▁big 100
▁due 100
▁eli 100
▁ptr 100
(-1)) 100
0000) 100
_008) 100
aigns 100
akiri 100
brief 100
crete 100
ersal 100
ertex 100
flows 100
lited 100
mplar 100
randn 100
reede 100
rence 100
rency 100
riend 100
rutra 100
seqio 100
seven 100
sired 100
sizes 100
sktop 100
specs 100
stems 100
sters 100
taiga 100
thumb 100
tmpfs 100
torch 100
udwig 100
uffer 100
unset 100
ussed 100
utili 100
utton 100
verio 100
weeks 100
wraps 100
{27}- 100
▁"../ 100
▁"0") 100
▁"=", 100
▁$6}' 100
▁%}?_ 100
▁'($4 100
▁'-') 100
▁'.'. 100
▁/^\[ 100
▁0.0; 100
▁0.5) 100
▁0.8. 100
▁1.5; 100
▁1.71 100
▁1999 100
▁2)]) 100
▁2,2, 100
▁200) 100
▁2010 100
▁3.5, 100
▁300) 100
▁40], 100
2; 100
\{ 100
{3 100
">/ 100
1-9 100
27\ 100
="% 100
nls 100
nma 100
pus 100
tax 100
ury 100
▁tb 100
!=1. 100
acon 100
alot 100
imst 100
romo 100
shim 100
txid 100
ying 100
▁"." 100
▁(0, 100
▁did 100
▁pty 100
▁sha 100
▁toc 100
▁vex 100
-256. 100
_008. 100
klass 100
muted 100
odian 100
pusho 100
shims 100
short 100
stest 100
uling 100
uname 100
veral 100
▁10}, 100
▁2007 100
▁['*. 100
▁[(1, 100
▁[20, 100
▁[]): 100
▁adds 100
▁aram 100
▁asks 100
▁atta 100
▁blog 100
▁caro 100
▁copi 100
▁csrf 100
▁died 100
▁dirs 100
▁duck 100
▁etcd 100
▁fact 100
▁fitc 100
▁fult 100
▁glad 100
▁goes 100
▁grab 100
▁hdfs 100
▁hold 100
▁hook 100
▁imgh 100
▁kill 100
▁kivy 100
▁know 100
▁leak 100
▁mand 100
▁mptt 100
▁mule 100
▁omit 100
▁patt 100
▁pika 100
▁plex 100
▁puts 100
▁rank 100
▁risk 100
▁tell 100
▁tons 100
▁trim 100
▁}}"> 100
▁}}'" 100
">\1</ 100
"]*)'' 100
$10.00 100
(',')) 100
('/'), 100
('/'): 100
(.+?): 100
(/\/\& 100
(/\/\? 100
-06:00 100
-07-02 100
-07-05 100
10:59: 100
-` 100
62 100
?: 100
]' 100
nv 100
qq 100
vv 100
}\ 100
"', 100
740 100
=60 100
>01 100
gif 100
hol 100
htm 100
}"> 100
▁"3 100
▁/. 100
▁/= 100
▁8: 100
▁pd 100
▁vm 100
')[' 100
/></ 100
6960 100
ando 100
chie 100
cole 100
scss 100
unes 100
vals 100
▁1.1 100
▁bul 100
▁del 100
▁hue 100
▁ops 100
='*', 100
arith 100
assoc 100
atory 100
flush 100
intro 100
▁bulk 100
▁dupe 100
▁inde 100
▁push 100
▁rele 100
▁vand 100
116466 100
2278>] 100
228454 100
230106 100
3000", 100
321821 100
367476 100
60960* 100
976049 100
==0.2. 100
==0.4. 100
==2.4. 100
>0.9.9 100
[-1][" 100
[0].__ 100
[::-1] 100
[^0-9] 100
accttg 100
almost 100
alysis 100
andoff 100
angups 100
ansion 100
apikey 100
apital 100
asciid 100
atcaag 100
atebay 100
attach 100
bidden 100
boxcar 100
bullet 100
cannot 100
caying 100
chieve 100
circle 100
combin 100
contin 100
counto 100
cussed 100
daemon 100
danger 100
digits 100
docper 100
dotted 100
driven 100
dshape 100
dutton 100
entral 100
ercial 100
essent 100
etched 100
'\ 100
.2 100
.] 100
/% 100
0` 100
9) 100
>% 100
>& 100
`' 100
`\ 100
ej 100
gz 100
ji 100
za 100
-11 100
10) 100
2'] 100
217 100
26, 100
=9) 100
>&1 100
dar 100
doi 100
mlp 100
ork 100
rpm 100
tex 100
ttl 100
}", 100
▁'# 100
▁xx 100
](0. 100
anit 100
coin 100
ejwa 100
gbin 100
lite 100
moji 100
nbsp 100
runs 100
trip 100
wned 100
ylor 100
▁">> 100
▁$0` 100
▁%.2 100
▁3]) 100
▁rst 100
▁xxx 100
▁{{/ 100
/(.*) 100
[1:], 100
agger 100
earns 100
eware 100
moves 100
owned 100
scans 100
▁...] 100
▁2>&1 100
▁bion 100
▁lear 100
▁math 100
▁qemu 100
▁york 100
=0.25, 100
](0.), 100
darwin 100
detect 100
etitor 100
expose 100
flakes 100
floatx 100
forwar 100
freede 100
frozen 100
george 100
getenv 100
headph 100
ington 100
interi 100
intext 100
lapack 100
launch 100
lenium 100
likely 100
liquid 100
litedb 100
livery 100
llings 100
lobber 100
marcin 100
misago 100
modifi 100
navbar 100
ndrang 100
notify 100
nzbget 100
oboost 100
odling 100
#" 100
(% 100
(@ 100
," 100
4' 100
6) 100
=: 100
cr 100
fg 100
']] 100
']} 100
127 100
6') 100
64( 100
fri 100
gla 100
kat 100
nan 100
sif 100
sin 100
ugo 100
▁'_ 100
▁cr 100
▁fy 100
=:99 100
____ 100
ares 100
axon 100
cake 100
ceed 100
clic 100
crud 100
ever 100
oral 100
repo 100
waff 100
wbox 100
▁500 100
▁gue 100
▁vms 100
[1:]: 100
adiaz 100
freet 100
hyper 100
lintr 100
myweb 100
omany 100
osbot 100
owbox 100
umber 100
▁hugo 100
▁mask 100
▁tall 100
▁turn 100
attrib 100
dicted 100
omgwtf 100
passwd 100
paused 100
please 100
postal 100
produc 100
pyamqp 100
qubole 100
raisal 100
rcspat 100
recomm 100
reduce 100
ritunl 100
rootfs 100
rsplit 100
rupted 100
sabnzb 100
satosh 100
scales 100
scroll 100
sdcard 100
secake 100
simpli 100
spkern 100
sqlite 100
stroys 100
theano 100
theora 100
timing 100
umberr 100
undary 100
untary 100
urther 100
vacuum 100
versal 100
ximate 100
~~~~~~ 100
▁"+=", 100
▁"-=", 100
▁"1.0. 100
▁"2.7" 100
▁"3.3" 100
▁"^=", 100
▁'0.2. 100
!} 100
(0 100
-" 100
-2 100
/. 100
/> 100
1; 100
jg 100
oo 100
tl 100
va 100
wl 100
%); 100
',{ 100
),) 100
1._ 100
3", 100
kan 100
mbx 100
rdp 100
vaz 100
▁"& 100
▁6* 100
▁nc 100
([[0 100
))(* 100
8753 100
asdf 100
best 100
kick 100
mask 100
scal 100
▁"/" 100
▁"__ 100
▁0)] 100
▁ifs 100
▁pin 100
▁wra 100
([[0, 100
chomp 100
leshe 100
mtime 100
oauth 100
paper 100
prowl 100
▁#387 100
▁2017 100
▁atom 100
▁ckan 100
▁mich 100
▁slot 100
anging 100
channe 100
edplot 100
fileno 100
hesize 100
vazque 100
▁"&=", 100
▁'0.5. 100
▁'0.9. 100
▁(#389 100
▁(2012 100
▁**84. 100
▁**94. 100
▁**98. 100
▁1.12. 100
▁1.8.0 100
▁2013, 100
▁2013. 100
▁2015, 100
▁2017) 100
▁25%); 100
▁3.7.3 100
▁30})) 100
▁31197 100
▁:8050 100
▁]*)', 100
▁baksh 100
▁casca 100
▁choos 100
▁chore 100
▁chron 100
▁cycle 100
▁diffs 100
▁ebook 100
▁emoji 100
▁encry 100
▁favor 100
▁fcntl 100
▁feder 100
▁final 100
▁flaky 100
▁fname 100
▁freed 100
▁frequ 100
▁fresh 100
▁funct 100
▁great 100
▁guess 100
▁guest 100
!" 100
*| 100
/) 100
/< 100
2[ 100
5" 100
]/ 100
_, 100
ev 100
hs 100
sz 100
tv 100
'', 100
005 100
1', 100
262 100
64) 100
dra 100
jit 100
sty 100
too 100
▁#: 100
▁/( 100
▁\$ 100
▁ba 100
)}}; 100
:{}/ 100
="15 100
[10, 100
ceil 100
maps 100
recv 100
segm 100
song 100
▁"): 100
▁xen 100
("-") 100
+0000 100
2="$_ 100
47796 100
=[10, 100
enmod 100
ftmax 100
sedit 100
▁">", 100
▁pyes 100
▁situ 100
+0000\ 100
anelle 100
except 100
family 100
otogra 100
pseudo 100
rmtree 100
silent 100
toxenv 100
▁1.71, 100
▁badpa 100
▁heart 100
▁imghd 100
▁iopub 100
▁learn 100
▁loads 100
▁locus 100
▁logst 100
▁maint 100
▁maxim 100
▁mixer 100
▁multi 100
▁muted 100
▁nodes 100
▁oauth 100
▁occur 100
▁oddly 100
▁opera 100
▁packa 100
▁paste 100
▁piece 100
▁popul 100
▁posts 100
▁prior 100
▁pyzmq 100
▁qcore 100
▁scale 100
▁sigma 100
▁spacy 100
▁spell 100
▁timer 100
▁touch 100
▁trunk 100
▁typed 100
▁udesc 100
▁umask 100
▁voice 100
▁waste 100
▁webui 100
▁whose 100
▁wider 100
▁wrapp 100
▁wrapt 100
%} 100
-6 100
_% 100
ae 100
bn 100
);\ 100
1). 100
7': 100
907 100
ctp 100
dec 100
enk 100
gro 100
iso 100
lle 100
mle 100
off 100
rgb 100
ros 100
une 100
▁', 100
▁'4 100
▁'6 100
▁8] 100
▁=' 100
▁cm 100
▁oo 100
▁pb 100
()); 100
404) 100
68** 100
dctp 100
deal 100
fied 100
lice 100
meas 100
scan 100
todo 100
▁abc 100
▁dro 100
▁eco 100
▁emr 100
▁mut 100
▁ret 100
(404) 100
00101 100
==0.1 100
camel 100
chdir 100
groun 100
maper 100
▁plat 100
▁ring 100
▁seed 100
▁stor 100
▁supp 100
(5)>') 100
10.7': 100
[0-9]) 100
dealer 100
denied 100
isters 100
offest 100
subset 100
verage 100
vorbis 100
▁adapt 100
▁avahi 100
▁dupes 100
▁indic 100
▁isort 100
▁libav 100
▁unity 100
▁young 100
▁zulip 100
(-0.20, 100
-2001.\ 100
0-9._]* 100
1301330 100
4780659 100
==0.1.0 100
==0.3.1 100
==0.8.1 100
==0.8.7 100
======= 100
>=1.8,< 100
_008[0] 100
amounts 100
aresame 100
asyncio 100
atility 100
because 100
britain 100
brokers 100
checked 100
chunked 100
claudia 100
closing 100
company 100
compare 100
(& 100
3: 100
ld 100
xd 100
'][ 100
346 100
:': 100
ane 100
lia 100
ued 100
vul 100
wiz 100
▁). 100
▁0" 100
▁mr 100
▁rm 100
▁ul 100
5933 100
>302 100
[[], 100
alle 100
bugs 100
copi 100
fuse 100
kept 100
lost 100
meso 100
must 100
omit 100
pypy 100
▁"": 100
▁acc 100
▁adu 100
▁cmp 100
▁ins 100
▁neg 100
▁rid 100
▁tip 100
72827 100
allel 100
cmark 100
ipant 100
mesos 100
usels 100
▁cola 100
▁cort 100
▁dest 100
▁dots 100
▁hill 100
▁kept 100
▁star 100
>302</ 100
assand 100
bidire 100
closed 100
htmles 100
minate 100
mities 100
reason 100
strong 100
tagger 100
wizard 100
▁ndims 100
7282711 100
==0.6.0 100
complex 100
concept 100
console 100
contain 100
couchid 100
covered 100
credent 100
cvspass 100
dtfield 100
enotype 100
entered 100
eresour 100
ericson 100
ertests 100
finally 100
fixtags 100
folders 100
fromrgb 100
funding 100
glacier 100
hashtag 100
highest 100
indexes 100
indexof 100
ipproto 100
ismixin 100
iversal 100
jupyter 100
keydown 100
lesheet 100
limiter 100
linesep 100
lookups 100
magento 100
mailcmd 100
("/ 100
-1. 100
279 100
='# 100
['" 100
amd 100
bet 100
nsu 100
rel 100
'')) 100
')), 100
("__ 100
([1, 100
([]) 100
*[^\ 100
[0]: 100
anim 100
chev 100
ifex 100
proc 100
vimb 100
wind 100
▁"0. 100
▁'</ 100
▁2)) 100
▁401 100
▁80, 100
▁abi 100
▁bel 100
▁gir 100
▁iam 100
▁nam 100
1.12" 100
100', 100
ioctl 100
keras 100
phbet 100
reful 100
toder 100
▁4011 100
▁cert 100
▁doct 100
▁leaf 100
▁made 100
▁memo 100
▁nacl 100
▁objs 100
▁opts 100
▁para 100
▁subs 100
affect 100
follow 100
locale 100
locked 100
outdim 100
reward 100
tunnel 100
unable 100
▁'0.4. 100
▁10)), 100
▁errno 100
▁maybe 100
▁third 100
="1.12" 100
assumed 100
bambook 100
chevron 100
dynamic 100
getcode 100
keyfile 100
lookfor 100
makedir 100
mistral 100
modname 100
mpaigns 100
mplates 100
mysecre 100
nellbox 100
newznab 100
ngaussi 100
noindex 100
noreply 100
odelete 100
onclick 100
onlyips 100
outside 100
passlib 100
percent 100
perform 100
pidfile 100
placing 100
playing 100
program 100
provide 100
qaction 100
queness 100
queries 100
randint 100
rdparty 100
reached 100
/$ 100
7/ 100
xx 100
:</ 100
>") 100
nch 100
▁4; 100
▁ya 100
▁{< 100
()"> 100
1.2- 100
alex 100
diso 100
fake 100
gime 100
lift 100
mods 100
▁"") 100
▁0): 100
▁aug 100
▁beh 100
▁chr 100
▁der 100
▁rds 100
▁tls 100
(100, 100
37-43 100
50001 100
:.650 100
ately 100
ctime 100
faces 100
faker 100
ffect 100
gimel 100
logic 100
pylab 100
retri 100
rtype 100
texts 100
trial 100
unity 100
▁""") 100
▁hash 100
▁rasa 100
')[1]) 100
'][1]) 100
malloc 100
myplex 100
nchron 100
reload 100
ressed 100
sheets 100
trades 100
wglget 100
▁navig 100
▁oname 100
▁refer 100
▁throw 100
ctional 100
mininov 100
removed 100
reports 100
resolve 100
restapi 100
reverse 100
sabnzbd 100
seditor 100
segment 100
shardid 100
sharing 100
sidebar 100
softmax 100
squared 100
stdouts 100
strings 100
subject 100
testapp 100
tolower 100
toolkit 100
unicate 100
uptuous 100
userlog 100
utcomes 100
vazquez 100
waiting 100
youtube 100
▁">>=", 100
▁'1.0.7 100
▁([#393 100
▁-1),)) 100
▁1.71), 100
▁10:59: 100
▁2.00.0 100
▁3\.7\. 100
▁across 100
▁actual 100
▁advert 100
▁altern 100
▁arpack 100
'< 100
(\ 100
-7 100
mu 100
vh 100
yy 100
-1) 100
\'\ 100
dao 100
iro 100
lms 100
mnt 100
rng 100
rpc 100
sym 100
whe 100
{\\ 100
▁$. 100
▁9) 100
▁^/ 100
▁mh 100
bdir 100
bone 100
cape 100
dirs 100
fail 100
lang 100
prev 100
}{\\ 100
▁'1' 100
▁*** 100
▁0], 100
▁400 100
▁ind 100
▁shr 100
▁}}' 100
__.__ 100
alism 100
apple 100
argcd 100
cairo 100
codec 100
docks 100
httpd 100
quant 100
repos 100
rowse 100
rules 100
timed 100
until 100
▁"']. 100
▁0)], 100
▁endi 100
▁hour 100
▁soon 100
▁upon 100
▁wash 100
▁xarf 100
▁youg 100
attgtg 100
browse 100
escape 100
itunes 100
prefer 100
preter 100
tolist 100
transl 100
▁elsif 100
▁means 100
▁newip 100
▁runpy 100
▁sname 100
(-0.21, 100
getitem 100
measure 100
overlay 100
textbox 100
▁atomic 100
▁avconv 100
▁become 100
▁bionic 100
▁blocks 100
▁broker 100
▁bugfix 100
▁bytest 100
▁caller 100
▁closed 100
▁combin 100
▁counts 100
▁crypto 100
▁ctable 100
▁daniel 100
▁doesnt 100
▁easily 100
▁effici 100
▁emrjob 100
▁endife 100
▁family 100
▁fileno 100
▁finder 100
tb 100
vd 100
">% 100
">' 100
">( 100
("% 100
)], 100
**6 100
**7 100
-01 100
-17 100
1** 100
133 100
647 100
='0 100
phy 100
pxd 100
sac 100
}); 100
▁3) 100
▁jr 100
▁ju 100
▁qe 100
▁ry 100
")], 100
excl 100
libs 100
ough 100
park 100
phen 100
pick 100
▁30, 100
▁``$ 100
▁``_ 100
▁jim 100
▁jit 100
arial 100
ators 100
caper 100
growl 100
indim 100
irver 100
lites 100
macre 100
shlib 100
uting 100
▁")"; 100
▁clib 100
▁esac 100
▁gent 100
▁stre 100
0.9.3, 100
ervice 100
opened 100
pended 100
▁...]) 100
▁dummy 100
▁dword 100
▁spark 100
▁watch 100
▁xhtml 100
docperm 100
groundb 100
history 100
ivation 100
listdir 100
nzbsorg 100
prevent 100
referer 100
skipped 100
sudoers 100
waffles 100
▁flakes 100
▁forgot 100
▁friend 100
▁fulton 100
▁functo 100
▁george 100
▁getcwd 100
▁hashes 100
▁hidden 100
▁howdoi 100
▁imghdr 100
▁immedi 100
▁inject 100
▁invent 100
▁ledger 100
▁libssl 100
▁limits 100
▁loaded 100
▁locals 100
▁locate 100
▁logout 100
▁ludwig 100
▁marked 100
▁member 100
▁minute 100
▁mixing 100
▁mkdocs 100
▁moving 100
,) 100
]\ 100
/>< 100
293 100
4]( 100
=2. 100
]]. 100
`.` 100
fds 100
ned 100
nll 100
wav 100
▁"` 100
__": 100
bits 100
dbus 100
deps 100
here 100
labc 100
lisa 100
mate 100
mick 100
tcsh 100
utes 100
▁$`` 100
▁269 100
▁bdb 100
▁kub 100
▁rsa 100
32}') 100
:1000 100
=1.): 100
abort 100
aving 100
house 100
sheep 100
tsalt 100
▁1.3. 100
▁2015 100
▁hole 100
▁scme 100
▁tens 100
attack 100
edited 100
ensive 100
ertask 100
lindex 100
pslist 100
racket 100
undant 100
▁comps 100
▁serve 100
▁types 100
▁whate 100
=0.125, 100
appcase 100
estring 100
expires 100
friends 100
scmtool 100
sigterm 100
▁decomp 100
▁endadd 100
▁native 100
▁nature 100
▁nested 100
▁ngauss 100
▁observ 100
▁opened 100
▁opengl 100
▁passen 100
▁paused 100
▁photon 100
▁pixels 100
▁places 100
▁plotly 100
▁points 100
▁pprint 100
▁pragma 100
▁prices 100
▁printf 100
▁prompt 100
▁psutil 100
▁qinput 100
▁qpoint 100
▁recall 100
▁reedit 100
▁regard 100
▁releas 100
▁retval 100
▁rights 100
▁router 100
▁rtmpfd 100
▁scikit 100
▁scores 100
▁sentry 100
▁series 100
▁shimst 100
▁silent 100
▁simply 100
)} 100
fy 100
'[\ 100
)-1 100
,)) 100
0., 100
103 100
3.3 100
6': 100
\"] 100
dry 100
fee 100
vex 100
▁.5 100
▁18 100
▁4* 100
▁41 100
▁ds 100
▁}\ 100
");\ 100
('\' 100
-1', 100
="19 100
=16, 100
cdot 100
defs 100
disk 100
gray 100
they 100
zdef 100
{}{} 100
▁csh 100
▁nat 100
...') 100
leave 100
plots 100
react 100
sampl 100
shake 100
share 100
{}{}/ 100
▁adam 100
▁argv 100
▁slug 100
("6.4. 100
10.6': 100
:6680/ 100
ffplay 100
player 100
review 100
shared 100
userid 100
▁dense 100
▁qrect 100
▁short 100
▁thing 100
batches 100
checker 100
esecake 100
reified 100
searchx 100
▁'{}{}/ 100
▁bundle 100
▁explor 100
▁itself 100
▁scheme 100
▁solver 100
▁splice 100
▁splits 100
▁stddev 100
▁stripe 100
▁submit 100
▁subtle 100
▁tested 100
▁themes 100
▁tuning 100
▁tuples 100
▁tweaks 100
▁unpack 100
▁unsafe 100
▁vertex 100
▁videos 100
▁visits 100
▁xarray 100
▁xenial 100
"]*)''', 100
------#" 100
0-9._]*) 100
03-07-02 100
24,25}-{ 100
34+0200\ 100
>0.9.9</ 100
_008[0]) 100
accident 100
aclsetup 100
adedpoll 100
aggccaat 100
alephbet 100
allclose 100
anaconda 100
258 100
364 100
=25 100
cbe 100
("{} 100
="25 100
corr 100
tell 100
▁lex 100
)[0]. 100
=256, 100
▁4+4- 100
▁colls 100
getlist 100
▁choice 100
anitizer 100
apitests 100
archinfo 100
asciidoc 100
assandra 100
assertin 100
basename 100
builtins 100
cachedir 100
checkbox 100
checking 100
checksum 100
children 100
compiled 100
composer 100
concrete 100
conflict 100
crossent 100
delivery 100
describe 100
detector 100
disables 100
discount 100
dramatiq 100
dropdown 100
emphasis 100
enhanced 100
execinfo 100
executed 100
exponent 100
exporter 100
extended 100
fdrcspat 100
formdata 100
freetype 100
frontend 100
germeval 100
harakiri 100
humanize 100
ialclass 100
importer 100
incorpor 100
indexers 100
interior 100
keyusage 100
lexecute 100
lintrule 100
lncurses 100
mailargs 100
makedirs 100
messages 100
mininova 100
modified 100
ndranghe 100
ndwidget 100
newsblur 100
ningpeer 100
operands 100
optimize 100
organism 100
pathname 100
periodic 100
personal 100
pickable 100
pictures 100
plotting 100
policies 100
prevdiff 100
priority 100
producer 100
pushalot 100
pushover 100
pytibber 100
queryset 100
released 100
requires 100
resilver 100
romosome 100
sampling 100
satoshis 100
setlevel 100
songkick 100
standoff 100
startgas 100
stoploss 100
stringio 100
strptime 100
supports 100
suppress 100
theclass 100
toderive 100
toplevel 100
ustodian 100
utorrent 100
vazquezd 100
vmobject 100
whatsnew 100
▁([507]( 100
▁(`#4257 100
▁(`#4288 100
▁2013-11 100
▁achieve 100
▁aliases 100
▁allowed 100
▁angular 100
▁another 100
▁appears 100
▁assumes 100
▁asyncio 100
▁attempt 100
▁authors 100
▁autofix 100
▁badmarc 100
▁balance 100
▁bambook 100
▁battles 100
▁boosted 100
▁britain 100
▁builder 100
▁builtin 100
▁capital 100
▁cascade 100
▁categor 100
▁celeryd 100
▁central 100
▁chained 100
▁checker 100
▁cimport 100
▁clarify 100
▁cleanup 100
▁clobber 100
▁cloning 100
▁codegen 100
▁collect 100
▁configs 100
▁consume 100
▁contact 100
▁convent 100
▁crashes 100
▁credits 100
▁desired 100
▁destroy 100
▁dirname 100
▁disrupt 100
▁drawing 100
▁dynamic 100
▁elapsed 100
▁enables 100
▁encoded 100
▁enhance 100
▁exceeds 100
▁exclude 100
▁explain 100
▁exploit 100
▁factory 100
▁failing 100
▁fetched 100
▁follows 100
▁formula 100
▁further 100
▁getopen 100
▁getpass 100
▁gitfuse 100
▁globals 100
▁hangups 100
▁highest 100
▁honored 100
▁ifequal 100
▁indexes 100
▁integer 100
▁iocjson 100
▁ioclist 100
▁ioerror 100
▁iterate 100
▁keyring 100
▁kwdargs 100
▁leading 100
▁libedit 100
▁lighten 100
▁limited 100
▁lintian 100
▁maildir 100
▁mailing 100
▁mapping 100
▁memoize 100
▁mention 100
▁metrics 100
▁modules 100
▁monthly 100
▁multipy 100
▁nsarray 100
▁ongoing 100
▁onlyips 100
▁openssl 100
▁optical 100
▁packing 100
▁partner 100
▁pending 100
▁picture 100
▁placing 100
▁prepare 100
▁printer 100
▁pritunl 100
▁problem 100
▁pyquery 100
▁qsingle 100
▁qwidget 100
▁reached 100
▁reflect 100
▁regular 100
▁removal 100
▁reports 100
▁resized 100
▁routing 100
▁sampled 100
▁scaling 100
▁science 100
▁scmtool 100
▁seconds 100
▁segment 100
▁setuppy 100
▁several 100
▁shrinks 100
▁sigmoid 100
▁signals 100
▁similar 100
▁sklearn 100
▁solvers 100
▁someone 100
▁spinner 100
▁stearns 100
▁streets 100
▁styling 100
▁subsync 100
▁suffici 100
▁swapped 100
▁templar 100
▁terrain 100
▁trusted 100
▁uicolor 100
▁unicorn 100
▁useradd 100
▁utility 100
▁viewing 100
▁welcome 100
▁xdigits 100
▁ycmcore 100
▁zeronet 100
'2000-200 100
014453760 100
10590335, 100
228454237 100
311367476 100
://{}:{}/ 100
:28+0200\ 100
==3.6.6', 100
alexander 100
algorithm 100
appraisal 100
authentic 100
bdisttest 100
blacklist 100
blueprint 100
bookmarks 100
botplugin 100
clientabc 100
codestyle 100
computing 100
configobj 100
cremented 100
cursorcol 100
cvsignore 100
datashape 100
decorator 100
decrypted 100
deferreds 100
deprecate 100
documents 100
dummytask 100
encrypted 100
entrypage 100
eresource 100
essential 100
evolution 100
exefolder 100
extractor 100
filtering 100
forbidden 100
forwarded 100
generated 100
geometric 100
gitignore 100
histogram 100
histories 100
holoviews 100
ieversion 100
imageview 100
inputline 100
instances 100
insteadof 100
intercept 100
iswindows 100
levelname 100
libvorbis 100
listequal 100
loginview 100
mergeable 100
namedtemp 100
nonrobust 100
normalize 100
nsmutable 100
observers 100
oraryfile 100
organelle 100
owboxplot 100
pacemaker 100
paperinfo 100
parameter 100
persistor 100
phantomjs 100
piratebay 100
positions 100
posterror 100
processes 100
pyopenssl 100
qlineedit 100
qthelpers 100
readlines 100
recovered 100
registrar 100
roundtrip 100
rutracker 100
secondary 100
serialize 100
setheader 100
setmaster 100
shrinking 100
smasensor 100
statement 100
subscribe 100
svnpoller 100
synoindex 100
threading 100
toolchain 100
translate 100
triggered 100
tttcctcgg 100
tutorials 100
unarchive 100
versation 100
wikswitch 100
wrapfirst 100
xyzmatrix 100
▁'.0/24', 100
▁12035254 100
▁31197348 100
▁======== 100
▁analysis 100
▁anywhere 100
▁argindex 100
▁assertin 100
▁attacker 100
▁autoaudi 100
▁bakshian 100
▁binaries 100
▁binomial 100
▁blocking 100
▁boundary 100
▁browsers 100
▁buildiso 100
▁calendar 100
▁category 100
▁changing 100
▁chaosbot 100
▁checkbox 100
▁checksum 100
▁choosing 100
▁compared 100
▁compiler 100
▁compress 100
▁conftest 100
▁contains 100
▁controls 100
▁couldnot 100
▁dbusmenu 100
▁dctptvie 100
▁decaying 100
▁deleting 100
▁deployed 100
▁destroys 100
▁detected 100
▁directed 100
▁diskless 100
▁dropdown 100
▁duration 100
▁editable 100
▁elemwise 100
▁enterabs 100
▁estimate 100
▁failjson 100
▁favorite 100
▁filtered 100
▁germeval 100
▁getmodul 100
▁homepage 100
▁humanize 100
▁intended 100
▁internal 100
▁invasive 100
▁islinked 100
▁libboost 100
▁limiting 100
▁logstash 100
▁manually 100
▁markread 100
▁mimedata 100
▁mimetype 100
▁national 100
▁negative 100
▁newlines 100
▁parseint 100
▁pathname 100
▁photogra 100
▁playable 100
▁playback 100
▁polyaxon 100
▁printing 100
▁problems 100
▁programm 100
▁proposed 100
▁pygments 100
▁pythread 100
▁pytibber 100
▁recorded 100
▁replicas 100
▁reposync 100
▁resolves 100
▁reviewed 100
▁rotation 100
▁sections 100
▁selenium 100
▁showtext 100
▁shrinker 100
▁simplify 100
▁skiptest 100
▁somebody 100
▁spregion 100
▁sqlitedb 100
▁starting 100
▁strategy 100
▁temporal 100
▁tendency 100
▁testdims 100
▁thisdiff 100
▁timefunc 100
▁timezone 100
▁toolkits 100
▁treebank 100
▁whenever 100
▁wrapping 100
.*$/,'/'). 100
.*$/,'/'); 100
0525230106 100
127.0.0.1" 100
4780659225 100
accttgctgg 100
agentcheck 100
arithmetic 100
authhelper 100
autoissues 100
background 100
channelabc 100
collection 100
combinator 100
compatible 100
completeme 100
contribute 100
cornellbox 100
ctggatcaag 100
datasource 100
dbsnapshot 100
definition 100
deprecated 100
dimensions 100
dispatcher 100
domwrapper 100
downloader 100
dummymodel 100
emailfield 100
embeddings 100
entitycode 100
ertestcase 100
expanduser 100
foreground 100
foreignkey 100
frombuffer 100
getsdfiles 100
getwinsize 100
headphones 100
isinstance 100
isrelative 100
jsonconfig 100
keyrequest 100
lationship 100
lispindent 100
llingswood 100
mailsource 100
maperitive 100
middleware 100
migrations 100
modulargcd 100
ncampaigns 100
newversion 100
ngaussians 100
nsuinteger 100
omgwtfnzbs 100
paddingtop 100
permission 100
production 100
publishers 100
pushbullet 100
recommends 100
regression 100
serialized 100
signingkey 100
simplified 100
sourcename 100
splitlines 100
stemplates 100
timeformat 100
translator 100
umberrange 100
uniqueness 100
unreleased 100
userapikey 100
waldenberg 100
websupport 100
wglgetproc 100
worksheets 100
▁'"]*)''', 100
▁**96.68** 100
▁269116466 100
▁5000:5000 100
▁addresses 100
▁associate 100
▁attempted 100
▁authproxy 100
▁backwards 100
▁beginning 100
▁blockdims 100
▁broodling 100
▁cancelled 100
▁carousels 100
▁character 100
▁clibuffer 100
▁completed 100
▁computing 100
▁coveralls 100
▁datashape 100
▁datastore 100
▁debugging 100
▁delayfunc 100
▁depending 100
▁discussed 100
▁docstring 100
▁documents 100
▁downgrade 100
▁ecosystem 100
▁eliminate 100
▁engineloa 100
▁evaluates 100
▁exceeding 100
▁expansion 100
▁extractor 100
▁filterset 100
▁framework 100
▁functools 100
▁gitignore 100
▁glversion 100
▁gotcancel 100
▁handshake 100
▁heartbeat 100
▁imagefont 100
▁incorrect 100
▁installer 100
▁ispackage 100
▁iswindows 100
▁iteritems 100
▁itertools 100
▁ivretests 100
▁listening 100
▁localfile 100
▁migrating 100
▁migration 100
▁natsorted 100
▁navigator 100
▁necessary 100
▁openstack 100
▁optimizer 100
▁packaging 100
▁plaintext 100
▁platforms 100
▁precision 100
▁predicted 100
▁qsplitter 100
▁quickmark 100
▁recreated 100
▁recurrent 100
▁redundant 100
▁registers 100
▁relevance 100
▁replacing 100
▁replicate 100
▁represent 100
▁scheduler 100
▁showflash 100
▁similarly 100
▁spinnaker 100
▁srtparser 100
▁subformat 100
▁subtensor 100
▁suspended 100
▁sympified 100
▁threading 100
▁timestamp 100
▁traitlets 100
▁transifex 100
▁translate 100
▁triggered 100
▁tryexcept 100
▁universal 100
▁vandalism 100
2776360960* 100
backgroundb 100
backslashes 100
basecommand 100
basedataset 100
blendercrop 100
blendertask 100
certificate 100
communicate 100
createdbdir 100
credentials 100
crudservice 100
currentdict 100
detailsview 100
development 100
formaterror 100
freedesktop 100
htmlescaper 100
hypersearch 100
incorporate 100
ingfinished 100
initialized 100
modulesrule 100
mywebclient 100
orientation 100
plotcontext 100
proxyiplist 100
rapydscript 100
replacement 100
restoration 100
scalematrix 100
searchregex 100
showmessage 100
stringmixin 100
tempcontent 100
tolowercase 100
variational 100
▁/^\[(.+?): 100
▁2014/08/21 100
▁addressing 100
▁addtoblock 100
▁attachment 100
▁attempting 100
▁authhelper 100
▁autodelete 100
▁badpayload 100
▁bytestring 100
▁calculated 100
▁cgenerator 100
▁characters 100
▁commercial 100
▁competitor 100
▁compileall 100
▁completely 100
▁components 100
▁connstring 100
▁covariance 100
▁credential 100
▁dbinstance 100
▁decompress 100
▁developers 100
▁difference 100
▁dispersion 100
▁distribute 100
▁downloaded 100
▁efficiency 100
▁encryption 100
▁endifequal 100
▁executable 100
▁explicitly 100
▁federation 100
▁formatting 100
▁futuredesc 100
▁getsamples 100
▁inspection 100
▁isinternal 100
▁libavcodec 100
▁logcontext 100
▁membership 100
▁metricname 100
▁modelindex 100
▁motoserver 100
▁movecursor 100
▁multigraph 100
▁namespaces 100
▁preprocess 100
▁quickstart 100
▁qvalidator 100
▁redirected 100
▁relatively 100
▁remotename 100
▁responsive 100
▁scheduling 100
▁screenshot 100
▁simplejson 100
▁submission 100
▁submodules 100
▁successful 100
▁supplement 100
▁tabdocperm 100
▁testcreate 100
▁testreader 100
▁themselves 100
▁throughout 100
▁transition 100
▁undirected 100
▁unreadable 100
▁validateks 100
▁vectorized 100
▁volatility 100
▁voluptuous 100
▁waldenberg 100
▁washington 100
▁whateverio 100
0-9._]*\[([\ 100
321821976049 100
adedpolltext 100
asynciodebug 100
cebackobject 100
channeltests 100
choicefilter 100
conceptually 100
crossentropy 100
deeplearning 100
defaulttable 100
dependencies 100
developerkey 100
doesnotexist 100
getattribute 100
hashkeyrange 100
linuxcommand 100
localstorage 100
macresources 100
multiservice 100
mysecretsalt 100
packagemaker 100
pluginwidget 100
reconnecting 100
routingrules 100
slavebuilder 100
startworkers 100
templatetags 100
transformers 100
transmission 100
updateoutput 100
userloggedin 100
{22,23,24}-{ 100
▁"127.0.0.1" 100
▁"2014-01-06 100
▁(2012-07-05 100
▁[2014-01-06 100
▁advertising 100
▁ansiblelint 100
▁approximate 100
▁attachments 100
▁buildmaster 100
▁chronoboost 100
▁composition 100
▁computation 100
▁conditional 100
▁considerion 100
▁consistency 100
▁constructor 100
▁defaultdict 100
▁exploration 100
▁feedforward 100
▁filechooser 100
▁filestorage 100
▁groupoffice 100
▁httprequest 100
▁immediately 100
▁incremented 100
▁indentation 100
▁independent 100
▁instantiate 100
▁intelligent 100
▁interrupted 100
▁inventories 100
▁jailservice 100
▁lightweight 100
▁loadertests 100
▁lockexpired 100
▁maintainers 100
▁metricmodel 100
▁participant 100
▁permutation 100
▁prettyprint 100
▁qmainwindow 100
▁rallytarget 100
▁reconfigure 100
▁redirecting 100
▁replacement 100
▁serializers 100
▁servicebase 100
▁suggestions 100
▁threadawsec 100
▁threadslist 100
▁transmitted 100
▁uninstalled 100
************* 100
0-9._]*)\[([\ 100
administrator 100
attributepage 100
authenticated 100
authorization 100
bidirectional 100
clientsession 100
commonoverlap 100
countoutcomes 100
enhancedmodel 100
fixedtimezone 100
maybedeferred 100
normalization 100
querycontacts 100
serversession 100
stackedinline 100
stackedwidget 100
standardjails 100
symboliclinks 100
ultisnipsedit 100
ultisnipsjump 100
updatemanager 100
▁------------ 100
▁alternatives 100
▁baseplayback 100
▁computations 100
▁configparser 100
▁contributing 100
▁customerform 100
▁deviceplugin 100
▁emrjobrunner 100
▁faulthandler 100
▁ffmpegcamera 100
▁gitinspector 100
▁htmlresource 100
▁incsubtensor 100
▁jsonprotocol 100
▁khalcalendar 100
▁multidigraph 100
▁notification 100
▁photographed 100
▁preprocessor 100
▁processcheck 100
▁qinputdialog 100
▁scmexception 100
▁templateview 100
-------------- 100
activitystream 100
ationalization 100
backwardcompat 100
ertestcasebase 100
filedownloader 100
formpluginbase 100
isrelativetype 100
loggingcontext 100
nsmutablearray 100
orderplacement 100
readpreference 100
requestbuilder 100
sequencenumber 100
sequencetagger 100
sublimelistenr 100
toderivesecret 100
wrapfirsterror 100
▁apicontroller 100
▁assertismixin 100
▁automatically 100
▁consumeerrors 100
▁decimalnumber 100
▁dialogmanager 100
▁endaddtoblock 100
▁functionality 100
▁getmodulename 100
▁installwizard 100
▁keypressevent 100
▁lightningpeer 100
▁messagewidget 100
▁ndarrayhandle 100
▁pythreadstate 100
▁qwebinspector 100
▁sequencespace 100
▁shimstestcase 100
▁sphinxcontrib 100
▁testnegbinclu 100
▁viewportjails 100
▁workermanager 100
▁youcompleteme 100
assertlistequal 100
backgroundcolor 100
booleanproperty 100
conflictwarning 100
ctggatcaagaccat 100
experimentgroup 100
helperfunctions 100
lookupexefolder 100
minustrainermix 100
projectresource 100
timedistributed 100
upportedbrowser 100
{22,23,24,25}-{ 100
▁1478810590335, 100
▁browsersupport 100
▁completionview 100
▁fullconnection 100
▁lightningerror 100
▁scipydatastore 100
▁triblerrequest 100
▁uicolorfromrgb 100
▁viewlinuxjails 100
▁widgetsbrowser 100
(/\/\&.*$/,'/'); 100
(/\/\?.*$/,'/'). 100
2284542371301330 100
^^^^^^^^^^^^^^^^ 100
connectionclosed 100
disablesanitizer 100
dummymodelrunner 100
fdrcspatialclass 100
lemmatizerlookup 100
threadedpolltext 100
transformermixin 100
▁commandlineedit 100
▁datasetapitests 100
▁getopenfilename 100
▁handshakefailed 100
▁holoviewswidget 100
▁inventorysource 100
▁testcurrentdict 100
#30 100
#@% 100
&#3 100
(/{ 100
(?: 100
)+" 100
-]* 100
.9, 100
/)? 100
0:1 100
55> 100
:^( 100
=\( 100
[<' 100
\(\ 100
\}\ 100
ikh 100
iki 100
jni 100
srs 100
yua 100
yuh 100
#/)? 100
&#39 100
&]*) 100
('(% 100
(10) 100
(192 100
(5), 100
)(?: 100
+"$/ 100
+"', 100
+">% 100
-004 100
-1.3 100
-]*\ 100
-`). 100
.1", 100
.153 100
001- 100
0092 100
0911 100
0950 100
1331 100
160* 100
1792 100
1}". 100
23.3 100
2}') 100
3004 100
3167 100
3455 100
4058 100
4288 100
4:]. 100
5765 100
5798 100
62** 100
6297 100
6509 100
6560 100
7577 100
7977 100
7:11 100
8-1. 100
9098 100
92** 100
9536 100
998; 100
:0:1 100
:10) 100
:431 100
=-1) 100
=-1. 100
=16) 100
=2): 100
=20) 100
=400 100
=64, 100
[0., 100
[2]: 100
[5:] 100
\"]\ 100
\"]| 100
\[(? 100
\{\{ 100
\}\} 100
_856 100
_{0} 100
_{}( 100
beza 100
chld 100
cmda 100
cram 100
dndk 100
eijn 100
ftof 100
hiko 100
hmtx 100
holm 100
ikho 100
iliy 100
muex 100
omix 100
usix 100
xdmi 100
xvfb 100
yyyy 100
}:${ 100
}`). 100
▁']' 100
▁(/< 100
▁16) 100
▁4.1 100
▁45; 100
▁5.7 100
▁81* 100
▁[2] 100
▁[9, 100
▁ctx 100
▁heg 100
▁jwt 100
▁mcm 100
▁mhv 100
▁rhs 100
+)? 100
+[\ 100
/15 100
/;$ 100
679 100
845 100
joh 100
+)?$ 100
/'/; 100
/15/ 100
1519 100
272* 100
3295 100
4>{{ 100
6495 100
6727 100
952* 100
::.+ 100
?)", 100
[^'] 100
_2}} 100
sexp 100
|>') 100
▁(2* 100
▁0}; 100
▁^\[ 100
▁{3: 100
"((?: 100
#3064 100
&#39; 100
'008' 100
("/") 100
("{}\ 100
(#/)? 100
('?', 100
((100 100
(.+?) 100
(500, 100
))+[\ 100
)-1=% 100
)|(\\ 100
-08-0 100
-1)). 100
-16') 100
-{}". 100
.-]*\ 100
.153- 100
.]'], 100
/(?:\ 100
/;$() 100
00014 100
00019 100
0005' 100
00532 100
00647 100
05-17 100
1.100 100
10-01 100
10323 100
105() 100
10513 100
10635 100
12907 100
14577 100
15258 100
16075 100
16225 100
17380 100
19496 100
1955> 100
1972. 100
24217 100
25293 100
26085 100
26264 100
27997 100
28886 100
29394 100
3001- 100
316', 100
31717 100
31737 100
33197 100
333', 100
33924 100
35364 100
40687 100
47547 100
481]( 100
48836 100
50.20 100
53970 100
54795 100
6.3', 100
62974 100
64749 100
65607 100
67272 100
68258 100
68748 100
3+) 100
+)[' 100
(3)), 100
69787 100
69796 100
74049 100
79770 100
80237 100
80411 100
80623 100
86836 100
89127 100
9.0', 100
90788 100
94600 100
98127 100
99133 100
99577 100
99800 100
://.+ 100
="*", 100
=(192 100
=10): 100
=19', 100
>|]') 100
[4:]. 100
\"]|\ 100
__))+ 100
alias 100
antlr 100
boots 100
canon 100
cceed 100
cihar 100
cross 100
cryst 100
enska 100
facin 100
gnyuh 100
gunic 100
hemer 100
ipsas 100
lersh 100
looka 100
lorem 100
magic 100
ndays 100
nhere 100
percs 100
ptemp 100
pyjni 100
rench 100
scala 100
simil 100
slots 100
udhol 100
ufact 100
uneja 100
video 100
vimrc 100
vulns 100
wheel 100
winsz 100
xdeps 100
zulip 100
▁"3.8 100
▁#402 100
▁','. 100
▁'0', 100
▁'2.6 100
▁'_'. 100
▁(/<\ 100
▁(10, 100
▁(7.0 100
▁-21. 100
▁1);\ 100
▁1.0\ 100
▁1900 100
▁230, 100
▁235, 100
▁25), 100
▁3),) 100
▁\$1" 100
▁\'{} 100
▁ciph 100
▁cmds 100
▁dctf 100
▁dctp 100
▁depd 100
▁llvm 100
▁mcmc 100
▁mobi 100
▁noqa 100
▁nyua 100
▁oifs 100
▁ryui 100
▁surf 100
▁swed 100
▁tidy 100
▁uris 100
+8] 100
04* 100
38] 100
391 100
vtb 100
'([\ 100
-207 100
.''' 100
1085 100
144* 100
1}') 100
3.2" 100
4348 100
5.3" 100
9149 100
93** 100
:0.2 100
=""" 100
\"]( 100
_0"> 100
dbaa 100
iocs 100
khal 100
tioc 100
▁((% 100
▁18, 100
▁eqn 100
▁kvm 100
▁{1} 100
-10"> 100
-2071 100
.93** 100
25391 100
29207 100
3.2), 100
65431 100
8'))) 100
=..., 100
>=0.2 100
_0500 100
alpha 100
ismer 100
scape 100
sorry 100
▁acwb 100
▁wthr 100
▁yaps 100
▁{0}: 100
▁~1.0 100
'"+"', 100
'''([\ 100
'2016, 100
("__") 100
('2015 100
('?'): 100
*)?)", 100
-0042. 100
-03-08 100
-1998; 100
/0.2.1 100
0-9]+) 100
0.20)) 100
0001', 100
0001:\ 100
000650 100
003500 100
10272* 100
105138 100
12|>') 100
189536 100
1972', 100
2.61** 100
233167 100
235493 100
2==2.6 100
300034 100
300647 100
327997 100
345597 100
346509 100
350013 100
400019 100
414577 100
421085 100
428811 100
434899 100
468748 100
477967 100
480623 100
50681* 100
579822 100
593333 100
593364 100
599133 100
61.100 100
635364 100
649589 100
656074 100
658753 100
726264 100
07/ 100
07: 100
072, 100
▁19: 100
07/28 100
07:07 100
freed 100
▁sims 100
+)?$') 100
235495 100
740498 100
833924 100
875366 100
9.9999 100
910000 100
981274 100
:00:00 100
:59:55 100
:8000) 100
::.+', 100
=2.5.4 100
=2.8.0 100
==2.45 100
==3.1. 100
==3.5. 100
[5:])) 100
[:-1]) 100
[:-1], 100
[:-1]: 100
_0240. 100
_11.0. 100
______ 100
abusix 100
acccca 100
adjust 100
amrole 100
aneous 100
artijn 100
atmaps 100
beware 100
bitrar 100
cabeza 100
chatty 100
dersco 100
dicate 100
effect 100
ellipt 100
formed 100
getcwd 100
getdos 100
global 100
gorith 100
gwinsz 100
highly 100
hyphen 100
igauss 100
ipchat 100
ipping 100
ishing 100
issued 100
johnta 100
lipped 100
lnutil 100
macros 100
mantly 100
mbdash 100
muexrf 100
mysqld 100
namics 100
omixer 100
photon 100
phylip 100
plersh 100
plural 100
rescan 100
rpclib 100
semble 100
setupt 100
shadow 100
spacer 100
sparam 100
suhiko 100
though 100
udholk 100
umaniz 100
uraged 100
vendor 100
volume 100
vundle 100
wapped 100
xdmiod 100
yweeks 100
{}'.". 100
▁"0.4. 100
▁"3.5" 100
▁"3.8" 100
▁##### 100
▁#3295 100
▁$1}') 100
▁'1'}, 100
$/. 100
-21 100
4_. 100
oeb 100
prs 100
/$/. 100
0816 100
0824 100
6633 100
=(', 100
=0): 100
dcos 100
ebff 100
segp 100
uvex 100
wano 100
▁"*. 100
▁7], 100
▁9){ 100
20066 100
222', 100
=""): 100
=0)), 100
=6633 100
[:100 100
cachi 100
cwano 100
ratio 100
utral 100
xygen 100
▁amue 100
▁csst 100
▁jenk 100
▁naom 100
▁voca 100
▁yaml 100
-06-03 100
/\/$/. 100
146960 100
2000-1 100
340816 100
420066 100
68160* 100
970824 100
=(',', 100
[:100] 100
atious 100
genmod 100
pyyaml 100
quivos 100
stored 100
▁'2.6' 100
▁'6160 100
▁(/<\/ 100
▁(2014 100
▁(7.0) 100
▁([#48 100
▁**88. 100
▁-22.0 100
▁0.5.1 100
▁19:44 100
▁2.0]( 100
▁22:06 100
▁22:09 100
▁3.3+) 100
▁3072, 100
▁4.1', 100
▁7/15/ 100
▁[#160 100
▁angle 100
▁asked 100
▁audit 100
▁autog 100
▁balke 100
▁camel 100
▁cdrom 100
▁cooki 100
▁copia 100
▁corta 100
▁cross 100
▁cudnn 100
▁deriv 100
▁dumps 100
▁endog 100
▁epoch 100
▁freel 100
▁gamma 100
▁gives 100
▁ideas 100
▁ipsum 100
▁kuber 100
▁lacro 100
▁loose 100
▁mandr 100
▁mhvks 100
▁micha 100
▁mixin 100
▁mjpeg 100
▁naman 100
▁namit 100
▁9* 100
/(2* 100
2/*. 100
3.0\ 100
="/" 100
="/% 100
?`__ 100
cltk 100
educ 100
▁"_" 100
▁'$4 100
']=[' 100
27``, 100
>=3.1 100
[5:]) 100
_1">< 100
bitmq 100
crypt 100
metan 100
nakes 100
▁"-// 100
▁))[' 100
▁crum 100
▁drag 100
="/"), 100
bbitmq 100
snakes 100
social 100
xtcltk 100
▁crypt 100
▁invol 100
▁ipsec 100
▁naomi 100
▁ndoes 100
▁pendu 100
▁pysvn 100
▁scaff 100
▁seqio 100
▁sizes 100
▁tmpfs 100
▁today 100
▁utili 100
▁weiss 100
▁world 100
▁wraps 100
▁{0}." 100
▁{1}'. 100
▁~1.0" 100
####### 100
'726264 100
("'008' 100
("6.4.2 100
(.+?)'/ 100
(1)}`). 100
([0-9]) 100
)|(\\\\ 100
.0/24'} 100
/(.*)', 100
/\&#39; 100
0.24.0. 100
0067272 100
0092(): 100
0650001 100
0680411 100
068160* 100
08-08-0 100
0950316 100
0970824 100
1063537 100
10:59:3 100
1525827 100
1955>-1 100
1==0.1. 100
2040687 100
2319496 100
2529390 100
2939411 100
3173789 100
3319763 100
3669787 100
4100532 100
4910323 100
510272* 100
5397089 100
5933646 100
6047796 100
6346509 100
6543187 100
7235495 100
7526085 100
7977035 100
8077173 100
8753665 100
8912734 100
9450096 100
9450099 100
9477967 100
97.93** 100
9716075 100
9980048 100
'/" 100
*'/ 100
2/< 100
=4) 100
?)/ 100
[2: 100
\2/ 100
_0" 100
_88 100
drf 100
fdr 100
iko 100
('-> 100
+?)/ 100
3718 100
6364 100
cott 100
ernn 100
sfdr 100
▁-4) 100
▁294 100
▁snr 100
*'/__ 100
+?)/$ 100
3.3.0 100
73718 100
[2:], 100
\1\2/ 100
_8886 100
scott 100
sigtt 100
today 100
▁_('% 100
▁tabs 100
('->') 100
+?)/$' 100
166364 100
==0.42 100
[1:])) 100
merged 100
mspack 100
▁0.8.1 100
▁2014, 100
▁29457 100
▁monit 100
▁movie 100
▁tabul 100
!=1.10. 100
7166364 100
7371824 100
9999998 100
=10.3.1 100
==0.1.8 100
==0.1.9 100
==0.4.4 100
==0.5.1 100
==0.7.2 100
==0.8.6 100
==1.0.3 100
==1.0.7 100
==1.2.1 100
==2.2.0 100
==2.5.0 100
==2.5.4 100
==2.7.0 100
==2.7.2 100
==3.7.3 100
==4.0.1 100
==4.3.2 100
>=0.2.0 100
[:1:-1] 100
accccag 100
ageconv 100
asctime 100
bdutton 100
bracket 100
byteswa 100
cachier 100
cebacks 100
central 100
chained 100
chardet 100
charset 100
cleaned 100
cmdargs 100
corrupt 100
cortado 100
couldnt 100
crystax 100
decimal 100
dleware 100
eddocks 100
elapsed 100
encrypt 100
enhance 100
entropy 100
ephemer 100
exactly 100
exploit 100
exports 100
=3` 100
gtk 100
tgt 100
0513 100
4500 100
5012 100
::[] 100
='[] 100
bten 100
osxv 100
pink 100
▁srv 100
▁tgt 100
('.', 100
([1]) 100
50012 100
50411 100
=0.68 100
===', 100
[1])# 100
]))), 100
_1(): 100
_2_4. 100
_5012 100
drain 100
ilerp 100
ipynb 100
nsome 100
pixie 100
shdot 100
tfont 100
utoto 100
xaxis 100
▁1527 100
▁5012 100
▁okta 100
▁sake 100
'2015, 100
0.9.0, 100
150012 100
894500 100
='[]() 100
>=3.0. 100
andons 100
autoto 100
dotsub 100
vember 100
▁2.8.0 100
▁aweso 100
▁known 100
▁pydot 100
▁smith 100
']]))), 100
('===', 100
=0.6826 100
==2.8.0 100
>=3.0.2 100
cmdline 100
cordion 100
curtain 100
ffected 100
genbank 100
gerblue 100
globals 100
gorithm 100
hensive 100
iamrole 100
ifempty 100
ighbors 100
inetrun 100
isdigit 100
italian 100
lapping 100
lasagne 100
leaking 100
librosa 100
libyaml 100
magenta 100
masters 100
miscell 100
movewhe 100
mplernn 100
newslet 100
prepare 100
pyjnius 100
pylearn 100
receipt 100
redcrum 100
rehouse 100
removal 100
restype 100
retries 100
ropping 100
runtime 100
scaling 100
scponly 100
secured 100
sigchld 100
sigmoid 100
sigttin 100
021 100
0}' 100
22: 100
261 100
485 100
822 100
848 100
96) 100
1396 100
1826 100
2548 100
2596 100
2699 100
:%02 100
vuln 100
▁28, 100
▁3}; 100
02125 100
10261 100
26000 100
81826 100
822', 100
82548 100
84848 100
▁$0}' 100
▁java 100
112596 100
139624 100
269987 100
626000 100
781826 100
isodes 100
▁3};') 100
▁4096) 100
0212501 100
1026149 100
4482548 100
848484; 100
clicked 100
glances 100
pisodes 100
similar 100
smaller 100
smbpass 100
styling 100
succeed 100
swapped 100
through 100
thumbor 100
tically 100
todense 100
toomany 100
tornado 100
trusted 100
venient 100
weights 100
writing 100
xdmiodz 100
{}/{}'. 100
{}:{}". 100
~~~~~~~ 100
▁"1.0.4 100
▁#402): 100
▁'#3064 100
▁(#389, 100
▁**89.5 100
▁**98.0 100
▁1000)) 100
▁1000), 100
▁10000) 100
▁1527-1 100
▁19:44: 100
▁5.153- 100
▁950411 100
▁addons 100
▁appear 100
▁auditd 100
▁autore 100
▁ayoung 100
▁behind 100
▁beware 100
▁binned 100
▁casper 100
▁chunks 100
▁cloned 100
▁codecs 100
▁consec 100
▁copiar 100
▁cortar 100
▁cyclic 100
▁dehaan 100
▁denied 100
▁denses 100
▁dotest 100
▁etreed 100
▁explan 100
▁facili 100
▁french 100
▁gentoo 100
▁gmtime 100
744 100
=5) 100
gba 100
10.0 100
1936 100
1944 100
1972 100
5941 100
=''" 100
='.' 100
cabc 100
dabc 100
sabc 100
▁35) 100
▁[(- 100
▁dfb 100
([0]) 100
33740 100
74419 100
][0]) 100
asswd 100
catal 100
caten 100
▁rgba 100
▁slip 100
2.9999 100
410000 100
594186 100
871944 100
=''"): 100
abcabc 100
deploy 100
eldabc 100
iframe 100
llnull 100
spired 100
▁:1936 100
▁dfbie 100
▁grant 100
5941863 100
8674419 100
==0.0.5 100
==1.0.5 100
catalog 100
clauses 100
cleared 100
cparser 100
mbedded 100
opasswd 100
sorting 100
▁gpuinc 100
▁graphs 100
▁having 100
▁hbytes 100
▁hegler 100
▁hybrid 100
▁ifnull 100
▁iframe 100
▁indeed 100
▁inside 100
▁juneja 100
▁layers 100
▁macosx 100
▁mailto 100
▁mapped 100
▁markov 100
▁michal 100
▁miscpy 100
▁months 100
▁occurs 100
▁opport 100
▁passes 100
▁rateof 100
▁redash 100
▁repeat 100
▁restri 100
▁rootof 100
▁scalap 100
▁scalat 100
▁shadow 100
▁sheikh 100
▁signed 100
▁sockjs 100
▁speech 100
▁taylor 100
▁ticker 100
▁ticket 100
▁tismer 100
▁tmpdir 100
▁toxini 100
▁trades 100
▁traffi 100
▁tunnel 100
▁uncopi 100
▁uptime 100
▁whoops 100
▁{}/{}, 100
▁{}/{}: 100
#######\ 100
#@%/;$() 100
';' 100
)'; 100
075 100
1:- 100
754 100
>'; 100
>:\ 100
]]; 100
_75 100
drm 100
''') 100
-754 100
1:-$ 100
224, 100
8075 100
=1.0 100
_75_ 100
mksh 100
▁prs 100
(224, 100
[1]): 100
\'';' 100
_75_7 100
begin 100
cumst 100
duced 100
orsel 100
slack 100
uffle 100
▁-0.5 100
▁0.75 100
▁4}), 100
▁qsus 100
▁wasn 100
▁{0}. 100
418075 100
=1.0): 100
_75_79 100
ducing 100
ginate 100
mkhome 100
unched 100
▁qsusb 100
▁}''') 100
=${1:-$ 100
getpass 100
ircumst 100
picture 100
shuffle 100
uploads 100
▁([#347 100
▁digest 100
▁dolint 100
▁locale 100
▁morsel 100
'7282711 100
('-06:00 100
('2000-1 100
('201806 100
(.+?)'/; 100
(10)[:1: 100
([0-9])/ 100
))[::-1] 100
-06:00') 100
-{}-{}". 100
0-9]+"$/ 100
000:1000 100
00410000 100
00533740 100
01:00:00 100
05-17-03 100
08-08-04 100
10-01-01 100
10513849 100
10833924 100
10:59:49 100
16635364 100
18953623 100
19480623 100
1==0.1.7 100
22939411 100
23000650 100
23549332 100
24300647 100
3.269987 100
30003403 100
39450096 100
43489903 100
47871944 100
50-1998; 100
50.203.2 100
50894500 100
59333324 100
61.100", 100
64958917 100
80400019 100
80418075 100
9.999999 100
91000018 100
97024217 100
/#{ 100
162 100
16: 100
268 100
681 100
\.) 100
\.3 100
ttf 100
1\.3 100
6468 100
8924 100
="16 100
?"), 100
\\\. 100
isbn 100
walk 100
zyme 100
26817 100
=\\\. 100
\.)[\ 100
_0060 100
ploit 100
rutex 100
zymes 100
▁'%', 100
▁4681 100
**[0., 100
-=\\\. 100
478924 100
646880 100
="?"), 100
_0060_ 100
codify 100
medium 100
regexp 100
▁-20., 100
▁ancla 100
▁deplo 100
▁tried 100
+-=\\\. 100
0-9]+)\ 100
8726817 100
▁badges 100
▁brutex 100
▁couldn 100
▁errone 100
▁nearly 100
▁refers 100
▁refmin 100
80646880 100
97762974 100
99421085 100
='[](){} 100
==0.10.1 100
==0.15.1 100
==0.4.23 100
==0.42', 100
==0.8.10 100
==0.90.1 100
==1.0.57 100
==1.11.0 100
>.+?)/$' 100
>=0.23.3 100
>=1.15.4 100
[^0-9]'; 100
\"]([^'] 100
\+-=\\\. 100
_008[0]. 100
_0500_{} 100
_75_79'. 100
_{0}')), 100
abattles 100
adatious 100
adsnakes 100
alliance 100
andscape 100
angerous 100
attgtgat 100
autotool 100
awsquery 100
backbone 100
bitcoind 100
bustness 100
catenate 100
connmenu 100
continue 100
controls 100
createdi 100
currence 100
dgerblue 100
diffgeom 100
diskless 100
entional 100
erinputs 100
ersploit 100
extbokeh 100
facingex 100
fieldabc 100
freedman 100
genutils 100
144 100
▁6) 100
-030 100
296. 100
idea 100
oria 100
▁'`' 100
▁2.7 100
▁2.8 100
▁6); 100
▁60, 100
▁sna 100
00144 100
>=1.4 100
>=1.5 100
>=5.1 100
dcast 100
▁apis 100
▁gzip 100
▁hide 100
▁nice 100
-0308. 100
==0.6. 100
>=1.1. 100
accept 100
ndrine 100
odcast 100
▁'>=1. 100
▁5296. 100
▁loria 100
▁snake 100
▁socke 100
0014424 100
==0.6.1 100
>=1.1.6 100
[^0-9]< 100
delines 100
podcast 100
specify 100
weather 100
▁cython 100
▁finite 100
▁market 100
cgeneral 100
greenlet 100
gressive 100
gunicorn 100
hangouts 100
ificates 100
inactive 100
intintro 100
islinked 100
keplersh 100
lacabeza 100
lambdash 100
loglines 100
material 100
maxdelay 100
metanode 100
mmutable 100
modifier 100
multired 100
multisig 100
mutation 100
nbconfig 100
osxtcltk 100
parallel 100
paramiko 100
pecially 100
proposal 100
qspacket 100
racketed 100
realtime 100
received 100
rections 100
remities 100
retrying 100
reviewed 100
sentryap 100
skipdown 100
skipping 100
skiptest 100
synchron 100
tangents 100
traverse 100
udholkar 100
ultimate 100
visibles 100
webnotes 100
▁"'"+"', 100
▁"0.5.3" 100
▁'#333', 100
▁'.*'/__ 100
▁'0.4.1' 100
▁'0.5.2- 100
▁'0.9.4' 100
▁'>=1.8' 100
▁'{}'.". 100
▁(#389): 100
▁(/\/$/. 100
'/' 100
/02 100
157 100
57. 100
813 100
913 100
cfb 100
▁?) 100
▁?, 100
**]\ 100
/02/ 100
0057 100
1813 100
2.5' 100
2003 100
2357 100
9136 100
9200 100
calc 100
cups 100
mako 100
smtp 100
▁$1' 100
▁16: 100
▁313 100
▁50) 100
▁8`: 100
▁lsb 100
('200 100
105)) 100
15731 100
18131 100
81377 100
9136* 100
?**]\ 100
_0240 100
ndrin 100
smarg 100
▁16:5 100
▁1949 100
▁daph 100
▁prin 100
()[0], 100
/02/17 100
009200 100
2003-0 100
235712 100
5.157. 100
_0240: 100
dryrun 100
ellips 100
finite 100
median 100
modgcd 100
ndrina 100
▁'2.5' 100
▁16:58 100
▁1949- 100
▁cells 100
▁regex 100
▁tiocs 100
▁tower 100
▁votes 100
1573187 100
1813123 100
2003-05 100
235712* 100
ablesip 100
calcder 100
itories 100
venconf 100
▁(`#428 100
▁daphne 100
▁dispon 100
▁warner 100
12009200 100
callable 100
dfmemory 100
ellipsis 100
smargins 100
startfin 100
trainers 100
▁([429]( 100
▁([463]( 100
▁([468]( 100
▁([473]( 100
▁([474]( 100
▁([475]( 100
▁([479]( 100
▁([481]( 100
▁([495]( 100
▁([501]( 100
▁(`#4162 100
▁(`#4262 100
▁(`#4271 100
▁(`#4272 100
▁(`#4273 100
▁(`#4283 100
▁(`#4303 100
▁(`#4305 100
=3, 100
dfb 100
lgo 100
7)), 100
awso 100
nowb 100
zeug 100
▁(-) 100
▁\$$ 100
▁hdf 100
(7)), 100
blurb 100
fully 100
kzeug 100
lgomp 100
nostd 100
optim 100
stian 100
trize 100
▁3)), 100
▁\$$" 100
▁asdf 100
0.9.2, 100
cowner 100
ingful 100
izedde 100
▁-1)), 100
▁hdfsa 100
▁nonce 100
▁organ 100
▁snowb 100
erkzeug 100
izeddeg 100
lcowner 100
ristian 100
stoptim 100
▁coreff 100
▁fedora 100
_008[0]` 100
nostdlib 100
paginate 100
redcrumb 100
▁(`#4310 100
▁**94.67 100
▁**98.00 100
▁-2.9999 100
▁1.12.10 100
▁1.12.11 100
▁19:44:4 100
▁2)>|]') 100
▁3/02/17 100
▁3781826 100
▁3\.7\.3 100
▁70000') 100
▁[#160]( 100
▁accepts 100
▁appease 100
▁archive 100
▁asctime 100
▁atomicc 100
▁attrseq 100
▁auditor 100
▁augment 100
▁autopep 100
▁belongs 100
▁binding 100
▁bitcoin 100
▁boilerp 100
▁careful 100
▁ciphers 100
▁climate 100
▁concept 100
▁condens 100
▁cookiec 100
▁cronjob 100
▁csstidy 100
▁descend 100
▁enzymes 100
▁eoftext 100
▁exhaust 100
▁fastano 100
▁favicon 100
▁flexbox 100
▁fnmatch 100
▁fromutc 100
▁grained 100
▁granted 100
▁hackath 100
▁hipchat 100
▁hostdao 100
▁imaging 100
▁inspect 100
▁invites 100
▁invoice 100
▁italics 100
▁jupyter 100
▁kernels 100
▁knowing 100
▁leaving 100
▁listenr 100
)20 100
+2) 100
.14 100
183 100
205 100
218 100
22) 100
292 100
3*_ 100
593 100
(3*_ 100
-02) 100
18** 100
29', 100
29** 100
3183 100
3529 100
6795 100
8292 100
8729 100
:22) 100
="18 100
flag 100
▁118 100
▁ecs 100
▁gpl 100
▁pvt 100
*")), 100
+2)*( 100
2-02) 100
20026 100
21814 100
256=' 100
35296 100
descr 100
flask 100
rexml 100
▁'205 100
▁0,3, 100
▁[1,2 100
200265 100
256='9 100
278729 100
356795 100
478292 100
mopidy 100
▁300]) 100
▁[1,2] 100
▁fonts 100
▁knife 100
▁rexml 100
▁treat 100
▁visit 100
-02-02) 100
expdesc 100
intflag 100
▁behave 100
▁jagger 100
▁probab 100
▁repair 100
/*.*")), 100
00278729 100
10478292 100
35679583 100
57721814 100
freenode 100
▁'0.2.2' 100
▁2200265 100
▁chunked 100
▁company 100
▁contrib 100
▁locales 100
▁locally 100
▁mainten 100
▁martijn 100
▁maximum 100
▁michael 100
▁minutes 100
▁monoton 100
▁mounted 100
▁neutral 100
▁offsets 100
▁parsing 100
▁pidfile 100
▁players 100
▁pylearn 100
▁pytorch 100
▁readmer 100
▁receipt 100
▁receive 100
▁remarks 100
▁renamed 100
▁setnull 100
▁sigpipe 100
▁simuvex 100
▁slicing 100
▁smaller 100
▁stddevs 100
▁streame 100
▁stretch 100
(-6 100
-8" 100
-8' 100
175 100
(10. 100
(100 100
(124 100
(197 100
17]( 100
45', 100
500, 100
▁'.' 100
▁'.3 100
▁`17 100
▁php 100
17'], 100
chars 100
ulars 100
▁500, 100
(10.0, 100
(1245) 100
(1500, 100
(1970, 100
1.2/</ 100
928886 100
==1.4. 100
multip 100
noring 100
▁'.'), 100
angling 100
concret 100
evision 100
exhaust 100
ledmult 100
pkgutil 100
▁docspy 100
▁skipif 100
▁slimit 100
==0.45', 100
==1.4.11 100
==2.45.0 100
eledmult 100
evisions 100
multiple 100
newstyle 100
terminal 100
▁ericson 100
▁subnets 100
▁svntool 100
▁swedish 100
▁systems 100
▁timesin 100
▁toomany 100
▁turning 100
▁uniform 100
▁uploads 100
▁visitor 100
▁vpcname 100
▁weblate 100
▁written 100
▁youtube 100
######### 100
'72626487 100
('.')[0]) 100
/0.1.2/</ 100
0-9]+)\]( 100
00000005' 100
006727212 100
103928886 100
139624500 100
152582775 100
1955>-199 100
204068747 100
236346509 100
24.0/24'} 100
251813123 100
3001-3500 100
317378933 100
350013000 100
352969098 100
370650001 100
47068160* 100
502529390 100
593364632 100
604779611 100
677526085 100
723549526 100
754910323 100
800410000 100
87510272* 100
880400019 100
97-2001.\ 100
971607597 100
998-2001. 100
999999840 100
=0.68269, 100
==0.2.2'] 100
==2.3.3.0 100
==2.4.3.0 100
>[^0-9]'; 100
28* 100
28, 100
404 100
440 100
=$1 100
]". 100
)))\ 100
2013 100
2014 100
404. 100
600, 100
anlu 100
cipe 100
lued 100
lugs 100
relu 100
▁3.2 100
▁3.6 100
▁agg 100
▁nlu 100
(0,1) 100
..../ 100
="679 100
ohttp 100
sanlu 100
slugs 100
ysics 100
▁0440 100
▁128, 100
▁200, 100
▁bold 100
▁deci 100
▁msgs 100
▁term 100
▁tern 100
)))[0] 100
etests 100
learnt 100
luedon 100
recipe 100
strict 100
▁3600, 100
▁badly 100
▁exits 100
▁loops 100
▁marks 100
▁ranks 100
▁termi 100
▁terri 100
aiohttp 100
gignore 100
haproxy 100
mapexec 100
physics 100
▁``404. 100
▁aggreg 100
▁decide 100
▁letter 100
▁matvec 100
▁rewrit 100
▁suport 100
://..../ 100
rencyfmt 100
▁'0.2.3' 100
▁bluedon 100
▁markers 100
▁primary 100
▁rasanlu 100
▁refused 100
▁suports 100
▁termios 100
▁ternary 100
▁terribe 100
_008[0]), 100
_0500_{}. 100
_10092(): 100
accccagca 100
alchemypy 100
arycenter 100
asemonkey 100
associate 100
augmenter 100
bitbucket 100
blurblogs 100
buffering 100
cancelled 100
ccompiler 100
ckmapexec 100
committed 100
conflicts 100
custodian 100
decorated 100
discounts 100
diskcache 100
domainexp 100
ductionpy 100
education 100
elementby 100
ephemeral 100
fillvalue 100
087 100
gnu 100
svg 100
▁84 100
1764 100
=42) 100
awar 100
tota 100
virt 100
▁opf 100
▁||' 100
17642 100
dmake 100
gnucc 100
kitty 100
ystem 100
▁''). 100
▁'0') 100
▁**87 100
▁idpc 100
▁itsd 100
617642 100
aching 100
beread 100
makepy 100
packet 100
ptured 100
signin 100
totake 100
warner 100
▁**87. 100
▁histo 100
▁maxto 100
▁media 100
1825391 100
==1.3.1 100
ctsheet 100
packets 100
pymysql 100
rucache 100
segmaps 100
virtual 100
▁commas 100
▁gating 100
▁maxtoc 100
▁rating 100
▁shortc 100
▁stride 100
▁tagger 100
▁volume 100
12617642 100
adjusted 100
bereader 100
thisdiff 100
▁**87.99 100
▁showing 100
▁waitfor 100
001825391 100
612617642 100
diffmodel 100
filterson 100
hsversion 100
igaussian 100
immutable 100
ishingpro 100
jsonpatch 100
linksjson 100
migration 100
miscutils 100
mixfactor 100
mkhomedir 100
mykeyword 100
ncaptured 100
nchronize 100
newreddit 100
nowflakes 100
ofmetrics 100
olutepath 100
oreignkey 100
otivation 100
overrides 100
phenotype 100
platforms 100
positives 100
pretation 100
processen 100
ptempfile 100
qlexecute 100
racebacks 100
ratelimit 100
redirects 100
rehensive 100
relevance 100
seqrecord 100
signinout 100
simplegui 100
snapshots 100
ssnippets 100
stringtex 100
subjectal 100
12] 100
=2; 100
12') 100
3412 100
912] 100
="$2 100
bile 100
▁">= 100
▁(>= 100
▁1.3 100
▁600 100
▁fee 100
="$2" 100
amili 100
spell 100
▁(2,6 100
▁1.0, 100
▁1.0. 100
▁5.0. 100
▁bare 100
▁feel 100
▁menu 100
▁neat 100
▁payp 100
▁swit 100
famili 100
mobile 100
mozdef 100
▁basho 100
▁chose 100
▁finds 100
▁latex 100
3412(): 100
imobile 100
tagging 100
▁(2,6): 100
▁isnull 100
▁latent 100
▁paypal 100
▁subfmt 100
families 100
vicename 100
▁5.0.6', 100
▁subsequ 100
claudiajs 100
implement 100
subsample 100
sympykern 100
targeting 100
tcpclient 100
tolibrary 100
traceback 100
traversal 100
uidelines 100
undefined 100
unwrapped 100
uplicated 100
varreader 100
wgetpaste 100
▁"1.0.3", 100
▁"<3000", 100
▁#848484; 100
▁'1.0.71' 100
▁'{}/{}'. 100
▁([#347]( 100
▁([#397]( 100
▁([#417]( 100
▁([#468]( 100
▁([#474]( 100
▁([#475]( 100
▁([#479]( 100
▁([#497]( 100
▁([#507]( 100
▁10:59:49 100
▁1527-155 100
▁20:59:55 100
▁28912734 100
▁36543187 100
▁abandons 100
▁accepted 100
▁affected 100
▁although 100
▁applying 100
▁arbitrar 100
▁arquivos 100
▁bashoper 100
▁benchget 100
▁bigtable 100
▁binascii 100
▁blockgas 100
▁breaking 100
▁catching 100
▁chaincom 100
▁channels 100
▁claiming 100
▁cleanups 100
▁computes 100
▁contacts 100
▁cosmetic 100
▁counters 100
-35 100
049 100
={" 100
[9, 100
\". 100
(... 100
**2' 100
**28 100
**49 100
-314 100
.... 100
...] 100
1034 100
3447 100
://| 100
="49 100
=4)) 100
>`_. 100
▁irc 100
▁zul 100
(":// 100
(...) 100
([[9, 100
**2)) 100
....\ 100
...]` 100
81519 100
?://| 100
cused 100
riple 100
▁((2- 100
▁0.9. 100
▁10)) 100
▁1080 100
▁whee 100
-3143. 100
049000 100
_{}\". 100
allown 100
spyder 100
▁0.9.3 100
▁01034 100
▁1),)) 100
▁expir 100
▁kdims 100
▁vocab 100
("://") 100
0490009 100
3447(): 100
5781519 100
focused 100
sigkill 100
terface 100
▁1080)) 100
▁impers 100
▁triple 100
▁wheezy 100
▁zulint 100
sometime 100
sqlparse 100
▁complex 100
▁engaged 100
▁expects 100
▁forking 100
▁strateg 100
049000900 100
578151913 100
_2}}...]` 100
optimizer 100
sometimes 100
▁([#393]) 100
▁.......\ 100
▁complext 100
▁dangling 100
▁dayweeks 100
▁decoding 100
▁designed 100
▁destruct 100
▁dispatch 100
▁doctests 100
▁donation 100
▁embedded 100
▁episodes 100
▁execinfo 100
▁executed 100
▁expectan 100
▁fallback 100
▁fixtures 100
▁flagstat 100
▁freedman 100
▁freedoms 100
▁geometry 100
▁getswarm 100
▁gladinit 100
▁gradient 100
▁gravatar 100
▁hackable 100
▁hardcode 100
▁hardlink 100
▁harfbuzz 100
($) 100
5." 100
=6, 100
suf 100
')}" 100
(_): 100
0129 100
suho 100
umie 100
▁-6, 100
▁2}, 100
▁etl 100
40129 100
>.""" 100
queue 100
ssher 100
subie 100
urals 100
weeps 100
▁0.5. 100
▁bitt 100
▁mltp 100
▁zmat 100
227837 100
alings 100
arings 100
cities 100
levels 100
lurals 100
olvers 100
ppings 100
suffix 100
sweeps 100
▁0.5.2 100
▁2.5." 100
▁agree 100
▁qicon 100
==0.9.0 100
digraph 100
fileobj 100
maxiter 100
suhosin 100
▁'61605 100
▁...)`` 100
▁amuell 100
▁daumie 100
▁motify 100
22783712 100
bearings 100
iscolumn 100
mappings 100
ricities 100
▁**93.50 100
▁2.3.2), 100
▁bittner 100
▁continu 100
▁digraph 100
▁enqueue 100
▁formset 100
▁helpers 100
▁humaniz 100
▁indents 100
▁pygraph 100
customize 100
elliptics 100
itemcount 100
maxmodels 100
proxylist 100
resolvers 100
utilities 100
▁'61605'} 100
▁dealings 100
▁dotsubie 100
▁grouping 100
▁hdfsauto 100
▁headless 100
▁hgignore 100
▁histogra 100
▁identify 100
▁incorpor 100
▁infinite 100
▁inspired 100
▁instruct 100
▁isnested 100
▁jobevent 100
▁keypress 100
▁kubernet 100
▁launched 100
▁memcache 100
▁minidump 100
▁multiply 100
▁ndarrays 100
▁networks 100
▁newsznab 100
▁nopasswd 100
▁normally 100
▁nplurals 100
▁numalign 100
▁oauthlib 100
▁occurred 100
(5, 100
560 100
gpu 100
slt 100
111: 100
256_ 100
=15, 100
=["` 100
cgit 100
nume 100
xslt 100
▁25) 100
▁iee 100
ellar 100
numel 100
▁ieee 100
▁patw 100
▁patz 100
▁psql 100
▁taps 100
addons 100
lrange 100
pyfunc 100
suring 100
▁ebuil 100
▁linen 100
▁taste 100
constan 100
sexpand 100
ueprint 100
ymatrix 100
▁fixgui 100
▁irange 100
▁patzke 100
▁ranger 100
▁spider 100
ationals 100
constanc 100
lueprint 100
pyregion 100
sparsegp 100
unlocked 100
▁ebuilds 100
▁fromsql 100
▁libxslt 100
▁linenos 100
▁patwari 100
▁resizer 100
▁routine 100
▁stellar 100
▁tastebu 100
//)|(\\\\ 100
==0.8.6'] 100
filemixin 100
idxexists 100
processst 100
recurrent 100
▁actionun 100
▁apierror 100
▁cmdutils 100
▁ensuring 100
▁operates 100
▁optimize 100
▁organism 100
▁paginate 100
▁paramter 100
▁periodic 100
▁plotting 100
▁populate 100
▁prebuilt 100
▁prevdiff 100
▁printrun 100
▁pyflakes 100
▁pyswitch 100
▁pysystem 100
▁qnetwork 100
▁qtkernel 100
▁qwidgets 100
▁rabbitmq 100
▁reaching 100
▁readling 100
▁replaced 100
▁replaces 100
▁reserved 100
▁residual 100
▁restrict 100
▁reverted 100
▁scaffold 100
▁sendmail 100
▁sessions 100
▁shortcut 100
▁snowball 100
▁solution 100
▁somewhat 100
▁sparsegp 100
▁sqlquote 100
▁stralign 100
▁strequal 100
▁sudolist 100
▁suggests 100
"/' 100
'}, 100
11_ 100
211 100
811 100
_*. 100
)'], 100
1.11 100
8115 100
9747 100
reee 100
tabb 100
▁("{ 100
('/', 100
11()) 100
cinvc 100
getcc 100
ously 100
qtree 100
ugous 100
▁"3.7 100
▁didn 100
▁four 100
▁skim 100
▁{'': 100
811586 100
974729 100
==0.11 100
dropna 100
getccc 100
hgtags 100
ibiliy 100
meties 100
ousand 100
unless 100
xtreee 100
▁"3.7- 100
▁facts 100
▁keras 100
▁skull 100
▁verbo 100
▁walle 100
2114058 100
8115860 100
fieldst 100
tabuser 100
▁2.1.11 100
▁alters 100
▁hosted 100
▁iinter 100
▁mtools 100
▁popups 100
▁regreg 100
▁stderr 100
▁verbos 100
00233167 100
playbook 100
▁dictate 100
▁filterd 100
▁generic 100
▁hosting 100
▁masters 100
▁pointer 100
▁recover 100
▁suspend 100
▁winrate 100
953974729 100
allowtabb 100
itertools 100
maincinvc 100
qtreeview 100
terminacy 100
testtools 100
windowwin 100
▁biasunit 100
▁edittext 100
▁programs 100
▁recovery 100
▁supposed 100
▁switched 100
▁switches 100
▁tabulate 100
▁tastebud 100
▁telethon 100
▁testctoc 100
▁textarea 100
▁textwrap 100
▁thousand 100
▁trainers 100
▁travisci 100
▁trustify 100
▁txoutput 100
▁ugettext 100
▁uixtreee 100
▁undersco 100
▁unneeded 100
▁upgrades 100
▁urlparse 100
▁utilikit 100
▁utilityb 100
!'. 100
'.\ 100
32* 100
397 100
4.$ 100
972 100
dtd 100
pks 100
wpk 100
()'. 100
0.1\ 100
0032 100
32': 100
3200 100
3976 100
\'.\ 100
dnet 100
infs 100
lobs 100
{0}. 100
▁#97 100
▁dwb 100
▁utc 100
▁waf 100
4.$3. 100
5000) 100
6032* 100
97223 100
barri 100
blobs 100
ogwpk 100
poses 100
{0}.{ 100
▁'0.1 100
▁0.76 100
▁apks 100
▁road 100
▁room 100
▁tune 100
4.$3.$ 100
=5000) 100
buster 100
distro 100
ibsted 100
isites 100
romain 100
sesame 100
vertex 100
▁'()'. 100
▁43200 100
▁tries 100
5003976 100
9722364 100
barrier 100
libdnet 100
lobject 100
ogwpkqp 100
xmatrix 100
▁"{0}.{ 100
▁(10000 100
▁0.0.1\ 100
▁kubect 100
▁libxml 100
▁nowrap 100
▁parses 100
▁romain 100
▁united 100
▁varies 100
▁varlog 100
10:59:38 100
4.$3.$2. 100
chibsted 100
opreview 100
quisites 100
segments 100
▁'0.13': 100
▁(10000, 100
▁exposes 100
▁kubectl 100
▁loading 100
▁obvious 100
▁roadmap 100
▁typobug 100
#@%/;$()~ 100
000140032 100
4.$3.$2.$ 100
blockdims 100
ckoptions 100
nopreview 100
schibsted 100
searchnet 100
undprefix 100
▁([#501]( 100
▁mandrill 100
▁pysesame 100
▁tlobject 100
▁vcaptcha 100
▁vmobject 100
▁werkzeug 100
▁workpool 100
23: 100
tgl 100
▁5) 100
▁5] 100
2300 100
_1}} 100
blan 100
mkdo 100
▁"/. 100
▁%02 100
▁5), 100
▁[]: 100
▁[]} 100
▁fru 100
▁mru 100
▁sru 100
blank 100
irsbs 100
maven 100
ontal 100
usual 100
▁'/'. 100
==0.23 100
aconis 100
getuid 100
▁50000 100
▁minib 100
▁older 100
▁usual 100
▁}})</ 100
7345597 100
calling 100
divider 100
getcall 100
izontal 100
▁fruity 100
▁manger 100
▁passwd 100
▁upcall 100
byteswap 100
getcalls 100
▁astropy 100
▁unusual 100
orizontal 100
▁customiz 100
▁diaconis 100
▁startraw 100
▁yearbook 100
▁~~~~~~~~ 100
#@%/;$()~_ 100
'2000-2001 100
("6.4.2"): 100
('-06:00', 100
(10)[:1:-1 100
0-9]+)\](? 100
0014424501 100
10:59:38", 100
10:59:49", 100
1396245004 100
1955>-1996 100
2003-05-17 100
2919480623 100
3001-3500. 100
327997952* 100
3408165068 100
387510272* 100
4259980048 100
539708928* 100
5765478924 100
593333241" 100
5933646320 100
6495891786 100
6560741792 100
6825864749 100
9247345597 100
9999998408 100
>=1.8,!=1. 100
>=1.8,<2'] 100
[311367476 100
_11.0.8-1. 100
ablesipset 100
ainventory 100
alignright 100
allstories 100
amplesnode 100
angularrte 100
assignment 100
attgtgatcc 100
autotoolsp 100
badcommand 100
badrequest 100
baseinline 100
bedbrowser 100
bootswatch 100
cheesecake 100
companying 100
completely 100
complished 100
compressed 100
containers 100
"}} 100
653 100
9}, 100
]`. 100
voc 100
}}' 100
):(( 100
2407 100
5'), 100
aily 100
akul 100
lief 100
ocus 100
thak 100
udge 100
}}'+ 100
}}): 100
▁"#{ 100
▁0.1 100
▁ros 100
24074 100
=400) 100
?):(( 100
stemd 100
syste 100
}}'+_ 100
▁0.1. 100
▁jobs 100
▁pene 100
▁tail 100
anthak 100
cached 100
joined 100
motion 100
▁0.9}, 100
▁accur 100
▁among 100
▁daily 100
▁focus 100
▁judge 100
▁minid 100
▁minim 100
▁nakul 100
▁revoc 100
24074') 100
>=1.11, 100
indexed 100
systemb 100
▁)}}'+_ 100
▁0.1.14 100
▁belief 100
▁consul 100
▁disclo 100
▁formse 100
▁jquery 100
▁pathak 100
▁penetr 100
▁recurs 100
▁rejoin 100
▁rosies 100
>=1.11,< 100
aericson 100
anthakis 100
decoding 100
indexing 100
neighbor 100
querying 100
▁'0.4.2' 100
▁errback 100
▁httplib 100
▁linkify 100
▁logbook 100
▁notific 100
▁sequenc 100
▁systemd 100
▁traffic 100
8324074') 100
ilymotion 100
kneighbor 100
stockholm 100
systembus 100
▁0.1.14', 100
▁accurate 100
▁compiled 100
▁friendly 100
▁interact 100
ctionaries 100
currentlog 100
deintintro 100
delacabeza 100
deselected 100
docstrings 100
dodgerblue 100
duplicated 100
endreached 100
entitybold 100
entrypoint 100
esnotexist 100
especially 100
esteddocks 100
(50 100
++' 100
.50 100
//, 100
350 100
505 100
++': 100
.509 100
1505 100
350_ 100
50', 100
86', 100
="50 100
=100 100
▁{{{ 100
'''[\ 100
(504) 100
))])) 100
//,/" 100
==0.4 100
==0.7 100
_350_ 100
allet 100
fopen 100
privi 100
wrapp 100
▁([], 100
▁treq 100
1950', 100
=10000 100
admins 100
allets 100
condas 100
fwidth 100
opencl 100
pacity 100
retrie 100
storic 100
trying 100
ysical 100
▁10946 100
▁diffi 100
▁retry 100
=100000 100
==0.4.0 100
acondas 100
fopenmp 100
gerunit 100
privile 100
storica 100
updates 100
▁diffic 100
▁likely 100
▁overly 100
=1000000 100
baseunit 100
graphics 100
retrieve 100
wrappers 100
▁'1950', 100
▁**98.06 100
▁handled 100
▁opacity 100
▁overall 100
▁pallets 100
=100000): 100
acondaser 100
halfwidth 100
privilege 100
textcolor 100
▁initpath 100
▁locktime 100
▁physical 100
=1000000): 100
exactlyone 100
exhaustive 100
fakeremote 100
formspacer 100
fromscalar 100
fromtensor 100
fromvalues 100
getstringi 100
getuniform 100
indicesand 100
inetrunner 100
ingbracket 100
initialize 100
invalidurl 100
izeddegree 100
johntaylor 100
kneighbors 100
logcontext 100
makepyfile 100
matchpatch 100
mirrormode 100
mivascript 100
multigraph 100
ndrangheta 100
ndranghete 100
newsletter 100
244 100
24: 100
apf 100
cxx 100
eof 100
'])] 100
1="$ 100
24** 100
2400 100
ildp 100
irty 100
mmap 100
mweb 100
tons 100
wich 100
▁tap 100
▁zen 100
')))) 100
00024 100
==1.0 100
ermal 100
otweb 100
▁seem 100
▁spam 100
-07-09 100
centos 100
gether 100
pendap 100
points 100
rootof 100
tempts 100
webapp 100
▁level 100
▁scala 100
==1.9.0 100
andwich 100
ckspace 100
eoftext 100
mbining 100
zerikho 100
▁anyone 100
▁childp 100
▁navbar 100
▁thirty 100
▁typeof 100
00024000 100
97599133 100
attempts 100
dzerikho 100
getchart 100
sandwich 100
▁mitmweb 100
▁needing 100
▁opendap 100
▁spotweb 100
▁testbot 100
▁thermal 100
▁webform 100
+++++++++ 100
000240004 100
946002400 100
directive 100
lookahead 100
▁circumst 100
▁runtests 100
▁spamuser 100
▁together 100
appbuilder 100
changelink 100
npublished 100
numresults 100
operations 100
parseerror 100
playlistie 100
portnumber 100
preparefor 100
processors 100
qclipboard 100
qvalidator 100
recurrence 100
retryutils 100
ronterface 100
routetable 100
runtimelib 100
sentryapiv 100
setbuilder 100
setservice 100
setspacing 100
settimeout 100
setuptimer 100
setvisible 100
sexception 100
showconfig 100
simplejson 100
slackbuild 100
socialfeed 100
sqlalchemy 100
sqlexecute 100
startfindo 100
startlogin 100
"${ 100
apk 100
▁]+ 100
"""1 100
''): 100
']]: 100
:'): 100
bump 100
tobu 100
▁'${ 100
▁('. 100
▁]+\ 100
▁lot 100
()[0] 100
)")), 100
))[0] 100
=''): 100
[0]], 100
aster 100
boxed 100
rprop 100
sigcl 100
tobuf 100
▁-2)) 100
▁//## 100
▁]+\$ 100
▁`"${ 100
▁acts 100
▁bbox 100
▁suck 100
▁vmod 100
adroll 100
mailur 100
qframe 100
sigcld 100
utcnow 100
ystems 100
▁abort 100
▁abuse 100
▁clust 100
▁prere 100
▁smmap 100
▁topic 100
('6.3', 100
asteris 100
bumpfee 100
ffseter 100
▁faster 100
▁pastie 100
▁poster 100
▁sblock 100
▁vblock 100
,!=1.10. 100
ablemode 100
andboxed 100
asterisk 100
conftest 100
lintertc 100
▁0.6.6', 100
▁7/15/03 100
▁deletes 100
▁unorder 100
▁~~~~~~~ 100
*,!=1.10. 100
libmspack 100
toffseter 100
▁([#463]( 100
▁bboxhead 100
▁clusters 100
▁contexts 100
▁depdends 100
▁ordering 100
▁protobuf 100
▁segfault 100
▁suckless 100
▁vmodhash 100
instanceid 100
statusline 100
stestmixin 100
stoptimers 100
stylesheet 100
supervised 100
tglversion 100
throughput 100
tiocgwinsz 100
toolbutton 100
unreviewed 100
usererrors 100
validators 100
vectorized 100
widgetwrap 100
▁">=3000", 100
▁'')=''"): 100
▁'(.+?)'/; 100
▁'.0/24'), 100
▁([#393])( 100
▁**87.99** 100
▁**88.29** 100
▁**92.61** 100
▁**93.24** 100
fz 100
yr 100
'"" 100
7.5 100
[2] 100
bbs 100
flv 100
kin 100
pfz 100
▁`_ 100
404, 100
andy 100
bulk 100
ebdd 100
enne 100
gire 100
ints 100
lccd 100
revi 100
sher 100
stab 100
tsan 100
vpfz 100
▁"", 100
▁'". 100
▁had 100
'""", 100
=100, 100
kines 100
lccdl 100
perio 100
udget 100
ydata 100
▁brid 100
▁devi 100
▁proc 100
▁revi 100
▁tint 100
()[0]. 100
:0:1}" 100
asandy 100
byname 100
ennequ 100
geable 100
netloc 100
newton 100
revive 100
sparse 100
unique 100
▁``$\\ 100
▁julia 100
▁sepec 100
▁shift 100
▁solid 100
▁xvpfz 100
:8000]( 100
==1.7.5 100
alanced 100
girepos 100
groupby 100
izepage 100
kinesis 100
lccdlcd 100
periods 100
special 100
▁budget 100
▁commit 100
▁dshape 100
▁gettra 100
▁mocked 100
▁procps 100
▁pysher 100
▁radial 100
balanced 100
ennequin 100
lccdlcdm 100
november 100
▁definit 100
▁deviant 100
▁folders 100
▁nonzero 100
▁revises 100
makelists 100
purgeable 100
▁3\.7\.3" 100
▁bridging 100
▁coloring 100
▁pyobject 100
▁sepecify 100
▁solidity 100
getboolean 100
▁**93.92** 100
▁**94.67** 100
▁**98.00** 100
▁1000:1000 100
▁10:59:38] 100
▁10:59:49] 100
▁122783712 100
▁2013-11-1 100
▁22:06:22) 100
('1 100
))* 100
)][ 100
igs 100
tru 100
wri 100
▁`. 100
();\ 100
5901 100
etag 100
itty 100
npre 100
prod 100
rich 100
wrie 100
▁()) 100
(5))* 100
basin 100
crets 100
encry 100
gland 100
micha 100
qtile 100
vered 100
verge 100
▁eigs 100
▁inds 100
▁twin 100
▁venv 100
\}\}</ 100
creact 100
mytask 100
nprepa 100
ortype 100
▁amend 100
▁kitty 100
▁swift 100
▁theta 100
▁traps 100
▁twine 100
basinho 100
bytesio 100
creactu 100
licated 100
michael 100
ndjango 100
routest 100
wrielog 100
▁deezer 100
▁storin 100
2==2.1.0 100
entering 100
keyerror 100
tcattgtg 100
▁'1972', 100
▁england 100
▁lacroix 100
▁secrets 100
▁tabular 100
697965901 100
backwards 100
buildstep 100
metaclass 100
nprepared 100
▁"1.0.4", 100
▁converge 100
▁executes 100
▁ignoring 100
▁libqtile 100
encryption 100
metaparams 100
routestate 100
▁22:09:10) 100
▁289127344 100
▁378182690 100
▁\'{}\'';' 100
▁accordion 100
▁algorithm 100
▁amuellers 100
▁archlinux 100
▁atomicadd 100
▁atomiccas 100
▁autofixes 100
▁backendss 100
▁basically 100
▁blueprint 100
▁botreduce 100
▁bredcrumb 100
▁broadcast 100
▁calcpoint 100
▁camelcase 100
▁canshould 100
▁cassandra 100
▁chainercv 100
▁christian 100
▁codestyle 100
▁combining 100
▁community 100
▁completer 100
▁completes 100
)( 100
;% 100
("> 100
('' 100
('3 100
/10 100
2). 100
3') 100
_(' 100
rfx 100
slc 100
tou 100
▁<< 100
▁[4 100
▁vd 100
(''' 100
('') 100
2))) 100
2.16 100
9.00 100
\\1. 100
assp 100
exus 100
lado 100
ries 100
ttou 100
week 100
▁'16 100
▁[4] 100
▁gar 100
▁ofb 100
().__ 100
86-64 100
cmdae 100
colls 100
mpage 100
nexus 100
rfxtr 100
samba 100
solar 100
sound 100
utter 100
▁bury 100
▁garb 100
$19.00 100
192.16 100
364311 100
\\1.\\ 100
ardown 100
colado 100
dbtool 100
dehaan 100
homesp 100
mailto 100
rfxtrx 100
stones 100
▁iomat 100
▁scott 100
2:07:07 100
="${_(' 100
entries 100
invoice 100
olation 100
sigttou 100
soundsp 100
taining 100
▁testpy 100
((1,2))) 100
192.168. 100
>=1.8,<3 100
eventlet 100
homespun 100
▁'\\1.\\ 100
▁**89.28 100
▁**98.01 100
▁doctest 100
▁factors 100
▁garbage 100
getstream 100
iddleware 100
soundspot 100
▁12:07:07 100
▁formpage 100
▁iomatlab 100
▁pyrfxtrx 100
▁receiver 100
▁synapses 100
▁teardown 100
()])*)?)", 100
>=1.8,<3'] 100
signatures 100
▁"192.168. 100
▁**89.28** 100
▁**98.01** 100
▁connected 100
▁corrected 100
▁cowrielog 100
▁crossbone 100
▁databases 100
▁decentral 100
1/ 100
9' 100
:%( 100
="5 100
hey 100
how 100
iha 100
lei 100
lus 100
maj 100
ooc 100
vey 100
▁ve 100
▁}[ 100
(3), 100
-8") 100
32') 100
77** 100
90** 100
[:-7 100
`)], 100
fork 100
pshe 100
spas 100
unus 100
▁({{ 100
▁-4, 100
▁`{{ 100
▁cer 100
▁coh 100
▁kok 100
▁mus 100
▁pow 100
)+"'" 100
[-1]) 100
[:-7] 100
atars 100
majer 100
veyor 100
▁cohn 100
▁plus 100
▁sent 100
▁xvfb 100
anglei 100
majeri 100
pshelf 100
spasce 100
unusov 100
▁andor 100
▁kokor 100
▁liter 100
▁music 100
▁veloc 100
==2.10. 100
avatars 100
otation 100
▁cleart 100
▁kokoro 100
▁linalg 100
==2.10.3 100
addinput 100
ctanglei 100
registry 100
▁([497]( 100
▁andorpi 100
▁certain 100
▁cmajeri 100
▁patches 100
▁portion 100
▁replica 100
▁yunusov 100
=10.3.1') 100
quotation 100
▁approute 100
▁appveyor 100
▁creation 100
▁freenode 100
▁literals 100
▁monitors 100
▁playbook 100
▁velocity 100
\.([0-9])/ 100
attachment 100
capturelog 100
dictionary 100
namespasce 100
▁**84.90** 100
▁**94.77** 100
▁andorpier 100
▁cleartype 100
▁delegates 100
▁delivered 100
▁deprecate 100
▁difficult 100
▁direction 100
▁directive 100
▁displayed 100
▁dropshelf 100
▁envdialog 100
▁faciliate 100
>`) 100
asy 100
jan 100
mpp 100
viz 100
}"` 100
▁-7 100
▁01 100
▁5; 100
▁ey 100
▁wx 100
▁{# 100
105) 100
>.</ 100
ansm 100
ataa 100
easy 100
eras 100
izai 100
janu 100
loth 100
tole 100
upid 100
▁''; 100
▁eth 100
aataa 100
kizai 100
rings 100
scrun 100
units 100
}"`); 100
▁20), 100
▁20)] 100
▁andr 100
▁coin 100
▁eras 100
▁eyew 100
▁msys 100
▁pent 100
▁pins 100
▁stra 100
▁xmpp 100
105)|( 100
extras 100
getter 100
lothar 100
mixins 100
modela 100
ptable 100
ryansm 100
▁'0.4' 100
▁(13.2 100
▁hacks 100
▁stopp 100
january 100
modelad 100
scrunch 100
▁%}">{% 100
▁eyewit 100
▁stupid 100
existing 100
toleftof 100
▁asserts 100
▁coinkit 100
▁colados 100
▁erasing 100
▁fetcher 100
▁pentrel 100
▁pycairo 100
▁sekizai 100
irsberror 100
▁editorjs 100
▁scalapkg 100
▁stopping 100
▁straight 100
▁unlikely 100
▁wxwidget 100
.,;:'\"]|\ 100
modeladmin 100
termwaiter 100
▁droptable 100
▁filenames 100
▁filtering 100
▁freelance 100
▁genbranch 100
▁generator 100
▁getchartx 100
▁getdarwin 100
▁glyphicon 100
▁gradients 100
▁guestform 100
▁hardcoded 100
▁hopefully 100
▁htlcowner 100
▁inputtype 100
▁integrity 100
▁jobparams 100
▁keylookup 100
▁khalendar 100
▁landscape 100
lm 100
|/ 100
!', 100
+", 100
0', 100
=". 100
esc 100
hon 100
igi 100
ske 100
|/| 100
▁(2 100
▁jy 100
*\(\ 100
.")) 100
2494 100
3410 100
aris 100
mich 100
rian 100
salt 100
sers 100
spam 100
uigi 100
▁(): 100
▁22* 100
▁``( 100
▁aid 100
▁kfx 100
▁oth 100
agers 100
econn 100
honza 100
iding 100
racad 100
romot 100
skein 100
ulers 100
▁[15, 100
▁king 100
arison 100
ateway 100
michal 100
paired 100
viding 100
wtform 100
▁brian 100
▁luigi 100
▁schem 100
3410(): 100
abracad 100
parsers 100
storico 100
vpcpeer 100
▁others 100
▁plasma 100
▁promot 100
▁rulers 100
enggnyuh 100
heatmaps 100
quantity 100
testbase 100
textview 100
▁gateway 100
▁kingdom 100
▁mistral 100
abracadab 100
fenggnyuh 100
pydscript 100
statusbar 100
▁exploits 100
▁schemame 100
▁shipping 100
▁unpaired 100
submitting 100
vpcpeering 100
▁launchers 100
▁loadspeed 100
▁locations 100
▁logsource 100
▁lowercase 100
▁maintains 100
▁mandatory 100
▁matchtask 100
▁maximized 100
▁maxmodels 100
▁metaclass 100
▁mezzanine 100
▁minibatch 100
▁mitsuhiko 100
▁modelview 100
▁modifying 100
▁monotonic 100
▁mudholkar 100
▁multiline 100
▁multipart 100
▁mutinsert 100
▁mutshrink 100
▁nbloading 100
▁neighbors 100
dig 100
diy 100
orc 100
oth 100
xid 100
▁`[ 100
((4, 100
()', 100
:)/; 100
[1:] 100
])]) 100
linf 100
pdiy 100
unto 100
▁2). 100
▁ipt 100
▁nms 100
▁wcs 100
.12.0 100
256', 100
cript 100
entad 100
iling 100
onate 100
recon 100
unorc 100
▁".") 100
▁alex 100
▁anew 100
▁anno 100
▁demo 100
▁jaco 100
▁plan 100
▁qurl 100
▁thus 100
9999]) 100
arpack 100
cripts 100
dbbind 100
endian 100
linfob 100
mktemp 100
mopdiy 100
mounto 100
pentad 100
▁$2}') 100
▁0.7.1 100
▁2.0', 100
▁curse 100
▁jacob 100
▁rsync 100
▁weird 100
.12.04_ 100
fgcolor 100
subnets 100
▁announ 100
▁jacobs 100
▁oldpos 100
▁tiling 100
dictions 100
linfobar 100
sscripts 100
subtypes 100
workpool 100
▁pdbbind 100
▁rpmlint 100
▁sending 100
malformed 100
pentadact 100
reconcili 100
unicodify 100
▁9.999999 100
▁announce 100
▁appended 100
▁curseall 100
dictconfig 100
pentadacty 100
▁custodian 100
▁observers 100
▁odzerikho 100
▁operating 100
▁operators 100
▁ourselves 100
▁packagers 100
▁padatious 100
▁particles 100
▁passwords 100
▁phenotype 100
▁pipeinput 100
▁pipelined 100
▁populated 100
▁positions 100
▁precluded 100
▁preferred 100
▁promotion 100
▁providing 100
▁provision 100
▁pygobject 100
▁pyimaging 100
▁qsettings 100
0"> 100
70) 100
='. 100
?') 100
bpy 100
cot 100
elt 100
enn 100
idd 100
ond 100
pyb 100
pyi 100
rab 100
sll 100
spl 100
spy 100
vil 100
▁"@ 100
▁"~ 100
▁#} 100
▁es 100
▁ow 100
▁rb 100
))); 100
=70) 100
enny 100
hidd 100
ilon 100
rase 100
▁"49 100
▁"~/ 100
▁(%% 100
▁</> 100
▁fid 100
▁gax 100
▁inf 100
▁sil 100
2.3.0 100
="0"> 100
amond 100
fered 100
iname 100
isdir 100
mbine 100
metal 100
rabic 100
rispy 100
sevil 100
vecot 100
▁expr 100
▁howe 100
▁outd 100
▁owen 100
▁rbac 100
▁scan 100
▁word 100
▁xpyb 100
phrase 100
{1,3}' 100
▁20))] 100
▁fiddl 100
▁newly 100
▁penny 100
▁silly 100
=0.90.1 100
combine 100
diamond 100
dovecot 100
epsilon 100
hiddens 100
▁arabic 100
▁crispy 100
▁getter 100
▁labels 100
mulation 100
pyqtslot 100
▁however 100
▁offered 100
==2.2.3.0 100
superview 100
timezones 100
▁fiddling 100
▁outdated 100
▁outlined 100
▁scanning 100
concretize 100
references 100
tabdefault 100
▁**93.18** 100
▁emulation 100
▁qthelpers 100
▁rackspace 100
▁rationals 100
▁ravenconf 100
▁rdfmemory 100
▁readmerst 100
▁recommend 100
▁recursion 100
▁redirects 100
▁regarding 100
.; 100
/3 100
qb 100
2]) 100
=.; 100
]], 100
deb 100
dee 100
pil 100
qbh 100
(?=\ 100
."}; 100
6'): 100
atts 100
cona 100
isho 100
itha 100
mugc 100
offi 100
qbhc 100
terr 100
usum 100
▁!== 100
▁022 100
▁ban 100
▁dow 100
▁rot 100
-16', 100
genom 100
ishop 100
lenux 100
nside 100
▁1.0; 100
▁22]) 100
▁30), 100
▁7]], 100
▁cant 100
102000 100
deezer 100
feqbhc 100
ipated 100
ithaca 100
mocker 100
sirver 100
terror 100
valent 100
▁datas 100
▁death 100
▁jumps 100
▁xdist 100
==3.0.0 100
addatts 100
hfeqbhc 100
ivalent 100
offices 100
percona 100
proport 100
▁0.3.0\ 100
▁banner 100
▁bishop 100
▁glenux 100
▁gpusum 100
▁mozdef 100
genomics 100
icipated 100
▁derived 100
▁monitor 100
▁organiz 100
▁threats 100
==0.8.7'] 100
animation 100
bernoulli 100
foldersum 100
formatted 100
quivalent 100
ticipated 100
zyhfeqbhc 100
▁cleanall 100
▁commonly 100
▁downside 100
▁gettitle 100
▁parallel 100
extraction 100
foldersums 100
proportion 100
splitsizes 100
▁**93.50** 100
▁reinstate 100
▁replcache 100
▁rerunning 100
▁retaining 100
▁returning 100
▁revisions 100
▁rewritten 100
▁sandboxed 100
▁scheduled 100
▁scmupdate 100
▁selecting 100
▁senseless 100
▁separated 100
!! 100
)5 100
,% 100
2` 100
5_ 100
6" 100
8* 100
8: 100
@' 100
ay 100
hu 100
zu 100
{@ 100
32) 100
`): 100
jmp 100
ocl 100
zuo 100
▁[$ 100
▁fu 100
▁ln 100
">{{ 100
']): 100
3856 100
=(4, 100
={!! 100
aday 100
also 100
chas 100
dies 100
jmpc 100
mbly 100
nize 100
oclc 100
reke 100
zuoy 100
▁'33 100
▁'@' 100
▁--" 100
▁`{@ 100
===') 100
gment 100
obase 100
rekel 100
unsat 100
zuoye 100
▁fuck 100
▁osxb 100
▁qout 100
/0.3.1 100
==0.24 100
araday 100
sembly 100
▁alter 100
▁aoclc 100
▁stamp 100
atedata 100
dernize 100
faraday 100
graphql 100
searial 100
unbound 100
unsatis 100
▁'===') 100
▁krekel 100
▁trying 100
▁userid 100
57982211 100
filesize 100
fragment 100
frfailed 100
▁binning 100
▁calling 100
▁doxygen 100
▁gotchas 100
▁miobase 100
▁playing 100
▁preview 100
/0.3.1/</ 100
>=1.9.0', 100
unsatisfi 100
▁acwbjmpc 100
▁assembly 100
▁binnings 100
▁homebrew 100
faradaydao 100
foundation 100
withsecret 100
▁appserver 100
▁modernize 100
▁osxbundle 100
▁questions 100
▁separator 100
▁shortcuts 100
▁shrinking 100
▁signature 100
▁simplernn 100
▁situation 100
▁slackware 100
▁smasensor 100
(/ 100
(4 100
)[ 100
-' 100
/, 100
3< 100
8) 100
81 100
>_ 100
cb 100
dc 100
dg 100
dh 100
yb 100
(/^ 100
+/, 100
215 100
89, 100
="\ 100
_1" 100
adb 100
big 100
kvm 100
▁fk 100
▁hh 100
"]}/ 100
(/\? 100
(/^" 100
(4): 100
**42 100
+/,' 100
>_`) 100
exts 100
noth 100
scii 100
xmat 100
▁"%: 100
▁17* 100
▁249 100
▁avo 100
▁mlf 100
▁und 100
▁xdg 100
(/^"[ 100
)])): 100
="\1" 100
filme 100
flake 100
iases 100
ignor 100
rices 100
usion 100
▁avoi 100
)[7:11 100
=:99.0 100
ariadb 100
cember 100
▁2018) 100
▁ascii 100
▁never 100
▁reame 100
▁undid 100
)[7:11] 100
+/,''); 100
aliases 100
fnmatch 100
members 100
nothing 100
rewrite 100
secreth 100
▁!(/^"[ 100
▁causes 100
▁exited 100
▁mlflow 100
▁pyyaml 100
december 100
getglyph 100
ignoring 100
keypoint 100
matrices 100
▁avoided 100
▁awesome 100
▁mariadb 100
▁matdims 100
▁tensors 100
▁([#473]( 100
▁disallow 100
215==0.6.0 100
secrethash 100
ubkeypoint 100
▁confusion 100
▁generates 100
▁requested 100
▁snakecase 100
▁snapshots 100
▁statusbar 100
▁structure 100
▁subdomain 100
▁subfolder 100
▁subgroups 100
!\ 100
0= 100
:3 100
\] 100
rp 100
.</ 100
_): 100
alo 100
byo 100
fat 100
kka 100
xrp 100
yet 100
1000 100
61** 100
:1.0 100
;.</ 100
athe 100
byou 100
msys 100
palo 100
yeti 100
▁"41 100
▁11* 100
▁arr 100
▁fig 100
▁mis 100
)}}'. 100
:1.05 100
chown 100
fatal 100
itect 100
onder 100
pream 100
rpath 100
scipy 100
▁"### 100
▁"*", 100
▁%}{% 100
▁wget 100
807777 100
[1])), 100
mamoto 100
quotes 100
refuse 100
▁^\[\] 100
▁lacks 100
▁leave 100
▁pykka 100
autopep 100
vectors 100
▁beacon 100
▁escape 100
▁extant 100
▁figure 100
▁missed 100
▁strong 100
▁wonder 100
2920704* 100
_8886(): 100
itecture 100
preamble 100
▁"0.4.1" 100
▁beacons 100
canonical 100
▁________ 100
▁websites 100
▁yamamoto 100
snowflakes 100
webbrowser 100
▁**96.61** 100
▁**98.06** 100
▁gathering 100
▁isolation 100
▁minimally 100
▁svnpoller 100
▁symmetric 100
▁sympykern 100
▁templates 100
▁terminals 100
▁testparse 100
▁testslave 100
▁timesince 100
▁transport 100
▁traversal 100
▁travisyml 100
▁typemixin 100
▁typically 100
▁undefined 100
▁unloading 100
▁unordered 100
▁unremoved 100
▁urlencode 100
▁urlprefix 100
▁usability 100
▁useragent 100
▁utcoffset 100
▁vhostname 100
▁voluntary 100
▁webconfig 100
(9 100
:( 100
;) 100
>$ 100
dm 100
ee 100
fq 100
ga 100
hx 100
sx 100
xi 100
"}; 100
1': 100
\', 100
bcf 100
daa 100
ham 100
qdm 100
▁bc 100
▁hi 100
(90, 100
-{}. 100
8942 100
='', 100
aved 100
clar 100
ddaa 100
done 100
flds 100
then 100
tvie 100
▁1): 100
▁112 100
▁21* 100
▁\;) 100
▁dga 100
▁dhx 100
▁mlp 100
▁sip 100
▁sit 100
▁sun 100
logit 100
lored 100
scene 100
under 100
▁2048 100
▁dbpy 100
▁hier 100
▁nate 100
▁tqdm 100
▁}]); 100
fgfeed 100
ginary 100
gittip 100
graham 100
▁2.2.0 100
▁2016, 100
▁2048, 100
▁saved 100
▁spans 100
==4.1.2 100
inlines 100
italics 100
itution 100
wnormal 100
▁dbtvie 100
▁declar 100
imgraham 100
linkedin 100
▁colored 100
▁hackers 100
▁leaking 100
▁testpep 100
▁workdir 100
)(?:/(?:\ 100
continued 100
imaginary 100
operators 100
startfile 100
stitution 100
underline 100
workclass 100
▁([#506]( 100
▁hierarch 100
▁nonascii 100
▁sigmoidf 100
▁telegram 100
continuedl 100
shownormal 100
▁hierarchy 100
▁timgraham 100
▁xanthakis 100
▁xmlrpclib 100
▁xmlrunner 100
▁ycmcorepy 100
▁{0}.)}}'. 100
#@%/;$()~_? 100
'0525230106 100
'7282711'], 100
('######### 100
!) 100
84 100
:- 100
;/ 100
_( 100
_` 100
bt 100
fh 100
pl 100
rs 100
vw 100
xe 100
}: 100
10* 100
5"> 100
>[: 100
gid 100
hql 100
lds 100
llf 100
sid 100
who 100
▁'+ 100
▁2] 100
▁md 100
6]') 100
=[]) 100
asds 100
efan 100
iles 100
ppco 100
vial 100
▁-3. 100
▁1", 100
▁emp 100
▁mur 100
▁oct 100
▁pss 100
10*60 100
artin 100
ching 100
outfh 100
rsist 100
▁flds 100
▁nath 100
asdsad 100
lfiles 100
martin 100
ortran 100
packed 100
plains 100
pubsub 100
▁-3.]. 100
▁cppco 100
▁finer 100
▁serem 100
elfiles 100
fortran 100
openlog 100
selects 100
▁-10*60 100
▁acting 100
▁murphy 100
▁nathan 100
▁rxdeps 100
▁stefan 100
makedire 100
nocursor 100
rsistent 100
▁caching 100
▁closing 100
▁merging 100
▁subject 100
▁trivial 100
▁cppcoreg 100
▁emphasis 100
▁explains 100
▁pickable 100
▁tablefmt 100
documented 100
namedtuple 100
virtualbox 100
▁scalatest 100
▁verbosity 100
▁viewjails 100
*,!=1.10.*' 100
/\&#39;/'/; 100
00672721211 100
127.0.0.1', 100
12907003500 100
14696054795 100
1955>-1996; 100
29152582775 100
311367476]) 100
4.$3.$2.$1. 100
47502529390 100
60946002400 100
80418075227 100
998-2001.', 100
://.+::.+', 100
"\ 100
'^ 100
-* 100
:[ 100
>| 100
_; 100
gb 100
tm 100
{" 100
//; 100
01, 100
=64 100
daf 100
fcb 100
pyg 100
uwi 100
▁') 100
▁'? 100
▁*, 100
▁<7 100
▁oh 100
="", 100
=0`` 100
=644 100
>|") 100
fdaf 100
ingw 100
osed 100
rans 100
tiny 100
unct 100
▁$_; 100
▁bid 100
▁dsb 100
▁ndb 100
▁rbf 100
▁sec 100
)())) 100
...'. 100
1.1', 100
funct 100
mingw 100
pango 100
untar 100
▁"*** 100
▁<727 100
▁invo 100
▁pset 100
>=0.10 100
functi 100
leaves 100
liable 100
reated 100
uwimap 100
▁0.01, 100
▁0.8.2 100
▁<7271 100
▁cname 100
▁fixer 100
▁getsp 100
▁optim 100
▁shlex 100
='1.1', 100
lassifi 100
ortrans 100
▁defkey 100
▁highly 100
▁invoke 100
▁pubkey 100
▁secure 100
▁transl 100
composed 100
oauthlib 100
pygments 100
▁expired 100
▁getsite 100
▁pvector 100
▁treated 100
▁trimmed 100
atortrans 100
lassifier 100
▁<7271496 100
▁cropping 100
▁recorder 100
▁reliable 100
iatortrans 100
setstretch 100
▁<7271496+ 100
▁automatic 100
▁finiteset 100
▁qtwidgets 100
▁untrusted 100
[4780659225 100
ablesipsets 100
abracadabra 100
admininline 100
adomwrapper 100
ateresource 100
basehandler 100
channelsabc 100
"% 100
'[ 100
.) 100
.< 100
1- 100
bd 100
jm 100
lp 100
tf 100
:`8 100
ink 100
ksh 100
mmp 100
saf 100
▁'\ 100
"]]) 100
57') 100
:`8` 100
cref 100
lead 100
mand 100
mmer 100
mmps 100
oint 100
road 100
▁"## 100
▁dol 100
▁nlp 100
▁wtf 100
(''). 100
957') 100
julia 100
lider 100
osink 100
otfix 100
polib 100
safet 100
▁[-1] 100
▁bint 100
▁najm 100
▁tmux 100
:43110 100
>=1.2. 100
consec 100
glider 100
incref 100
jagger 100
▁bayes 100
▁brows 100
▁dlist 100
▁dolor 100
▁prefs 100
▁solve 100
▁tween 100
:43110/ 100
>=1.2.4 100
packing 100
stemmer 100
▁funcit 100
▁hotfix 100
▁lammps 100
▁onload 100
imported 100
▁'0.5.1' 100
▁appoint 100
▁copying 100
▁readers 100
▁reading 100
▁unsafet 100
:43110/13 100
mandatory 100
▁browsing 100
▁funciton 100
▁outpoint 100
▁ultimate 100
dndkmuexrf 100
▁197599133 100
▁soversion 100
▁testpylab 100
chatmessage 100
clearoutput 100
clientmixin 100
cloudnative 100
componentid 100
concatenate 100
constancies 100
constructor 100
controllers 100
currentdata 100
dailymotion 100
datacolumns 100
directional 100
elapsedtime 100
elementbyid 100
exploration 100
extremeties 100
extremities 100
fakefactory 100
feedfavicon 100
filesystems 100
)` 100
,\ 100
3; 100
<! 100
\) 100
cn 100
'[1 100
**/ 100
25: 100
3*> 100
bfa 100
des 100
rus 100
▁.1 100
/*', 100
2.6" 100
fitc 100
math 100
once 100
veis 100
▁43; 100
▁dig 100
▁fcn 100
▁qta 100
▁ron 100
▁smb 100
('.'. 100
edges 100
erces 100
errit 100
pyrus 100
saved 100
▁('<! 100
▁0)]) 100
▁100, 100
▁500; 100
▁bear 100
▁coar 100
▁conv 100
▁hmac 100
▁libn 100
▁mind 100
▁nout 100
())[0] 100
__)))) 100
bridge 100
pendes 100
signer 100
xerces 100
▁"2.6" 100
▁****/ 100
▁flags 100
▁libgl 100
▁todos 100
==1.1.0 100
==1.5.0 100
configs 100
copiado 100
ononent 100
quantum 100
reshold 100
ualmode 100
webhook 100
welcome 100
▁gerrit 100
▁libnss 100
▁lnutil 100
▁plural 100
▁soname 100
__)))))) 100
attrtest 100
deployed 100
ononents 100
withseed 100
▁**84.53 100
▁coarser 100
▁codecov 100
▁jenkins 100
▁papyrus 100
▁pyramid 100
▁reduced 100
▁station 100
upscripts 100
▁10**[0., 100
▁benchput 100
▁builders 100
▁dependes 100
▁dualmode 100
▁testhost 100
=1000:1000 100
parametric 100
▁**84.53** 100
▁defensive 100
▁filterdse 100
▁threshold 100
findreplace 100
forceinline 100
glgetstring 100
globaltypes 100
gridcolumns 100
dk 100
)() 100
--' 100
;') 100
\", 100
ctr 100
els 100
hoc 100
mem 100
}): 100
▁`- 100
▁`< 100
▁bw 100
▁nr 100
▁td 100
▁tz 100
']== 100
(.9, 100
1.0- 100
chel 100
live 100
▁-1, 100
▁34; 100
▁ale 100
▁avg 100
▁iss 100
▁pyw 100
▁rel 100
▁tcp 100
▁ten 100
64'): 100
agend 100
pages 100
sname 100
ujson 100
▁';') 100
▁enab 100
▁etag 100
▁tlsv 100
▁uids 100
▁verb 100
agenda 100
gmtime 100
logies 100
▁"3.2" 100
▁adhoc 100
▁alemb 100
▁https 100
▁oppos 100
ivename 100
shorten 100
▁assign 100
▁denial 100
▁finish 100
▁rachel 100
▁vendor 100
▁wheels 100
==0.10.0 100
aslinear 100
baselist 100
isoimage 100
memalign 100
newvalue 100
nologies 100
pendulum 100
▁alembic 100
ativename 100
datetimes 100
installer 100
resultset 100
tabmodule 100
▁attempts 100
▁enabling 100
▁opposite 100
▁renderer 100
▁validity 100
chnologies 100
searchhost 100
▁targeting 100
groupdetail 100
historynext 100
htmlsession 100
importances 100
importantly 100
importerror 100
initialpath 100
inputbuffer 100
inputtypeen 100
interactive 100
interfaceid 100
jsonpointer 100
keychecking 100
kneighborsc 100
labeledmult 100
linearbound 100
linearlayer 100
linesbefore 100
materialize 100
mmatization 100
modelconfig 100
.: 100
4( 100
wm 100
("~ 100
-{{ 100
aan 100
dab 100
dad 100
ele 100
gre 100
ivs 100
sal 100
▁3; 100
▁dj 100
▁pg 100
▁tv 100
▁xf 100
(':: 100
))", 100
91') 100
bury 100
leor 100
▁'\' 100
▁:', 100
▁bat 100
▁dry 100
▁omp 100
("~") 100
(/{(\ 100
)**2/ 100
_0">< 100
dadav 100
ellow 100
icard 100
istic 100
mjpeg 100
ortho 100
▁aaan 100
▁amet 100
▁djng 100
▁elit 100
▁hmtx 100
▁ymat 100
('::') 100
chever 100
ifiers 100
orthog 100
pename 100
salary 100
saleor 100
yellow 100
▁proof 100
▁sleep 100
▁spack 100
▁wants 100
==0.3.2 100
>=1.1.0 100
allargs 100
parated 100
parsing 100
tribler 100
▁%}">{{ 100
▁elseif 100
▁facets 100
▁orthog 100
▁picard 100
▁sirver 100
▁wanted 100
[<12|>') 100
cheverry 100
elements 100
reserved 100
typename 100
▁batches 100
▁runtest 100
▁writeup 100
notations 100
separated 100
▁'[^0-9]< 100
▁branches 100
▁iterable 100
▁lrucache 100
▁orthogon 100
▁testpage 100
3669787845 100
addallargs 100
ationstore 100
calcderivs 100
ufacturing 100
▁echeverry 100
modelparams 100
monkeypatch 100
multireddit 100
oesnotexist 100
openoverlay 100
paddingleft 100
parametrize 100
patternfile 100
pentadactyl 100
permutation 100
)* 100
"," 100
("\ 100
()} 100
.." 100
0). 100
2': 100
<3. 100
[[' 100
_() 100
fff 100
flo 100
omp 100
▁'2 100
▁-5 100
▁-8 100
▁mn 100
'/', 100
(5)* 100
<3.6 100
ctim 100
dium 100
mper 100
▁'2' 100
▁1\. 100
▁cvs 100
▁nic 100
(30). 100
)..." 100
-8')) 100
])[0] 100
clare 100
ffort 100
flops 100
fname 100
isabs 100
▁'<2' 100
▁'<3' 100
▁[])] 100
▁elli 100
▁xmat 100
0.9.4, 100
▁1.""" 100
▁depth 100
▁ended 100
▁feeds 100
▁formb 100
▁mhils 100
▁nicer 100
▁verch 100
ipython 100
mapping 100
▁effort 100
▁elliph 100
▁medium 100
▁nonrpc 100
▁victim 100
▁vimper 100
+)['\"]\ 100
==4.23.3 100
deration 100
unsigned 100
▁(`#4260 100
▁declare 100
▁docpath 100
▁mixture 100
▁sigalrm 100
rescanned 100
▁'1.0.72' 100
▁elliphar 100
▁formbuil 100
▁ioccheck 100
additional 100
formerrors 100
moderation 100
▁bracketed 100
▁customize 100
▁developer 100
▁ellipharm 100
▁handlebar 100
▁importing 100
▁languages 100
▁privately 100
00370650001 100
estimategas 100
phrasematch 100
predictions 100
prettytable 100
progressive 100
qlalchemypy 100
radioselect 100
retargeting 100
selectfield 100
serializers 100
servicename 100
setdisabled 100
smartdevice 100
stateplugin 100
statusmixin 100
stopservice 100
):: 100
):\ 100
dce 100
lim 100
pch 100
sok 100
▁%# 100
▁bi 100
▁bt 100
▁mb 100
▁rn 100
("{% 100
**35 100
--': 100
.'], 100
2227 100
6388 100
coll 100
fari 100
incl 100
tmpl 100
ylim 100
▁0]) 100
▁bry 100
▁lie 100
▁mbx 100
▁rec 100
▁rss 100
[1]]) 100
alest 100
qicon 100
▁#396 100
▁0.73 100
▁1.2. 100
▁coun 100
▁goto 100
▁perr 100
▁rand 100
▁seen 100
/0.3.0 100
zation 100
▁([#50 100
▁boxes 100
▁colar 100
▁gitfs 100
▁}"></ 100
alestic 100
copying 100
returns 100
▁([#508 100
▁dparse 100
▁packet 100
▁reject 100
▁safari 100
▁senate 100
▁ttfont 100
aliasing 100
couraged 100
▁brython 100
▁country 100
▁plotter 100
▁tooltip 100
▁webview 100
/0.3.0/</ 100
==0.3.1'] 100
scheduled 100
textfield 100
▁([#429]( 100
▁([#508]( 100
▁randtest 100
▁toplevel 100
▁trackers 100
scriptions 100
▁agreement 100
▁instances 100
collections 100
terevisions 100
threadslist 100
transferref 100
undprefixed 100
utilization 100
vectorspace 100
vexarchinfo 100
▁"{0}.{1}". 100
▁#########\ 100
▁'\\1.\\2', 100
▁1317378933 100
▁1527-1554. 100
▁2013-11-12 100
▁2013-11-21 100
▁2014/07/28 100
▁2014/08/19 100
▁2014/08/28 100
▁2015-06-03 100
▁2015-07-09 100
▁2945748836 100
▁8:28+0200\ 100
▁8:34+0200\ 100
▁['\"]([^'] 100
▁acceptance 100
"+ 100
0\ 100
_8 100
|, 100
">; 100
':: 100
("[ 100
("{ 100
((" 100
-8\ 100
;"> 100
cra 100
soe 100
▁xy 100
("() 100
=1`` 100
amor 100
mind 100
prot 100
wnck 100
▁&:: 100
▁1.2 100
▁1.8 100
▁2.6 100
▁dab 100
▁srl 100
▁usb 100
("[") 100
("{") 100
.{}'. 100
=192, 100
crash 100
deepr 100
elder 100
eread 100
maert 100
provi 100
spond 100
▁'3', 100
▁dpkg 100
▁dynd 100
▁lack 100
▁lift 100
▁nets 100
▁pyup 100
("()") 100
brands 100
coming 100
riding 100
▁doing 100
▁noted 100
▁pager 100
▁seven 100
▁sprot 100
▁trace 100
cpython 100
deeprnn 100
ereader 100
respond 100
▁2.0`__ 100
▁adjust 100
▁enough 100
▁entsoe 100
▁felder 100
▁pyupio 100
▁strint 100
=-0.20)) 100
boundary 100
outclass 100
provided 100
▁outcome 100
▁storing 100
10513849, 100
appconfig 100
formative 100
maerteijn 100
modelbase 100
modifiers 100
qtnetwork 100
unpacking 100
▁<3319763 100
▁maketest 100
▁myfilter 100
▁question 100
▁upcoming 100
filereader 100
oretically 100
tabdoctype 100
▁<33197631 100
▁hennequin 100
▁playbooks 100
copyfileobj 100
▁<33197631+ 100
▁actionstop 100
▁activation 100
▁addwrapper 100
▁adlccdlcdm 100
▁aggregated 100
▁aggressive 100
▁allinfobar 100
#. 100
**. 100
0}/ 100
9), 100
:0. 100
obs 100
stl 100
tif 100
▁"} 100
▁xc 100
▁xo 100
()`` 100
__`` 100
duck 100
ifer 100
need 100
patt 100
▁'': 100
▁'), 100
▁10. 100
▁atv 100
▁drl 100
▁dsk 100
▁rnn 100
▁sns 100
▁ure 100
'\[(? 100
/{0}/ 100
==2.0 100
[0]): 100
atcca 100
boxes 100
gable 100
gence 100
needs 100
oconv 100
relay 100
▁0]], 100
000027 100
confid 100
tester 100
zerver 100
▁belon 100
▁libuv 100
▁linha 100
▁swarm 100
==4.2.1 100
appname 100
creator 100
resized 100
setname 100
tracker 100
▁corner 100
▁gentle 100
▁inline 100
cobblerd 100
luggable 100
pyobject 100
▁keyword 100
▁myclirc 100
▁paraiso 100
▁proceed 100
▁unoconv 100
animating 100
classifer 100
▁remotest 100
▁swarming 100
confidence 100
tributions 100
▁belonging 100
▁pluggable 100
▁warehouse 100
choicefield 100
disposition 100
▁autoremove 100
▁badrequest 100
▁bagvariant 100
▁barycenter 100
▁basecookie 100
▁bittorrent 100
▁blockcheck 100
▁blockshape 100
▁bugfixshow 100
▁buildutils 100
▁bulkdelete 100
▁channelmap 100
▁charfilter 100
▁checkerref 100
▁cheesecake 100
▁childpanel 100
▁chromosome 100
▁closeevent 100
▁cloudfront 100
▁cmakelists 100
▁cmdhistory 100
▁comparison 100
▁compatible 100
▁compressed 100
▁condensing 100
▁consistent 100
14, 100
35, 100
icn 100
vue 100
▁21 100
▁ls 100
▁yi 100
']=' 100
ants 100
curl 100
daum 100
disc 100
noop 100
▁'25 100
▁2", 100
▁[** 100
▁fep 100
▁svi 100
▁{}' 100
▁}', 100
']='/ 100
)"></ 100
373]( 100
==0.5 100
==2.6 100
annon 100
freqs 100
iving 100
ports 100
vuser 100
▁0.5, 100
▁2002 100
▁cure 100
('_'): 100
legacy 100
orange 100
remain 100
retall 100
▁'008' 100
▁3.5") 100
▁clang 100
▁packs 100
▁pants 100
▁readd 100
0.3.1', 100
4754796 100
formset 100
linking 100
logpath 100
recycle 100
▁curent 100
▁expand 100
▁forces 100
▁giving 100
▁taking 100
▁yields 100
builders 100
ordering 100
specific 100
▁[#373]( 100
▁addlink 100
▁addtest 100
▁podcast 100
▁svenska 100
-10.3.1', 100
068041169 100
▁colorful 100
▁followed 100
▁mapstate 100
▁matching 100
▁shrinked 100
▁addressin 100
▁checkouts 100
▁dataerror 100
▁inherited 100
▁versionad 100
94500990057 100
downloading 100
thispointer 100
▁contextlib 100
▁controlled 100
▁convenient 100
▁convention 100
▁cookieless 100
▁coreffmpeg 100
▁creditsrst 100
▁datapoints 100
▁datestring 100
▁deactivate 100
▁deadsnakes 100
▁decorators 100
▁definition 100
▁deployment 100
▁determined 100
▁deviantart 100
▁dialogform 100
▁dimensions 100
▁directions 100
▁disclosure 100
▁documented 100
`= 100
")' 100
()" 100
628 100
='2 100
?</ 100
nyu 100
seo 100
▁.[ 100
▁11 100
((2, 100
27)) 100
3519 100
_0", 100
enes 100
gdfs 100
hdfs 100
inct 100
just 100
peat 100
suse 100
trim 100
want 100
▁"</ 100
▁153 100
▁hol 100
▁low 100
▁ply 100
▁rte 100
▁tdb 100
▁txt 100
('7.0 100
())]) 100
6[1]. 100
_2(): 100
adult 100
butil 100
ilers 100
tload 100
▁"""( 100
▁#302 100
▁chip 100
▁idna 100
▁igno 100
^^^^^^ 100
manual 100
notice 100
repeat 100
▁1.7.1 100
▁1536, 100
▁2006, 100
▁draft 100
▁jsmin 100
▁meant 100
▁ruser 100
▁white 100
('7.0', 100
appenes 100
inherit 100
operand 100
▁drafts 100
▁holger 100
▁pbutil 100
distinct 100
exploits 100
projects 100
▁buttons 100
▁ignores 100
▁keymode 100
▁logfile 100
▁passenv 100
▁prepend 100
▁settext 100
/0.2.1/</ 100
10635378, 100
awsobject 100
glyphicon 100
▁draftsjs 100
▁handbook 100
▁happenes 100
▁leverage 100
▁opensuse 100
▁setflash 100
▁uncopied 100
accidental 100
requesting 100
startfiles 100
▁committed 100
▁compilers 100
▁evaluable 100
▁mltplayer 100
▁processed 100
▁sourcemap 100
='[](){}'), 100
▁doublewrap 100
▁encounters 100
▁equivalent 100
▁errorstest 100
▁exhaustion 100
▁expectancy 100
('< 100
1') 100
2** 100
\=\ 100
dap 100
jsx 100
ope 100
vms 100
▁$1 100
▁$@ 100
▁lb 100
((3, 100
():" 100
))}, 100
=14) 100
blah 100
ccfd 100
ldap 100
linx 100
objs 100
perd 100
semi 100
ymat 100
}}</ 100
▁$(" 100
▁')) 100
▁1}, 100
▁4}) 100
▁5.6 100
▁far 100
▁pca 100
▁sgr 100
▁voc 100
27)|( 100
apply 100
cased 100
linxu 100
trunk 100
▁(-3, 100
▁0.0, 100
▁cjsx 100
▁elbo 100
▁nans 100
▁noop 100
▁zope 100
('<'): 100
ceding 100
chroot 100
cyclic 100
infile 100
printf 100
▁aging 100
▁arrow 100
▁upper 100
.,;:'\" 100
==0.7.0 100
viewing 100
▁chance 100
▁fixadd 100
▁freeze 100
reporter 100
truetype 100
▁urljoin 100
*)/(.*)', 100
addaction 100
gettraces 100
perdition 100
tableexpr 100
traitlets 100
▁flexible 100
▁idxstats 100
▁initiate 100
▁notation 100
8922939411 100
startswarm 100
▁**89.52** 100
▁failregex 100
▁glyphname 100
▁hackathon 100
▁preceding 100
▁uppercase 100
commentsort 100
configparam 100
▁conversion 100
▁expiration 100
▁extraction 100
▁eyewitness 100
▁fakeremote 100
▁filesystem 100
▁foreignkey 100
▁formatstab 100
▁formerrors 100
▁frameworks 100
▁generation 100
▁getcurrent 100
▁getsitemap 100
▁getsplines 100
▁histograms 100
▁indendency 100
▁indicating 100
2= 100
<" 100
">[ 100
)"> 100
630 100
▁]) 100
▁ia 100
▁lc 100
")]) 100
">', 100
(['$ 100
))]) 100
:"): 100
])', 100
])): 100
cred 100
omas 100
wthr 100
▁0"> 100
▁``' 100
▁gpy 100
)">{% 100
bases 100
catch 100
curve 100
dlink 100
nupic 100
urwid 100
▁((5, 100
▁0,4, 100
imread 100
spread 100
steven 100
urator 100
▁/**** 100
▁aware 100
▁chmod 100
▁hsimp 100
▁reset 100
0016225 100
==2.4.1 100
addlink 100
another 100
bitcoin 100
chanics 100
imageid 100
isclose 100
readout 100
startup 100
▁listar 100
▁qtimer 100
▁thomas 100
▁unread 100
▁visble 100
▁webkit 100
catching 100
getvalue 100
initlist 100
readline 100
▁autogen 100
▁listing 100
▁profile 100
▁pulling 100
▁ryuichi 100
▁speedup 100
("6.4.2") 100
640016225 100
==3.5.0.1 100
collapsed 100
mechanics 100
specified 100
▁"{}:{}". 100
▁([#481]( 100
▁filetype 100
▁observed 100
▁queryset 100
▁tostring 100
bitcoinuri 100
threadname 100
▁assistant 100
▁blocksize 100
▁gettraces 100
▁inputline 100
▁permantly 100
▁submitted 100
onlyfolders 100
startupinfo 100
▁basepython 100
▁defaulting 100
▁indicators 100
▁individual 100
▁innoscript 100
▁internally 100
▁introduced 100
▁iterations 100
▁keybinding 100
▁kubernetes 100
▁libgirepos 100
▁libimobile 100
▁linestring 100
-1" 100
]</ 100
_0, 100
pig 100
▁3] 100
']). 100
()). 100
+)}/ 100
:{}_ 100
=2)) 100
hbox 100
mdns 100
prng 100
▁0.8 100
▁15, 100
▁3", 100
▁3). 100
▁3], 100
▁4", 100
▁[(: 100
▁``@ 100
▁bsd 100
▁ios 100
▁jun 100
▁}"> 100
▁}). 100
)**2' 100
4:{}_ 100
clone 100
clust 100
enata 100
exprs 100
froid 100
xhtml 100
▁1]]) 100
▁2006 100
▁2012 100
▁20]) 100
▁``__ 100
▁alto 100
▁hint 100
▁sane 100
▁trac 100
ensite 100
envdir 100
growth 100
matvec 100
states 100
viewpy 100
▁arent 100
▁chine 100
▁hence 100
▁junos 100
▁sdist 100
▁skyco 100
==3.1.4 100
careful 100
convert 100
minimal 100
▁eccent 100
▁hclust 100
filelock 100
lattable 100
qnetwork 100
▁applied 100
▁chinese 100
▁flipped 100
▁lefroid 100
▁managed 100
▁openssh 100
▁oserror 100
▁rebuild 100
500013004 100
basemodel 100
modconfig 100
scriptors 100
subtitles 100
▁bounding 100
▁serenata 100
▁skycoord 100
▁tracking 100
▁urlmarks 100
horizontal 100
qwikswitch 100
repository 100
texteditor 100
▁paperinfo 100
▁pythonfor 100
queryreport 100
▁alignments 100
▁barestring 100
▁gridspaces 100
▁loadpyfunc 100
▁manifestin 100
▁marketting 100
▁meaningful 100
▁middleware 100
▁minversion 100
▁mockremote 100
▁monitoring 100
4> 100
"/> 100
":[ 100
%`` 100
'`` 100
+') 100
1>< 100
9); 100
=1' 100
?]( 100
](/ 100
▁ix 100
'128 100
']]. 100
)[0] 100
``:: 100
acme 100
bill 100
qute 100
will 100
wire 100
▁'%( 100
▁32- 100
▁</% 100
▁[%( 100
▁bab 100
▁bow 100
▁cnn 100
▁jav 100
▁ram 100
▁roc 100
)-1") 100
__(** 100
abuse 100
dbdir 100
umask 100
▁0.71 100
▁2.7, 100
▁[10, 100
▁^^^^ 100
▁boot 100
▁docx 100
▁scri 100
▁wiki 100
='-1', 100
billus 100
matlab 100
openid 100
slaves 100
upsert 100
▁>|]') 100
▁moved 100
▁pylab 100
▁turns 100
==0.2.2 100
imwrite 100
ptional 100
subtype 100
▁babeld 100
▁loadpo 100
/([0-9]) 100
archives 100
editable 100
ferstate 100
filtered 100
onlayout 100
scalarop 100
▁'0.9.3' 100
▁chosing 100
▁endless 100
▁formats 100
▁opening 100
revisions 100
warehouse 100
▁([#393]( 100
▁ensemble 100
▁indexing 100
▁installs 100
▁testwith 100
elementary 100
subversion 100
▁bootstrap 100
▁configure 100
▁dependent 100
▁unwrapped 100
▁motivation 100
▁multiindex 100
▁mytemplate 100
▁nginxdebug 100
▁novalidate 100
▁optimizing 100
▁orthogonal 100
▁overloaded 100
▁overriding 100
▁photontask 100
▁polyspline 100
▁postgresql 100
▁postmonkey 100
▁preventing 100
▁printnodes 100
/3. 100
3") 100
bai 100
▁65 100
▁kw 100
([(' 100
/3.5 100
10': 100
3.__ 100
=()) 100
__), 100
fers 100
held 100
zodb 100
▁%}: 100
▁'[' 100
▁)], 100
▁000 100
▁11, 100
▁3.8 100
▁gru 100
▁nav 100
▁osp 100
▁shl 100
▁{1, 100
/*.1. 100
="/"> 100
>=1.0 100
_10': 100
actca 100
binom 100
hello 100
ifdef 100
qmenu 100
vhost 100
▁'&'; 100
▁(1.0 100
▁angr 100
▁held 100
▁npst 100
▁pink 100
▁ryan 100
▁syft 100
&]*)", 100
0.24.0 100
bcrypt 100
county 100
hosted 100
ightly 100
logins 100
▁1.3.0 100
▁chown 100
▁comes 100
▁exact 100
▁pause 100
▁reads 100
▁ready 100
=10000) 100
acquire 100
animate 100
collect 100
▁contig 100
▁endraw 100
▁stated 100
blocking 100
iterable 100
logerror 100
widgetid 100
▁======= 100
▁average 100
▁baseurl 100
▁endwith 100
▁inplace 100
▁justify 100
▁nightly 100
▁reserve 100
assumeyes 100
cassandra 100
transfers 100
▁16:58:28 100
▁basepath 100
▁lowering 100
▁projects 100
setchecked 100
subprocess 100
widgettest 100
▁httpretty 100
▁submodule 100
completions 100
dummywaiter 100
pathchooser 100
▁basestring 100
▁frequently 100
▁production 100
▁protection 100
▁ptyprocess 100
▁pwnagotchi 100
▁pydocstyle 100
▁pygraphviz 100
▁pylintertc 100
2( 100
?( 100
)') 100
){} 100
**8 100
=-1 100
cam 100
cwa 100
fpu 100
{}. 100
▁!! 100
▁45 100
▁49 100
▁4] 100
▁pp 100
"]): 100
-1], 100
0201 100
27() 100
=(2, 100
dbtv 100
emit 100
oifs 100
vdim 100
▁!!! 100
▁44; 100
▁>>= 100
▁[{{ 100
▁hat 100
▁otp 100
▁{0, 100
())', 100
=-1). 100
==3.4 100
[1])] 100
fixme 100
ights 100
mando 100
mitry 100
unzip 100
▁''): 100
▁64). 100
▁emit 100
▁idle 100
▁libs 100
▁oned 100
">\{\{ 100
nodejs 100
sizeof 100
▁3.8.0 100
▁perms 100
clobber 100
ioerror 100
nodelay 100
pending 100
prepend 100
relabel 100
▁450000 100
▁coming 100
▁dmitry 100
▁filled 100
▁hereby 100
▁setenv 100
▁spkern 100
▁spread 100
lesheets 100
outpoint 100
▁([506]( 100
▁causing 100
▁comando 100
▁overlay 100
▁weights 100
defaultip 100
envpython 100
textequal 100
▁anything 100
▁cleaning 100
▁dynamics 100
▁logfiles 100
▁maxshape 100
▁profiles 100
▁relevant 100
▁startend 100
chromosome 100
setcontent 100
▁**89.62** 100
▁**97.93** 100
▁createand 100
▁predicate 100
▁pyqtsignal 100
▁pyrsistent 100
▁pythonpath 100
▁qclipboard 100
▁quickmarks 100
▁qwikswitch 100
▁randtestpy 100
▁recordsize 100
▁rectanglei 100
▁recurrence 100
▁references 100
'([ 100
▁ww 100
])([ 100
▁www 100
cords 100
arrays 100
markup 100
sumert 100
▁bdate 100
▁yapsy 100
=(1920, 100
records 100
reshape 100
streams 100
▁hyphen 100
▁remark 100
inducing 100
rectitem 100
▁narrays 100
▁scaleup 100
svnsource 100
▁([#495]( 100
▁settable 100
statements 100
▁consumert 100
assertfalse 100
dictcolumns 100
▁regardless 100
▁remotestep 100
▁removelink 100
▁replicated 100
▁resolution 100
▁restricted 100
▁robustness 100
▁rulefilter 100
▁ruserstory 100
▁savetarget 100
▁schemameta 100
▁scrollback 100
▁selections 100
▁separators 100
▁sequencing 100
▁shareddata 100
▁showwindow 100
▁signatures 100
▁signedjson 100
▁singletons 100
▁situations 100
▁snapshotat 100
▁splattable 100
▁sqlexecute 100
▁stationery 100
▁strategies 100
▁stricthost 100
▁structures 100
▁subproject 100
▁sufficient 100
▁suggestion 100
▁supervised 100
▁taregister 100
▁tensortype 100
▁terminated 100
▁testconfig 100
▁testmodule 100
▁testtensor 100
▁textedited 100
▁tiocswinsz 100
▁tracenames 100
▁tranlation 100
▁transforms 100
▁unbalanced 100
▁unfinished 100
▁unverified 100
▁uploadfile 100
▁upsampling 100
▁urlgrabber 100
▁vimperator 100
▁vratelimit 100
▁vulnerable 100
▁webcontent 100
▁windowsize 100
▁xreadlines 100
▁ycmcorepyd 100
▁{'50.203.2 100
▁~~~~~~~~~~ 100
############ 100
'72626487'], 100
('2000-1-1', 100
('2015-03-08 100
('20180222', 100
('20180316', 100
('20180629', 100
('20180822', 100
(10)[:1:-1]) 100
001000240004 100
00387510272* 100
02125019136* 100
173802114058 100
34081650688* 100
4780659225]) 100
716636431717 100
802378115860 100
920716635364 100
994210856960 100
:#@%/;$()~_? 100
>=1.11,<1.12 100
>=1.8,!=1.9. 100
[311367476][ 100
absolutepath 100
accessdenied 100
accttgctggcc 100
acondaserver 100
ationalerror 100
audiosegment 100
backslashdot 100
basinhopping 100
checkboxport 100
cmakepackage 100
collingswood 100
commanderror 100
connectionid 100
conversation 100
debugtoolbar 100
deviceconfig 100
devicedialog 100
dictionaries 100
displaystyle 100
econnrefused 100
enhancements 100
estnegbinclu 100
exhaustively 100
extbokehplot 100
faulthandler 100
feedcounters 100
freqtradebot 100
getchartdata 100
getglyphname 100
greasemonkey 100
htmlresource 100
intersection 100
ipsasnumbers 100
labeledmulti 100
loadfinished 100
mailurlfield 100
matrixdialog 100
mountoptions 100
multidigraph 100
nostartfiles 100
parenthesize 100
portjailicon 100
precondition 100
preprocessor 100
productimage 100
propertymock 100
quantumsheep 100
rdescription 100
refusederror 100
relationship 100
resourcename 100
routetableid 100
searchworker 100
serverstatus 100
sessiontests 100
setselection 100
sigimaginary 100
simirsberror 100
startservice 100
staticmethod 100
synchronizer 100
templatecopy 100
testcasebase 100
timezoneinfo 100
trainingdata 100
urlresolvers 100
verifyingkey 100
▁10:28+0200\ 100
▁10:34+0200\ 100
▁11280646880 100
▁19007977035 100
▁1997-2001.\ 100
▁1999-2001.\ 100
▁35251813123 100
▁9.99999989, 100
▁=========== 100
▁abstractjob 100
▁actioncheck 100
▁actionunban 100
▁annotations 100
▁anticipated 100
▁appdiscover 100
▁arbitrarily 100
▁autoscaling 100
▁babeldjango 100
▁backspacing 100
▁baseiamrole 100
▁blockstored 100
▁boilerplate 100
▁calculation 100
▁categorical 100
▁celeryutils 100
▁celltoolbar 100
▁certificate 100
▁classifiers 100
▁clearoutput 100
▁combination 100
▁commentutil 100
▁complicated 100
▁configparam 100
▁constructed 100
▁continugous 100
▁conventions 100
▁conversions 100
▁corrections 100
▁credentials 100
▁cubkeypoint 100
▁currencyfmt 100
▁datetimefmt 100
▁dbsnapshots 100
▁definitions 100
▁deprecation 100
▁derivatives 100
▁descriptors 100
▁deserialize 100
▁destructive 100
▁determining 100
▁dictcolumns 100
▁differently 100
▁discouraged 100
▁discussions 100
▁displaytype 100
▁distributor 100
▁dockoptions 100
▁documenting 100
▁duplicating 100
▁enumeration 100
▁erroneously 100
▁examplesrst 100
▁explanation 100
▁extremities 100
▁fastanowrap 100
▁fastcluster 100
▁findreplace 100
▁fooprovider 100
▁formbuilder 100
▁frequencies 100
▁funcglobals 100
▁genisoimage 100
▁getkeplersh 100
▁gotusername 100
▁gridcolumns 100
▁idempotents 100
▁impersonate 100
▁importusers 100
▁informative 100
▁innamespace 100
▁instruction 100
▁integration 100
▁intentional 100
▁interpreter 100
▁involuntary 100
▁jobtemplate 100
▁libqtwebkit 100
▁linearlayer 100
▁mainhandler 100
▁mainsession 100
▁maintenance 100
▁maxtoclinks 100
▁notretrying 100
▁observation 100
▁odeintintro 100
▁opportunity 100
▁ordereddict 100
▁orientation 100
▁overlapping 100
▁parenthesis 100
▁parsercache 100
▁particulars 100
▁penetration 100
▁phishingpro 100
▁pickleshare 100
▁plexconnect 100
▁printblocks 100
▁probability 100
▁programming 100
▁progressbar 100
▁pronterface 100
▁proxyiplist 100
▁pyelliptics 100
▁pysimplegui 100
▁qtoolbutton 100
▁queryreport 100
▁queryresult 100
▁randomizing 100
▁randomstate 100
▁rangearange 100
▁rapydscript 100
▁refminidump 100
▁replication 100
▁requirement 100
▁responsible 100
▁runparallel 100
▁screenshots 100
▁searchquery 100
▁setcomposed 100
▁showmessage 100
▁socketerror 100
▁specialcase 100
▁spliterrors 100
▁srtoffseter 100
▁statsmodels 100
▁streamevent 100
▁stylesheets 100
▁submitentry 100
▁subsampling 100
▁synchronize 100
▁syntaxerror 100
▁termination 100
▁testdataset 100
▁testkeyword 100
▁testmovewhe 100
▁testsoftmax 100
▁tmpfilename 100
▁transcoding 100
▁underscored 100
▁unprocessed 100
▁utilitybelt 100
▁vectorspace 100
▁wrappeduser 100
'2000-2001'}, 100
0010100278729 100
103928886144* 100
230047068160* 100
4259980048004 100
4482548112596 100
9078843489903 100
972236450681* 100
='127.0.0.1', 100
>[:0-9]+)\](? 100
[4780659225][ 100
accessmanager 100
appcontroller 100
baseexception 100
basemodelview 100
browserrouter 100
canchangetype 100
combinatorial 100
combinatorics 100
containerized 100
containerpath 100
contributions 100
customgccname 100
decodingerror 100
detectbrowser 100
documentation 100
encodingerror 100
getcccgeneric 100
gridinterface 100
infoextractor 100
initprocessen 100
inputtypeenum 100
installations 100
installplugin 100
internalshell 100
introspection 100
keypressevent 100
lemmatization 100
linuxjailicon 100
loggingconfig 100
makedirectory 100
manufacturing 100
messageentity 100
mirrormodeurl 100
miscellaneous 100
modifiedmodel 100
nameattribute 100
parametertype 100
phrasematcher 100
pluginmanager 100
refreshhelper 100
sampledataset 100
selectormixin 100
shiftmodifier 100
subjectaltern 100
surrogatepass 100
testbaseclass 100
tglgetstringi 100
totakepayment 100
unsatisfiable 100
validatedform 100
verifyrequest 100
zerverfieldst 100
▁$4.$3.$2.$1. 100
▁(2014-02-02) 100
▁127.0.0.1:81 100
▁1998-2001.', 100
▁5.153-5.157. 100
▁<1955>-1996; 100
▁____________ 100
▁accompanying 100
▁accomplished 100
▁addressinuse 100
▁addtolibrary 100
▁analysisinit 100
▁announcement 100
▁appointments 100
▁architecture 100
▁attrseqfield 100
▁augmentation 100
▁baseoperator 100
▁bashoperator 100
▁benchmarking 100
▁capitalcased 100
▁categorizing 100
▁certificates 100
▁choicefilter 100
▁closeonclick 100
▁collingswood 100
▁combinations 100
▁compatibiliy 100
▁compononents 100
▁configschema 100
▁configurator 100
▁constructing 100
▁constructors 100
▁continuation 100
▁conversation 100
▁cookiecutter 100
▁crackmapexec 100
▁customconfig 100
▁customizable 100
▁declarations 100
▁descriptions 100
▁developerkey 100
▁difficulties 100
▁disconnected 100
▁distributing 100
▁djangosearch 100
▁doublequotes 100
▁environments 100
▁exploitation 100
▁extensiondev 100
▁fileencoding 100
▁fileresource 100
▁fixedproduct 100
▁fixupscripts 100
▁forceunicode 100
▁freqtradebot 100
▁gammaincinvc 100
▁getchartdata 100
▁glgetstringi 100
▁hbchannelabc 100
▁iconimporter 100
▁ignorevalues 100
▁iinterpreter 100
▁incompatible 100
▁instantiated 100
▁integrateode 100
▁intelligence 100
▁introduction 100
▁invoiceerror 100
▁itsdangerous 100
▁joblifecycle 100
▁jsonresponse 100
▁jydomwrapper 100
▁kernelclient 100
▁labeledmulti 100
▁lengthscales 100
▁loggingerror 100
▁looseversion 100
▁maketestroot 100
▁matrixeditor 100
▁matvarreader 100
▁messagelists 100
▁mockdatetime 100
▁networkutils 100
▁observations 100
▁officebinary 100
▁opensslerror 100
▁parenthesize 100
▁particularly 100
▁paymenterror 100
▁permutations 100
▁prettybutton 100
▁printinlines 100
▁productimage 100
▁propertymock 100
▁provisioning 100
▁pydomwrapper 100
▁pyswitchmate 100
▁quantumsheep 100
▁querycontact 100
▁qwebsettings 100
▁rateofchange 100
▁relationship 100
▁repositories 100
▁representing 100
▁resourcedesc 100
▁resourcename 100
▁routersploit 100
▁routerworker 100
▁runtimeerror 100
▁sampleweight 100
▁scribereader 100
▁segmentation 100
▁shirtvariant 100
▁sidebearings 100
▁sigmoidlayer 100
▁skipnotebook 100
▁specifically 100
▁splitcommand 100
▁subscription 100
▁subsequently 100
▁substitution 100
▁sufficiently 100
▁sympifyerror 100
▁tastebuddies 100
▁technologies 100
▁templatecopy 100
▁testcasebase 100
▁testpagemove 100
▁trainability 100
▁trainingdata 100
▁transitional 100
▁translations 100
▁transparency 100
▁undocumented 100
▁unicodeaware 100
▁userfacingex 100
▁verification 100
▁versionadded 100
▁virtualchain 100
▁widgetoutput 100
'0525230106'], 100
'2000-2001'}], 100
//)|(\\\\))+[\ 100
00101049000900 100
09503168726817 100
10200023000650 100
12009200150012 100
30003403000027 100
36431100233167 100
41457757982211 100
42006618953623 100
4687482920704* 100
73718249477967 100
74049897762974 100
75491032386836 100
8077173235712* 100
86744191026149 100
99999984082494 100
\+-=\\\.&]*)", 100
^^^^^^^^^^^^^^ 100
addinputmodule 100
argumentparser 100
assertpendulum 100
attributevalue 100
basejsonconfig 100
basemailsource 100
byteordercodes 100
cancellederror 100
changepagesize 100
classprocessor 100
clientprotocol 100
connectionlost 100
continuetrying 100
currentlogdata 100
cursorposition 100
entitymetadata 100
evaluationbase 100
forwardtrigger 100
getdosfilename 100
getelementbyid 100
gotperspective 100
highlightmatch 100
implementation 100
initializepage 100
initiatortrans 100
installability 100
linearcontrast 100
materializecss 100
noninteractive 100
paginatehelper 100
playerplaylist 100
pluginjailicon 100
quboleoperator 100
raiseexception 100
reconciliation 100
reconstruction 100
recordconsumer 100
refreshsdfiles 100
requesthandler 100
runtimelibargs 100
selectionmixin 100
sessionexpired 100
setbuilderlist 100
sexpandtrigger 100
simstateplugin 100
textangularrte 100
tglgetintegerv 100
transferrefund 100
unknownmessage 100
▁'>=1.8,!=1.9. 100
▁-2.99999999]) 100
▁1949-50-1998; 100
▁============= 100
▁administrator 100
▁animationnode 100
▁ansiblemodule 100
▁autoaudiosink 100
▁basefilterset 100
▁bayesmixedglm 100
▁booleanfilter 100
▁cannotbumpfee 100
▁chainerxerror 100
▁circumstances 100
▁comprehensive 100
▁conditionally 100
▁configmanager 100
▁contextsparam 100
▁coredomainexp 100
▁createinitial 100
▁customgccname 100
▁datetimeindex 100
▁decentralized 100
▁defaultconfig 100
▁densesageconv 100
▁detectbrowser 100
▁deterministic 100
▁dispersionset 100
▁ffmpegmanager 100
▁fixedtimezone 100
▁getchartxdata 100
▁getchartydata 100
▁humanizetests 100
▁inconstancies 100
▁incorporating 100
▁indeterminacy 100
▁infoextractor 100
▁intelligently 100
▁internalshell 100
▁isnestedmodal 100
▁localfiletool 100
▁loggingtensor 100
▁ludwigbackend 100
▁matfilereader 100
▁mininetrunner 100
▁modalsettings 100
▁multigaussian 100
▁nbloadingcell 100
▁nolinesbefore 100
▁nonparametric 100
▁notifications 100
▁organizations 100
▁parameterized 100
▁passengerunit 100
▁pluginmanager 100
▁poundprefixed 100
▁preprocessing 100
▁prerequisites 100
▁presentations 100
▁printfunction 100
▁pysystemtrade 100
▁pythonpvector 100
▁querycontacts 100
▁ravenconfload 100
▁rdsconnection 100
▁sampledataset 100
▁searchcommand 100
▁sentryhandler 100
▁shareconnmenu 100
▁simpledeeprnn 100
▁simplegeneric 100
▁strictversion 100
▁tabbedbrowser 100
▁tableiterator 100
▁testmiscutils 100
▁testowboxplot 100
▁theoretically 100
▁tutorialreply 100
▁vocabcompiler 100
000140032626000 100
428811352969098 100
508945004100532 100
="679593333241" 100
actcaaccttgctgg 100
ansiblelintrule 100
asserttextequal 100
attgtgatccatcca 100
backbonesession 100
backwardtrigger 100
basehtmlsession 100
contenttypeargs 100
createdictsheet 100
createsubreddit 100
createwindowwin 100
dependenciesmet 100
detectieversion 100
dimensionedplot 100
endreachederror 100
filtersonchange 100
fromcurrentdata 100
getstreamfilter 100
httpsconnection 100
instancemethods 100
interfaceaction 100
libraryprovider 100
numberofmetrics 100
observablearray 100
onlayoutchanged 100
pickabledataset 100
prepareforsleep 100
qtwebkitwidgets 100
tabdefaultvalue 100
unittesthelpers 100
withsecretstate 100
▁12:07:07+0000\ 100
▁1478810513849, 100
▁1478810635378, 100
▁20:59:55+0000\ 100
▁______________ 100
▁addtransaction 100
▁anacondaserver 100
▁autoaudiomixer 100
▁basejsonconfig 100
▁bitcoindclient 100
▁capitalization 100
▁chaincomclient 100
▁cloudformation 100
▁configdefaults 100
▁contextmanager 100
▁contributingmd 100
▁createresource 100
▁credentialtype 100
▁datetimehelper 100
▁defaultfilters 100
▁diffmatchpatch 100
▁eccentricities 100
▁falsepositives 100
▁filterdselinxu 100
▁filtergraphics 100
▁generalization 100
▁getsitemapurls 100
▁gladwglgetproc 100
▁gotperspective 100
▁integrityerror 100
▁interpretation 100
▁iptablesipsets 100
▁javadomwrapper 100
▁kerasclassifer 100
▁keylookuperror 100
▁logbookhandler 100
▁minidomwrapper 100
▁mocksentryapiv 100
▁mpttmodeladmin 100
▁platformmodule 100
▁randomwithseed 100
▁referenceframe 100
▁representation 100
▁servicehandler 100
▁settingsdialog 100
▁settranslation 100
▁simpleattrtest 100
▁simpletestcase 100
▁snippetmanager 100
▁tablecontainer 100
▁taregistertool 100
▁testsplitsizes 100
▁timedeltaindex 100
▁uixtreeeviewpy 100
▁versionchecker 100
01:00:00-06:00') 100
291525827756032* 100
5003976500013004 100
abstractconsumer 100
abstracttestcase 100
allownesteddocks 100
allowtabbeddocks 100
aslinearoperator 100
assertisinstance 100
attributedetails 100
autotoolspackage 100
availabilityzone 100
basicconstraints 100
commandvalidator 100
componentbuilder 100
ephemeralmembers 100
extendedkeyusage 100
inputtypechoices 100
keepalivetimeout 100
oppiahtmlescaper 100
processstatedata 100
scalarfromtensor 100
setserviceparent 100
setstretchfactor 100
standardjailicon 100
stringtexmobject 100
toomanyredirects 100
unwrapfirsterror 100
usernamepassword 100
variableexplorer 100
verifykeyrequest 100
▁19:44:43.269987 100
▁450000800410000 100
▁468180418075227 100
▁950411697965901 100
▁addlinkerinputs 100
▁ansiblelintrule 100
▁attributeupdate 100
▁booleanproperty 100
▁bulkdeletequery 100
▁deleterevisions 100
▁detectieversion 100
▁dialogmodelform 100
▁dimensionedplot 100
▁disableosxtcltk 100
▁etreedomwrapper 100
▁forkingbuilding 100
▁frontcontroller 100
▁functionmanager 100
▁gpuincsubtensor 100
▁guestformplugin 100
▁helperfunctions 100
▁hyperparameters 100
▁interfaceaction 100
▁kernelclientabc 100
▁laststatusmixin 100
▁libgirepository 100
▁likelihoodmodel 100
▁linuxparameters 100
▁matchesiterator 100
▁myplexsigninout 100
▁notebookarchive 100
▁pbclientfactory 100
▁photoninstaller 100
▁pickabledataset 100
▁pidfilevalidate 100
▁prefsnumresults 100
▁prettyformatter 100
▁revocationstore 100
▁skipinitialpath 100
▁snowballstemmer 100
▁storageoverride 100
▁subredditbyname 100
▁threadslistview 100
▁unknownbaseunit 100
▁validationerror 100
▁versionresource 100
▁xarrayinterface 100
)(? 100
3}' 100
55+ 100
5:] 100
8>] 100
981 100
\{\ 100
]+" 100
qwi 100
}\} 100
"((? 100
#160 100
*$// 100
+"'" 100
-11- 100
-{}- 100
1,3} 100
2.61 100
28+0 100
3}\. 100
4116 100
4237 100
5495 100
59:3 100
6547 100
681* 100
8647 100
920, 100
9477 100
9770 100
9822 100
:'\" 100
<2'] 100
@%/; 100
[311 100
_350 100
aiso 100
ccca 100
gacc 100
gcca 100
jupy 100
kudb 100
pyjn 100
suhi 100
udia 100
ulia 100
|(\\ 100
}/>} 100
▁(#3 100
▁2>& 100
▁hyb 100
▁nyu 100
%/; 100
15/ 100
958 100
']+) 100
2-07 100
2.2' 100
22.0 100
2293 100
4.2' 100
4795 100
6911 100
6959 100
8569 100
9795 100
\1</ 100
]([^ 100
▁qem 100
▁wik 100
#@%/; 100
'0525 100
-11-1 100
-1998 100
-2001 100
-3500 100
-9])/ 100
.*$/, 100
.+?): 100
//)|( 100
/\&#3 100
0-9]< 100
0.2.0 100
000:1 100
01330 100
08/19 100
08/28 100
0:1}" 100
1.0.4 100
100", 100
10590 100
1:-1] 100
2,23, 100
225]) 100
225][ 100
23,24 100
24.0/ 100
25827 100
26149 100
29390 100
31136 100
34650 100
40001 100
402): 100
41005 100
44537 100
475]( 100
49103 100
54796 100
55>-1 100
57757 100
6.4.2 100
64311 100
64317 100
68160 100
68747 100
7\.3" 100
83699 100
86744 100
87268 100
88105 100
92(): 100
97021 100
97024 100
97089 100
97160 100
97762 100
99998 100
:00') 100
:59:5 100
;/'/; 100
==4.2 100
?.*$/ 100
][311 100
accid 100
acuum 100
diajs 100
ellig 100
enied 100
entoo 100
feqbh 100
ggagg 100
human 100
ittle 100
meral 100
moidf 100
mprod 100
ndkmu 100
olves 100
pytib 100
qwiks 100
rapyd 100
&.* 100
'\" 100
/07 100
777 100
8,< 100
hhh 100
'''[ 100
1274 100
13.2 100
3.3" 100
4.77 100
6085 100
7,8] 100
7717 100
7777 100
93]( 100
93]) 100
erjo 100
mjpe 100
oseg 100
▁$1} 100
▁2)> 100
▁307 100
▁odd 100
&.*$/ 100
'''([ 100
0.21, 100
203.2 100
27,36 100
28811 100
4.3.2 100
9-200 100
arseg 100
edglm 100
genta 100
ildre 100
olyax 100
opups 100
rands 100
recei 100
reedo 100
rossb 100
rozen 100
[...]
