<unk>	0
<s>	0
</s>	0
<pad>	0
<file>	0
<chunk>	0
<nl>	0
<add>	0
<del>	0
<url>	0
<num>	0
<ref>	0
<sha>	0
in	-0
er	-1
on	-2
re	-3
se	-4
or	-5
st	-6
at	-7
▁t	-8
▁c	-9
en	-10
▁a	-11
de	-12
▁f	-13
▁i	-14
le	-15
▁=	-16
al	-17
ar	-18
ro	-19
▁p	-20
ion	-21
it	-22
an	-23
me	-24
▁s	-25
he	-26
ct	-27
ss	-28
mp	-29
ge	-30
▁n	-31
lo	-32
la	-33
▁re	-34
ut	-35
lf	-36
ing	-37
self	-38
):	-39
▁'	-40
ce	-41
li	-42
ur	-43
▁in	-44
▁d	-45
▁b	-46
ort	-47
▁de	-48
▁o	-49
ent	-50
un	-51
--	-52
▁m	-53
ck	-54
ed	-55
ex	-56
▁"	-57
▁the	-58
ra	-59
▁w	-60
co	-61
il	-62
py	-63
est	-64
id	-65
ame	-66
ad	-67
ate	-68
▁def	-69
mport	-70
▁#	-71
ot	-72
▁self	-73
di	-74
pt	-75
pe	-76
▁import	-77
fi	-78
con	-79
▁to	-80
ch	-81
rom	-82
ri	-83
▁v	-84
▁(	-85
',	-86
▁if	-87
ul	-88
is	-89
▁an	-90
lass	-91
▁from	-92
ke	-93
ers	-94
()	-95
th	-96
get	-97
▁for	-98
up	-99
set	-100
▁e	-101
age	-102
▁-	-103
ata	-104
▁h	-105
▁class	-106
as	-107
▁st	-108
ect	-109
us	-110
mo	-111
um	-112
ation	-113
ue	-114
▁co	-115
__	-116
▁{	-117
ble	-118
lin	-119
▁th	-120
▁and	-121
="	-122
ve	-123
one	-124
▁con	-125
name	-126
qu	-127
do	-128
▁is	-129
urn	-130
('	-131
▁<	-132
turn	-133
')	-134
ter	-135
log	-136
▁[	-137
▁g	-138
▁fi	-139
----	-140
▁return	-141
ma	-142
ult	-143
▁test	-144
▁of	-145
to	-146
es	-147
ext	-148
ta	-149
ase	-150
all	-151
▁1	-152
▁`	-153
end	-154
tr	-155
el	-156
sp	-157
ath	-158
▁*	-159
ack	-160
ol	-161
))	-162
00	-163
ver	-164
==	-165
gs	-166
ype	-167
vi	-168
ith	-169
and	-170
ption	-171
ig	-172
int	-173
ction	-174
",	-175
for	-176
▁}	-177
ew	-178
▁ex	-179
bo	-180
data	-181
sh	-182
art	-183
key	-184
iz	-185
err	-186
▁li	-187
ip	-188
▁r	-189
ject	-190
ub	-191
':	-192
']	-193
▁not	-194
ser	-195
pp	-196
▁ad	-197
("	-198
et	-199
der	-200
pro	-201
out	-202
▁mo	-203
▁py	-204
▁==	-205
error	-206
ht	-207
am	-208
▁+	-209
form	-210
▁do	-211
ersion	-212
▁|	-213
ment	-214
▁.	-215
so	-216
▁%	-217
ert	-218
che	-219
['	-220
▁se	-221
ho	-222
po	-223
lay	-224
put	-225
if	-226
able	-227
ist	-228
▁ma	-229
▁_	-230
0.	-231
test	-232
du	-233
ob	-234
mm	-235
▁x	-236
▁or	-237
),	-238
im	-239
▁tr	-240
▁u	-241
▁me	-242
ass	-243
fig	-244
ime	-245
line	-246
▁name	-247
ange	-248
▁un	-249
port	-250
type	-251
▁pro	-252
les	-253
▁add	-254
path	-255
▁this	-256
sc	-257
▁2	-258
thon	-259
ces	-260
ure	-261
url	-262
▁l	-263
▁y	-264
str	-265
._	-266
▁as	-267
▁none	-268
val	-269
args	-270
ep	-271
op	-272
▁with	-273
ug	-274
▁be	-275
ic	-276
no	-277
▁/	-278
user	-279
add	-280
▁set	-281
▁data	-282
▁ch	-283
▁on	-284
fa	-285
date	-286
ll	-287
ity	-288
</	-289
ly	-290
ize	-291
low	-292
")	-293
load	-294
--------	-295
tri	-296
alse	-297
text	-298
ds	-299
fo	-300
ger	-301
▁""	-302
ml	-303
▁get	-304
▁0	-305
lic	-306
▁log	-307
ard	-308
te	-309
▁inst	-310
▁so	-311
del	-312
ite	-313
but	-314
pre	-315
▁--	-316
▁ass	-317
ang	-318
ust	-319
▁at	-320
▁wh	-321
loc	-322
unt	-323
wor	-324
sult	-325
ff	-326
ant	-327
ils	-328
▁"""	-329
▁__	-330
],	-331
nt	-332
▁che	-333
mmand	-334
mple	-335
ms	-336
ans	-337
▁ar	-338
▁val	-339
js	-340
sour	-341
▁sy	-342
ance	-343
▁fix	-344
object	-345
da	-346
▁:	-347
ire	-348
per	-349
row	-350
▁no	-351
▁yo	-352
version	-353
ctor	-354
tra	-355
ript	-356
▁that	-357
▁assert	-358
▁el	-359
fil	-360
▁we	-361
inst	-362
config	-363
od	-364
▁en	-365
file	-366
list	-367
▁check	-368
ns	-369
▁up	-370
app	-371
back	-372
time	-373
base	-374
ument	-375
▁else	-376
▁$	-377
():	-378
ash	-379
ive	-380
▁it	-381
code	-382
▁new	-383
▁use	-384
wn	-385
rint	-386
true	-387
ok	-388
▁>	-389
ign	-390
ind	-391
ise	-392
**	-393
ir	-394
pa	-395
▁..	-396
none	-397
">	-398
])	-399
cre	-400
dule	-401
▁str	-402
quest	-403
uil	-404
iv	-405
lib	-406
▁file	-407
atch	-408
om	-409
cur	-410
div	-411
init	-412
link	-413
▁\	-414
ary	-415
nect	-416
read	-417
ssage	-418
dir	-419
ies	-420
wid	-421
ator	-422
▁list	-423
ptions	-424
gra	-425
ault	-426
start	-427
▁default	-428
);	-429
ca	-430
ated	-431
min	-432
▁version	-433
cess	-434
vent	-435
[0	-436
doc	-437
▁``	-438
▁by	-439
lock	-440
size	-441
pi	-442
▁q	-443
par	-444
ging	-445
json	-446
ning	-447
rent	-448
ari	-449
col	-450
▁tra	-451
pen	-452
vice	-453
python	-454
cl	-455
▁3	-456
▁os	-457
▁run	-458
model	-459
string	-460
).	-461
='	-462
====	-463
01	-464
1.	-465
ial	-466
cont	-467
unction	-468
0,	-469
ph	-470
▁j	-471
ded	-472
lit	-473
▁fa	-474
info	-475
view	-476
▁pre	-477
▁python	-478
sa	-479
▁al	-480
▁print	-481
▁value	-482
mb	-483
led	-484
arch	-485
comp	-486
state	-487
tribut	-488
dex	-489
ens	-490
▁ob	-491
▁ra	-492
▁false	-493
▁result	-494
db	-495
ify	-496
red	-497
use	-498
▁sc	-499
ill	-500
sub	-501
▁ho	-502
format	-503
▁install	-504
":	-505
::	-506
](	-507
arg	-508
▁**	-509
▁im	-510
▁open	-511
▁path	-512
``	-513
mat	-514
▁bo	-515
with	-516
mi	-517
fer	-518
run	-519
vis	-520
▁key	-521
ssion	-522
▁comp	-523
layout	-524
upport	-525
▁config	-526
##	-527
].	-528
pla	-529
rst	-530
▁</	-531
thod	-532
▁doc	-533
▁exce	-534
ab	-535
ask	-536
ker	-537
board	-538
2.	-539
nel	-540
▁ser	-541
class	-542
▁true	-543
ackage	-544
md	-545
ps	-546
xt	-547
▁@	-548
ute	-549
edit	-550
html	-551
main	-552
▁are	-553
count	-554
filter	-555
ber	-556
eed	-557
ght	-558
ner	-559
case	-560
ting	-561
false	-562
▁error	-563
▁image	-564
><	-565
qt	-566
lab	-567
und	-568
▁ht	-569
cket	-570
▁cre	-571
▁url	-572
▁you	-573
source	-574
ac	-575
ere	-576
ifi	-577
uth	-578
roid	-579
value	-580
command	-581
▁change	-582
av	-583
os	-584
sy	-585
ws	-586
hel	-587
▁le	-588
▁end	-589
▁out	-590
quire	-591
eld	-592
ong	-593
stat	-594
▁can	-595
▁len	-596
▁sub	-597
input	-598
utils	-599
▁make	-600
▁type	-601
ark	-602
ors	-603
roup	-604
▁par	-605
connect	-606
1,	-607
we	-608
ery	-609
cker	-610
rect	-611
import	-612
▁raise	-613
cen	-614
ols	-615
ory	-616
win	-617
ango	-618
▁dis	-619
▁ent	-620
▁user	-621
▁android	-622
lat	-623
reg	-624
host	-625
lect	-626
check	-627
ition	-628
jango	-629
lient	-630
gr	-631
kw	-632
from	-633
▁int	-634
▁cont	-635
ron	-636
▁%}	-637
attr	-638
pect	-639
root	-640
▁read	-641
script	-642
num	-643
▁pa	-644
▁sh	-645
uild	-646
word	-647
▁sho	-648
place	-649
▁option	-650
fe	-651
▁)	-652
uld	-653
▁arg	-654
▁col	-655
▁base	-656
----------------	-657
3.	-658
ave	-659
def	-660
ins	-661
iter	-662
▁message	-663
act	-664
lug	-665
work	-666
▁cal	-667
arning	-668
module	-669
▁command	-670
ai	-671
ry	-672
000	-673
mpy	-674
pos	-675
ray	-676
sha	-677
dict	-678
qual	-679
▁app	-680
split	-681
widget	-682
-1	-683
▁us	-684
head	-685
iner	-686
move	-687
ments	-688
▁time	-689
action	-690
▁update	-691
tp	-692
fix	-693
0000	-694
fault	-695
ignal	-696
lable	-697
local	-698
▁function	-699
27	-700
▁4	-701
mpl	-702
not	-703
ible	-704
trans	-705
kwargs	-706
default	-707
ashboard	-708
"]	-709
ux	-710
__(	-711
dim	-712
the	-713
txt	-714
▁id	-715
▁po	-716
▁}}	-717
ener	-718
loat	-719
▁fil	-720
▁per	-721
files	-722
ustom	-723
rowser	-724
server	-725
assword	-726
ql	-727
▁!	-728
cho	-729
len	-730
mit	-731
ref	-732
exce	-733
spon	-734
▁lib	-735
▁when	-736
sources	-737
cd	-738
my	-739
wa	-740
())	-741
dis	-742
fra	-743
ore	-744
▁vi	-745
play	-746
tern	-747
equal	-748
▁start	-749
10	-750
ft	-751
px	-752
env	-753
res	-754
▁>>	-755
node	-756
▁pip	-757
output	-758
content	-759
▁create	-760
clu	-761
ine	-762
▁try	-763
label	-764
result	-765
search	-766
install	-767
request	-768
▁object	-769
64	-770
man	-771
▁te	-772
ager	-773
ight	-774
itle	-775
nder	-776
onent	-777
▁text	-778
▁django	-779
▁method	-780
\\	-781
io	-782
ui	-783
gth	-784
zer	-785
sens	-786
▁all	-787
abled	-788
▁will	-789
▁trans	-790
tribute	-791
▁string	-792
[1	-793
ng	-794
{{	-795
~~	-796
▁qu	-797
▁your	-798
ations	-799
▁require	-800
25	-801
og	-802
{}	-803
pend	-804
ress	-805
lease	-806
▁main	-807
assert	-808
sponse	-809
▁tests	-810
▁support	-811
ag	-812
bin	-813
cor	-814
she	-815
ull	-816
help	-817
ream	-818
annel	-819
array	-820
ctory	-821
image	-822
table	-823
▁request	-824
([	-825
ler	-826
sum	-827
▁+=	-828
▁la	-829
ence	-830
mark	-831
scri	-832
▁ext	-833
▁has	-834
▁wor	-835
ector	-836
ename	-837
group	-838
shape	-839
valid	-840
▁float	-841
▁argument	-842
""	-843
by	-844
nd	-845
ne	-846
ift	-847
pec	-848
sed	-849
▁ab	-850
conf	-851
mail	-852
orage	-853
▁have	-854
status	-855
[0]	-856
lot	-857
mod	-858
▁//	-859
mode	-860
roll	-861
ster	-862
ffset	-863
order	-864
▁code	-865
create	-866
mplate	-867
dataset	-868
instance	-869
bu	-870
▁]	-871
new	-872
pto	-873
▁('	-874
▁cl	-875
▁su	-876
▁sys	-877
block	-878
frame	-879
shift	-880
▁back	-881
models	-882
▁licen	-883
▁order	-884
browser	-885
ization	-886
${	-887
ec	-888
xy	-889
'):	-890
down	-891
▁...	-892
▁act	-893
tings	-894
ailable	-895
▁except	-896
.0	-897
nc	-898
"""	-899
umn	-900
▁''	-901
▁np	-902
comm	-903
tric	-904
linux	-905
lugin	-906
========	-907
▁context	-908
amp	-909
box	-910
dow	-911
mix	-912
oin	-913
pip	-914
spa	-915
▁!=	-916
▁1,	-917
▁av	-918
▁di	-919
ally	-920
auth	-921
elds	-922
ther	-923
▁web	-924
ining	-925
▁need	-926
change	-927
direct	-928
▁model	-929
message	-930
▁output	-931
▁document	-932
▁optional	-933
ty	-934
'])	-935
dev	-936
map	-937
rap	-938
ton	-939
web	-940
cent	-941
▁any	-942
▁see	-943
conda	-944
login	-945
right	-946
store	-947
▁work	-948
ension	-949
offset	-950
▁input	-951
ariable	-952
▁license	-953
component	-954
..	-955
dp	-956
of	-957
'))	-958
></	-959
bot	-960
ich	-961
leg	-962
oid	-963
orm	-964
unc	-965
▁sp	-966
▁{%	-967
core	-968
prop	-969
argin	-970
point	-971
▁stat	-972
▁setup	-973
lication	-974
▁package	-975
▁project	-976
scription	-977
24	-978
ap	-979
▁k	-980
().	-981
dom	-982
rix	-983
vel	-984
▁{{	-985
rapp	-986
step	-987
▁>>>	-988
▁cur	-989
▁fla	-990
admin	-991
param	-992
▁args	-993
▁hand	-994
▁like	-995
ersist	-996
scripts	-997
▁logger	-998
testcase	-999
▁dashboard	-1000
▁openshift	-1001
++	-1002
//	-1003
86	-1004
=1	-1005
exp	-1006
let	-1007
▁([	-1008
▁lo	-1009
▁si	-1010
==0.	-1011
angu	-1012
apps	-1013
mbda	-1014
open	-1015
unit	-1016
▁bot	-1017
▁dif	-1018
▁mod	-1019
icode	-1020
width	-1021
▁echo	-1022
▁line	-1023
▁only	-1024
▁index	-1025
anguage	-1026
logging	-1027
replace	-1028
50	-1029
▁&	-1030
img	-1031
pri	-1032
ran	-1033
try	-1034
var	-1035
cond	-1036
rite	-1037
sche	-1038
ssue	-1039
clude	-1040
conta	-1041
ribut	-1042
tails	-1043
▁copy	-1044
▁into	-1045
▁over	-1046
▁pass	-1047
▁step	-1048
client	-1049
update	-1050
▁build	-1051
▁inter	-1052
manager	-1053
package	-1054
▁server	-1055
▁should	-1056
ak	-1057
cp	-1058
oc	-1059
ud	-1060
}}	-1061
'),	-1062
.__	-1063
bug	-1064
ken	-1065
lif	-1066
png	-1067
ste	-1068
▁['	-1069
▁cf	-1070
▁{}	-1071
task	-1072
ature	-1073
index	-1074
▁dist	-1075
▁http	-1076
▁note	-1077
▁oper	-1078
height	-1079
▁other	-1080
section	-1081
▁module	-1082
▁logging	-1083
-0	-1084
be	-1085
sk	-1086
ail	-1087
clo	-1088
enc	-1089
▁ac	-1090
curs	-1091
ific	-1092
iled	-1093
join	-1094
orig	-1095
rary	-1096
tags	-1097
▁mat	-1098
▁min	-1099
▁net	-1100
▁num	-1101
event	-1102
query	-1103
▁json	-1104
▁const	-1105
▁using	-1106
▁valid	-1107
service	-1108
session	-1109
password	-1110
resources	-1111
▁attribute	-1112
▁isinstance	-1113
((	-1114
`.	-1115
(),	-1116
lex	-1117
mot	-1118
▁0.	-1119
disp	-1120
util	-1121
▁fol	-1122
▁res	-1123
▁elif	-1124
▁init	-1125
▁link	-1126
▁some	-1127
▁then	-1128
append	-1129
expect	-1130
roller	-1131
▁block	-1132
channel	-1133
▁custom	-1134
▁readme	-1135
▁remove	-1136
▁script	-1137
▁signal	-1138
▁connect	-1139
23	-1140
bl	-1141
ib	-1142
▁5	-1143
api	-1144
ont	-1145
rep	-1146
ual	-1147
uid	-1148
yml	-1149
▁##	-1150
▁[]	-1151
▁ol	-1152
####	-1153
call	-1154
page	-1155
▁man	-1156
items	-1157
length	-1158
metric	-1159
select	-1160
stream	-1161
▁added	-1162
▁files	-1163
function	-1164
▁instance	-1165
1)	-1166
:`	-1167
gl	-1168
ru	-1169
ys	-1170
");	-1171
net	-1172
ses	-1173
▁ro	-1174
ches	-1175
dist	-1176
edge	-1177
find	-1178
lean	-1179
▁now	-1180
▁var	-1181
ample	-1182
arget	-1183
▁auth	-1184
▁call	-1185
▁find	-1186
▁spec	-1187
▁unit	-1188
▁event	-1189
▁state	-1190
▁where	-1191
'.	-1192
8.	-1193
["	-1194
`_	-1195
eg	-1196
fs	-1197
td	-1198
bar	-1199
keh	-1200
lob	-1201
org	-1202
tom	-1203
uri	-1204
ush	-1205
▁wa	-1206
duct	-1207
lete	-1208
vert	-1209
viron	-1210
▁date	-1211
▁dire	-1212
▁load	-1213
▁more	-1214
▁sort	-1215
number	-1216
prefix	-1217
options	-1218
▁client	-1219
▁options	-1220
components	-1221
32	-1222
4.	-1223
97	-1224
pk	-1225
"))	-1226
0.1	-1227
ain	-1228
cli	-1229
nip	-1230
pub	-1231
tad	-1232
▁ca	-1233
▁fo	-1234
ding	-1235
post	-1236
umpy	-1237
uple	-1238
field	-1239
ility	-1240
ivity	-1241
round	-1242
uture	-1243
▁used	-1244
runner	-1245
tadata	-1246
values	-1247
latform	-1248
lection	-1249
▁follow	-1250
▁socket	-1251
location	-1252
settings	-1253
▁checksection	-1254
({	-1255
11	-1256
47	-1257
cu	-1258
ts	-1259
{%	-1260
86_	-1261
ode	-1262
ree	-1263
▁${	-1264
▁("	-1265
▁0,	-1266
▁sk	-1267
▁{'	-1268
book	-1269
oper	-1270
ters	-1271
▁reg	-1272
▁ver	-1273
cover	-1274
dules	-1275
gener	-1276
inter	-1277
layer	-1278
names	-1279
tools	-1280
▁dict	-1281
▁href	-1282
window	-1283
▁allow	-1284
▁depend	-1285
▁differ	-1286
▁format	-1287
▁include	-1288
▁process	-1289
▁unicode	-1290
▁documentation	-1291
dl	-1292
asc	-1293
den	-1294
ous	-1295
ync	-1296
cope	-1297
ffer	-1298
less	-1299
nore	-1300
stru	-1301
uble	-1302
upto	-1303
velo	-1304
▁old	-1305
▁pub	-1306
▁win	-1307
build	-1308
ilure	-1309
tests	-1310
▁edit	-1311
▁host	-1312
▁bokeh	-1313
▁gener	-1314
▁title	-1315
▁which	-1316
uptools	-1317
▁entity	-1318
▁export	-1319
▁filter	-1320
99	-1321
cc	-1322
}/	-1323
'],	-1324
aug	-1325
mbo	-1326
tab	-1327
ume	-1328
uto	-1329
yle	-1330
func	-1331
hand	-1332
hash	-1333
hint	-1334
izer	-1335
push	-1336
▁201	-1337
▁bin	-1338
▁pat	-1339
▁ran	-1340
light	-1341
range	-1342
▁does	-1343
▁size	-1344
legend	-1345
mbolic	-1346
method	-1347
context	-1348
current	-1349
modules	-1350
process	-1351
project	-1352
warning	-1353
▁action	-1354
▁fields	-1355
exception	-1356
▁response	-1357
exceptions	-1358
2,	-1359
5,	-1360
60	-1361
ax	-1362
lt	-1363
dif	-1364
git	-1365
gui	-1366
▁db	-1367
▁pi	-1368
ider	-1369
ined	-1370
plot	-1371
rate	-1372
span	-1373
temp	-1374
umns	-1375
▁api	-1376
▁but	-1377
▁clo	-1378
▁cmd	-1379
const	-1380
mixin	-1381
yment	-1382
▁part	-1383
▁port	-1384
▁sour	-1385
▁task	-1386
▁view	-1387
matrix	-1388
option	-1389
rapper	-1390
region	-1391
▁fixed	-1392
▁issue	-1393
imports	-1394
sensors	-1395
▁current	-1396
▁storage	-1397
connection	-1398
▁following	-1399
description	-1400
tz	-1401
wh	-1402
ell	-1403
rop	-1404
sql	-1405
▁bu	-1406
▁ta	-1407
buil	-1408
dial	-1409
gram	-1410
last	-1411
left	-1412
logs	-1413
reen	-1414
rout	-1415
stro	-1416
▁lin	-1417
▁one	-1418
▁sin	-1419
print	-1420
proxy	-1421
▁html	-1422
▁mult	-1423
▁same	-1424
column	-1425
common	-1426
render	-1427
signal	-1428
▁local	-1429
actions	-1430
uration	-1431
▁docker	-1432
▁number	-1433
ariables	-1434
filename	-1435
resource	-1436
controller	-1437
5.	-1438
6,	-1439
^^	-1440
pg	-1441
}"	-1442
},	-1443
her	-1444
job	-1445
max	-1446
obj	-1447
ods	-1448
tmp	-1449
▁["	-1450
▁go	-1451
▁ip	-1452
▁},	-1453
."""	-1454
bind	-1455
keep	-1456
▁'__	-1457
▁she	-1458
▁}}"	-1459
debug	-1460
graph	-1461
ities	-1462
level	-1463
otify	-1464
space	-1465
sumer	-1466
track	-1467
velop	-1468
write	-1469
▁attr	-1470
▁cdef	-1471
▁form	-1472
▁home	-1473
▁mode	-1474
entity	-1475
kernel	-1476
travis	-1477
▁field	-1478
ascript	-1479
▁contin	-1480
▁lambda	-1481
▁status	-1482
▁newline	-1483
▁release	-1484
▁arguments	-1485
▁available	-1486
(*	-1487
(_	-1488
/\	-1489
80	-1490
ie	-1491
su	-1492
__.	-1493
als	-1494
eps	-1495
geo	-1496
mon	-1497
que	-1498
tes	-1499
▁"/	-1500
▁ng	-1501
[0].	-1502
alar	-1503
docs	-1504
fore	-1505
icon	-1506
ings	-1507
item	-1508
mote	-1509
ract	-1510
sert	-1511
tpre	-1512
valu	-1513
~~~~	-1514
▁'''	-1515
▁bit	-1516
▁sql	-1517
▁tox	-1518
grade	-1519
ister	-1520
stack	-1521
token	-1522
▁help	-1523
▁pyqt	-1524
comple	-1525
custom	-1526
device	-1527
docker	-1528
entifi	-1529
plugin	-1530
▁group	-1531
▁table	-1532
support	-1533
▁expect	-1534
▁random	-1535
▁vector	-1536
▁content	-1537
▁display	-1538
container	-1539
▁activity	-1540
------------	-1541
*)	-1542
9.	-1543
=[	-1544
={	-1545
ls	-1546
**2	-1547
://	-1548
>`_	-1549
bit	-1550
com	-1551
inx	-1552
rip	-1553
▁10	-1554
▁2,	-1555
dims	-1556
face	-1557
liho	-1558
lish	-1559
sent	-1560
tool	-1561
ummy	-1562
used	-1563
▁abo	-1564
▁ans	-1565
▁aws	-1566
▁env	-1567
▁exp	-1568
▁git	-1569
▁imp	-1570
▁wal	-1571
allow	-1572
ative	-1573
parse	-1574
pyder	-1575
▁feed	-1576
▁flow	-1577
▁page	-1578
helper	-1579
master	-1580
sensor	-1581
socket	-1582
vector	-1583
▁range	-1584
▁under	-1585
propert	-1586
▁comple	-1587
▁source	-1588
00000000	-1589
template	-1590
tributes	-1591
▁persist	-1592
▁without	-1593
anization	-1594
▁continue	-1595
▁required	-1596
▁distribut	-1597
/*	-1598
34	-1599
35	-1600
49	-1601
bm	-1602
rc	-1603
▁z	-1604
...	-1605
.0.	-1606
ami	-1607
are	-1608
enu	-1609
gas	-1610
ile	-1611
jpg	-1612
nap	-1613
ved	-1614
wit	-1615
▁-1	-1616
▁->	-1617
▁fe	-1618
▁ig	-1619
▁mi	-1620
▁ne	-1621
dows	-1622
inte	-1623
ites	-1624
stop	-1625
ware	-1626
▁bas	-1627
▁cho	-1628
▁cli	-1629
▁lat	-1630
▁pla	-1631
match	-1632
older	-1633
title	-1634
unter	-1635
uster	-1636
▁mock	-1637
cursor	-1638
dialog	-1639
future	-1640
remove	-1641
▁defer	-1642
details	-1643
environ	-1644
handler	-1645
objects	-1646
require	-1647
timeout	-1648
▁search	-1649
▁spyder	-1650
callback	-1651
mplement	-1652
▁dataset	-1653
ification	-1654
▁template	-1655
)]	-1656
12	-1657
33	-1658
>=	-1659
yp	-1660
="$	-1661
mpt	-1662
pol	-1663
raw	-1664
sho	-1665
spe	-1666
ssl	-1667
tag	-1668
unk	-1669
utf	-1670
▁"$	-1671
▁&&	-1672
▁1.	-1673
flow	-1674
grid	-1675
home	-1676
ical	-1677
lave	-1678
menu	-1679
rule	-1680
this	-1681
zero	-1682
alled	-1683
dummy	-1684
ingle	-1685
ithub	-1686
mount	-1687
ranch	-1688
swith	-1689
uning	-1690
▁char	-1691
▁must	-1692
▁sudo	-1693
▁void	-1694
arange	-1695
ariant	-1696
cename	-1697
▁conta	-1698
▁dtype	-1699
▁sympy	-1700
storage	-1701
widgets	-1702
▁margin	-1703
▁public	-1704
▁pytest	-1705
▁verify	-1706
▁example	-1707
▁network	-1708
▁payment	-1709
▁perform	-1710
▁results	-1711
▁service	-1712
avascript	-1713
▁expected	-1714
▁exception	-1715
#4	-1716
0)	-1717
:%	-1718
cv	-1719
gn	-1720
ja	-1721
si	-1722
sv	-1723
tn	-1724
▁8	-1725
').	-1726
();	-1727
[-1	-1728
ach	-1729
cha	-1730
dit	-1731
mac	-1732
war	-1733
▁xp	-1734
▁||	-1735
cart	-1736
diff	-1737
ency	-1738
inal	-1739
long	-1740
loss	-1741
make	-1742
mpeg	-1743
pack	-1744
pool	-1745
ride	-1746
rows	-1747
safe	-1748
sign	-1749
stem	-1750
zone	-1751
▁bug	-1752
▁cls	-1753
▁cor	-1754
▁tag	-1755
▁vol	-1756
ating	-1757
cache	-1758
chart	-1759
ormal	-1760
rappe	-1761
▁case	-1762
▁down	-1763
▁glob	-1764
▁head	-1765
▁iter	-1766
▁sche	-1767
▁todo	-1768
▁wait	-1769
amples	-1770
button	-1771
istant	-1772
margin	-1773
▁async	-1774
▁first	-1775
▁flask	-1776
▁limit	-1777
library	-1778
▁frappe	-1779
language	-1780
training	-1781
unittest	-1782
▁address	-1783
▁ansible	-1784
▁testing	-1785
available	-1786
dashboard	-1787
keyprefix	-1788
▁password	-1789
-------------	-1790
87	-1791
pc	-1792
rl	-1793
rt	-1794
tc	-1795
"],	-1796
]['	-1797
acy	-1798
ead	-1799
ids	-1800
ipy	-1801
kit	-1802
lev	-1803
rit	-1804
sma	-1805
tot	-1806
▁dt	-1807
▁ss	-1808
▁tw	-1809
fter	-1810
loop	-1811
oser	-1812
save	-1813
ward	-1814
▁cfg	-1815
▁eng	-1816
▁max	-1817
27.0.	-1818
ccess	-1819
conds	-1820
ensor	-1821
idden	-1822
sheet	-1823
thing	-1824
vious	-1825
▁buil	-1826
▁conf	-1827
▁edge	-1828
▁hist	-1829
▁jail	-1830
▁keep	-1831
▁meta	-1832
▁show	-1833
reddit	-1834
ternal	-1835
▁parse	-1836
▁redis	-1837
address	-1838
ptuning	-1839
spotify	-1840
▁called	-1841
▁length	-1842
▁select	-1843
▁values	-1844
27.0.0.1	-1845
download	-1846
entifier	-1847
▁develop	-1848
▁warning	-1849
assistant	-1850
condition	-1851
▁language	-1852
▁spyderlib	-1853
================	-1854
,*	-1855
28	-1856
[:	-1857
ci	-1858
ks	-1859
'].	-1860
../	-1861
1.2	-1862
201	-1863
has	-1864
ics	-1865
old	-1866
ony	-1867
pid	-1868
▁3.	-1869
▁ag	-1870
▁ff	-1871
▁ms	-1872
ests	-1873
exec	-1874
http	-1875
keys	-1876
lear	-1877
site	-1878
tect	-1879
▁"{{	-1880
▁```	-1881
▁abs	-1882
▁bad	-1883
▁let	-1884
▁mar	-1885
▁may	-1886
▁pri	-1887
▁spa	-1888
▁sup	-1889
▁ter	-1890
nippe	-1891
types	-1892
vider	-1893
▁comm	-1894
▁exit	-1895
▁here	-1896
▁long	-1897
▁mark	-1898
▁prop	-1899
atures	-1900
insert	-1901
target	-1902
▁batch	-1903
▁count	-1904
▁found	-1905
▁named	-1906
▁param	-1907
▁provi	-1908
columns	-1909
enabled	-1910
wrapper	-1911
▁binary	-1912
▁column	-1913
▁master	-1914
▁parser	-1915
argument	-1916
consumer	-1917
datetime	-1918
onelogin	-1919
username	-1920
▁changed	-1921
▁cmdargs	-1922
▁correct	-1923
▁counter	-1924
▁pattern	-1925
supported	-1926
▁filename	-1927
▁likeliho	-1928
▁metadata	-1929
▁requests	-1930
setuptools	-1931
▁directory	-1932
application	-1933
▁collection	-1934
▁connection	-1935
▁dockerfile	-1936
▁valueerror	-1937
▁requirements	-1938
".	-1939
/(	-1940
40	-1941
=$	-1942
gi	-1943
ha	-1944
lu	-1945
(0,	-1946
)))	-1947
00,	-1948
="@	-1949
ale	-1950
ars	-1951
non	-1952
nor	-1953
ops	-1954
pkg	-1955
sli	-1956
sys	-1957
▁"\	-1958
▁'.	-1959
▁ph	-1960
▁qt	-1961
']['	-1962
==1.	-1963
cook	-1964
cret	-1965
ctrl	-1966
dire	-1967
dout	-1968
enco	-1969
fire	-1970
ices	-1971
ield	-1972
ling	-1973
mult	-1974
pose	-1975
sequ	-1976
tion	-1977
ured	-1978
▁apt	-1979
▁bre	-1980
▁com	-1981
▁dim	-1982
▁ioc	-1983
▁msg	-1984
▁upd	-1985
▁wid	-1986
actor	-1987
color	-1988
ctype	-1989
erals	-1990
estim	-1991
iator	-1992
limit	-1993
links	-1994
rypto	-1995
shell	-1996
style	-1997
thods	-1998
users	-1999
▁docs	-2000
▁pack	-2001
▁sens	-2002
▁site	-2003
▁skip	-2004
equals	-2005
failed	-2006
inline	-2007
params	-2008
prompt	-2009
tation	-2010
termin	-2011
thread	-2012
vision	-2013
▁numpy	-2014
▁scope	-2015
▁train	-2016
▁utils	-2017
changed	-2018
ensions	-2019
ference	-2020
helpers	-2021
persist	-2022
pexpect	-2023
seconds	-2024
▁double	-2025
▁report	-2026
▁travis	-2027
▁upload	-2028
literals	-2029
operator	-2030
response	-2031
▁returns	-2032
▁customer	-2033
▁location	-2034
startswith	-2035
(1	-2036
-8	-2037
-9	-2038
17	-2039
20	-2040
59	-2041
]:	-2042
dy	-2043
zz	-2044
*,*	-2045
:\\	-2046
agr	-2047
any	-2048
bab	-2049
etc	-2050
fla	-2051
igh	-2052
sen	-2053
sig	-2054
xml	-2055
▁>=	-2056
▁ec	-2057
")),	-2058
==2.	-2059
amer	-2060
desc	-2061
expr	-2062
iven	-2063
okup	-2064
pair	-2065
reat	-2066
stor	-2067
trib	-2068
unds	-2069
vers	-2070
▁ele	-2071
▁how	-2072
▁vis	-2073
alive	-2074
bject	-2075
email	-2076
enter	-2077
pache	-2078
relev	-2079
shard	-2080
spath	-2081
theme	-2082
tocol	-2083
zeros	-2084
▁addr	-2085
▁also	-2086
▁exec	-2087
▁font	-2088
▁play	-2089
▁post	-2090
▁sequ	-2091
adding	-2092
agrant	-2093
andard	-2094
bottom	-2095
define	-2096
header	-2097
lation	-2098
return	-2099
schema	-2100
stract	-2101
tzinfo	-2102
▁linux	-2103
▁shell	-2104
▁tuple	-2105
account	-2106
builder	-2107
factory	-2108
mission	-2109
product	-2110
reenode	-2111
valuate	-2112
▁failed	-2113
▁multip	-2114
▁params	-2115
▁plugin	-2116
▁simple	-2117
▁stream	-2118
########	-2119
▁changes	-2120
▁details	-2121
▁failure	-2122
▁general	-2123
▁ipython	-2124
▁library	-2125
▁product	-2126
▁working	-2127
▁datetime	-2128
▁platform	-2129
▁127.0.0.1	-2130
'}	-2131
18	-2132
2)	-2133
29	-2134
3*	-2135
3,	-2136
aw	-2137
df	-2138
fp	-2139
go	-2140
ze	-2141
)),	-2142
.')	-2143
:`~	-2144
boo	-2145
bro	-2146
ful	-2147
ian	-2148
now	-2149
opt	-2150
req	-2151
rid	-2152
sam	-2153
std	-2154
top	-2155
}}`	-2156
▁".	-2157
▁(`	-2158
▁0)	-2159
blur	-2160
bust	-2161
copy	-2162
erge	-2163
ized	-2164
jail	-2165
like	-2166
mary	-2167
mory	-2168
ongo	-2169
ular	-2170
vate	-2171
very	-2172
wner	-2173
▁cat	-2174
▁got	-2175
▁job	-2176
▁non	-2177
▁obj	-2178
▁org	-2179
▁rep	-2180
▁ssl	-2181
close	-2182
olute	-2183
other	-2184
ptcha	-2185
ready	-2186
ssing	-2187
stamp	-2188
story	-2189
tuple	-2190
uring	-2191
ution	-2192
▁bool	-2193
▁flex	-2194
▁info	-2195
▁news	-2196
▁remo	-2197
▁uuid	-2198
center	-2199
depend	-2200
extend	-2201
graphy	-2202
hidden	-2203
images	-2204
imgaug	-2205
logger	-2206
report	-2207
▁about	-2208
▁admin	-2209
▁bytes	-2210
▁email	-2211
▁impro	-2212
▁place	-2213
▁proxy	-2214
▁scipy	-2215
▁still	-2216
integer	-2217
results	-2218
upgrade	-2219
▁device	-2220
▁handle	-2221
▁kernel	-2222
▁models	-2223
▁parent	-2224
▁reload	-2225
▁target	-2226
platform	-2227
relevant	-2228
▁channel	-2229
▁hasattr	-2230
attribute	-2231
distribut	-2232
struction	-2233
variables	-2234
▁callable	-2235
▁commands	-2236
▁unittest	-2237
identifier	-2238
utebrowser	-2239
▁different	-2240
ryptography	-2241
▁homeassistant	-2242
";	-2243
1'	-2244
57	-2245
=/	-2246
>\	-2247
][	-2248
`:	-2249
sb	-2250
sm	-2251
▁?	-2252
('/	-2253
200	-2254
=1,	-2255
==2	-2256
cal	-2257
dri	-2258
fin	-2259
gcd	-2260
gex	-2261
irt	-2262
nta	-2263
rbm	-2264
rin	-2265
rol	-2266
sdl	-2267
tip	-2268
ven	-2269
wer	-2270
xis	-2271
▁$(	-2272
▁0:	-2273
▁1)	-2274
▁];	-2275
▁da	-2276
▁my	-2277
"></	-2278
++++	-2279
==8.	-2280
[0],	-2281
[1],	-2282
addr	-2283
ared	-2284
body	-2285
bole	-2286
dump	-2287
gger	-2288
imal	-2289
itor	-2290
mous	-2291
mpty	-2292
otes	-2293
part	-2294
prec	-2295
send	-2296
show	-2297
univ	-2298
▁dat	-2299
▁eax	-2300
▁eps	-2301
▁exc	-2302
▁off	-2303
▁sph	-2304
▁war	-2305
▁});	-2306
ables	-2307
alloc	-2308
allpa	-2309
cause	-2310
extra	-2311
ified	-2312
lower	-2313
numpy	-2314
train	-2315
▁(`#4	-2316
▁2000	-2317
▁auto	-2318
▁axis	-2319
▁cell	-2320
▁soft	-2321
▁than	-2322
ariate	-2323
buffer	-2324
curacy	-2325
curity	-2326
delete	-2327
django	-2328
errors	-2329
fields	-2330
lambda	-2331
lastic	-2332
lector	-2333
pboard	-2334
robust	-2335
▁after	-2336
▁break	-2337
▁clean	-2338
▁exist	-2339
▁extra	-2340
▁super	-2341
▁yield	-2342
==8.1.2	-2343
filters	-2344
onymous	-2345
routing	-2346
▁ignore	-2347
▁prefix	-2348
▁recent	-2349
▁render	-2350
▁single	-2351
▁sorted	-2352
▁sphinx	-2353
dispatch	-2354
internal	-2355
property	-2356
rotation	-2357
symbolic	-2358
▁defined	-2359
▁instead	-2360
▁methods	-2361
formation	-2362
▁absolute	-2363
▁composer	-2364
▁defaults	-2365
▁multiple	-2366
▁override	-2367
▁previous	-2368
▁settings	-2369
▁software	-2370
▁symbolic	-2371
▁testcase	-2372
▁training	-2373
univariate	-2374
▁copyright	-2375
lasticsearch	-2376
/'	-2377
13	-2378
19	-2379
2_	-2380
53	-2381
6.	-2382
7.	-2383
\'	-2384
`,	-2385
ia	-2386
lc	-2387
na	-2388
▁6	-2389
','	-2390
---	-2391
-03	-2392
/</	-2393
alg	-2394
cdf	-2395
cls	-2396
dst	-2397
hed	-2398
ice	-2399
ide	-2400
isc	-2401
ket	-2402
lux	-2403
mar	-2404
pat	-2405
uch	-2406
zip	-2407
▁()	-2408
▁1:	-2409
▁2.	-2410
▁=>	-2411
▁cy	-2412
▁fp	-2413
****	-2414
="10	-2415
>=1.	-2416
auto	-2417
cast	-2418
cept	-2419
dest	-2420
ench	-2421
ense	-2422
hook	-2423
imer	-2424
kern	-2425
lime	-2426
mock	-2427
nums	-2428
only	-2429
opub	-2430
over	-2431
prog	-2432
raph	-2433
shot	-2434
spec	-2435
wait	-2436
▁"${	-2437
▁"--	-2438
▁("%	-2439
▁([#	-2440
▁**9	-2441
▁===	-2442
▁fin	-2443
▁gui	-2444
▁put	-2445
amera	-2446
ather	-2447
batch	-2448
first	-2449
inner	-2450
isnip	-2451
jails	-2452
lines	-2453
route	-2454
▁chef	-2455
▁cond	-2456
▁each	-2457
▁full	-2458
▁lock	-2459
▁null	-2460
▁save	-2461
ground	-2462
ignore	-2463
irange	-2464
parent	-2465
peline	-2466
remote	-2467
stropy	-2468
▁array	-2469
▁chart	-2470
▁edges	-2471
▁entry	-2472
▁fixes	-2473
▁given	-2474
▁lines	-2475
▁polic	-2476
▁query	-2477
▁unset	-2478
▁write	-2479
augment	-2480
failure	-2481
general	-2482
ndarray	-2483
nippets	-2484
sublime	-2485
ventory	-2486
visible	-2487
▁before	-2488
▁delete	-2489
▁editor	-2490
▁ffmpeg	-2491
▁matrix	-2492
▁modgcd	-2493
▁parame	-2494
▁please	-2495
▁wallet	-2496
▁window	-2497
expected	-2498
hostname	-2499
metadata	-2500
packages	-2501
redirect	-2502
register	-2503
ultisnip	-2504
▁initial	-2505
▁manager	-2506
▁objects	-2507
▁replace	-2508
▁restart	-2509
▁updated	-2510
directory	-2511
tracename	-2512
connecting	-2513
mplemented	-2514
▁changelog	-2515
▁installed	-2516
▁127.0.0.1:	-2517
▁attributes	-2518
▁description	-2519
▁development	-2520
▁organization	-2521
14	-2522
16	-2523
68	-2524
89	-2525
\.	-2526
cy	-2527
eq	-2528
gg	-2529
pb	-2530
}-	-2531
"),	-2532
("-	-2533
/{}	-2534
0-9	-2535
=",	-2536
=$(	-2537
](#	-2538
_00	-2539
arf	-2540
aws	-2541
ban	-2542
chk	-2543
cla	-2544
cpu	-2545
ear	-2546
ech	-2547
hes	-2548
ick	-2549
neg	-2550
opp	-2551
plo	-2552
qrt	-2553
shm	-2554
ted	-2555
tox	-2556
ump	-2557
wal	-2558
yes	-2559
▁'%	-2560
▁0;	-2561
▁cp	-2562
▁gl	-2563
▁io	-2564
/'),	-2565
>`_)	-2566
^^^^	-2567
arly	-2568
ateg	-2569
chan	-2570
cuda	-2571
dify	-2572
drop	-2573
eded	-2574
ends	-2575
etch	-2576
fice	-2577
geom	-2578
medi	-2579
noul	-2580
peri	-2581
reet	-2582
regs	-2583
samp	-2584
tail	-2585
venv	-2586
▁1),	-2587
▁_("	-2588
▁don	-2589
▁err	-2590
▁ite	-2591
▁map	-2592
▁pep	-2593
▁ref	-2594
▁sso	-2595
▁tri	-2596
▁via	-2597
blend	-2598
dicts	-2599
ences	-2600
entry	-2601
exist	-2602
ivate	-2603
regex	-2604
scope	-2605
total	-2606
trade	-2607
vices	-2608
▁best	-2609
▁conn	-2610
▁grep	-2611
▁inte	-2612
▁loop	-2613
▁stri	-2614
▁sure	-2615
▁take	-2616
▁tran	-2617
▁want	-2618
access	-2619
arsnap	-2620
domain	-2621
double	-2622
encode	-2623
github	-2624
httpre	-2625
legate	-2626
native	-2627
noulli	-2628
random	-2629
verify	-2630
▁avoid	-2631
▁basic	-2632
▁could	-2633
▁cover	-2634
▁decor	-2635
▁elect	-2636
▁fails	-2637
▁noset	-2638
▁point	-2639
▁right	-2640
▁store	-2641
▁there	-2642
▁track	-2643
ansible	-2644
astropy	-2645
ational	-2646
contact	-2647
contrib	-2648
created	-2649
cursive	-2650
display	-2651
doctype	-2652
encoder	-2653
samples	-2654
tection	-2655
▁httpre	-2656
▁normal	-2657
▁qubole	-2658
▁second	-2659
▁unused	-2660
▁urllib	-2661
customer	-2662
iterator	-2663
periment	-2664
provider	-2665
shmallow	-2666
▁because	-2667
▁cluster	-2668
▁enabled	-2669
▁httpchk	-2670
▁windows	-2671
==8.1.2",	-2672
connected	-2673
▁endpoint	-2674
▁messages	-2675
▁newsblur	-2676
▁packages	-2677
▁redirect	-2678
▁validate	-2679
▁versions	-2680
directcode	-2681
marginleft	-2682
metricname	-2683
▁nosetests	-2684
classmethod	-2685
routingrule	-2686
▁exceptions	-2687
▁qutebrowser	-2688
▁unsupported	-2689
classification	-2690
keyprefixequals	-2691
httpredirectcode	-2692
''	-2693
';	-2694
($	-2695
-%	-2696
1"	-2697
1:	-2698
3_	-2699
75	-2700
90	-2701
:\	-2702
];	-2703
mk	-2704
np	-2705
nu	-2706
rm	-2707
yo	-2708
)):	-2709
1.0	-2710
="#	-2711
[1]	-2712
ast	-2713
cum	-2714
exc	-2715
fit	-2716
gin	-2717
ily	-2718
msg	-2719
ped	-2720
pep	-2721
sel	-2722
tty	-2723
vre	-2724
}),	-2725
▁'-	-2726
▁),	-2727
▁_`	-2728
▁pe	-2729
▁pr	-2730
▁qs	-2731
▁};	-2732
bose	-2733
ched	-2734
duce	-2735
feed	-2736
gest	-2737
hist	-2738
lack	-2739
lint	-2740
next	-2741
nmap	-2742
pass	-2743
pers	-2744
slug	-2745
uted	-2746
wrap	-2747
▁ber	-2748
▁cla	-2749
▁dev	-2750
▁gnu	-2751
▁loc	-2752
▁opt	-2753
▁ord	-2754
▁pil	-2755
▁pos	-2756
▁req	-2757
▁row	-2758
▁top	-2759
▁typ	-2760
▁was	-2761
agent	-2762
ancel	-2763
attrs	-2764
babel	-2765
cloud	-2766
cture	-2767
dient	-2768
ended	-2769
geome	-2770
glget	-2771
guide	-2772
icles	-2773
iopub	-2774
ished	-2775
issue	-2776
isted	-2777
loads	-2778
mpath	-2779
nored	-2780
raise	-2781
scale	-2782
strip	-2783
stroy	-2784
sympy	-2785
ually	-2786
witch	-2787
▁both	-2788
▁byte	-2789
▁cons	-2790
▁dbus	-2791
▁grid	-2792
▁icon	-2793
▁ivre	-2794
▁look	-2795
▁node	-2796
▁orig	-2797
▁pair	-2798
▁plot	-2799
▁sign	-2800
▁sinc	-2801
▁stop	-2802
▁uses	-2803
▁what	-2804
angout	-2805
branch	-2806
bucket	-2807
compat	-2808
driver	-2809
enable	-2810
encies	-2811
factor	-2812
folder	-2813
holder	-2814
layers	-2815
lookup	-2816
parser	-2817
rainer	-2818
sample	-2819
serial	-2820
static	-2821
stdout	-2822
system	-2823
▁close	-2824
▁color	-2825
▁debug	-2826
▁label	-2827
▁noise	-2828
▁patch	-2829
▁style	-2830
backend	-2831
cookies	-2832
editing	-2833
execute	-2834
feature	-2835
logfile	-2836
private	-2837
release	-2838
variant	-2839
▁checks	-2840
▁images	-2841
▁latest	-2842
▁needed	-2843
▁thread	-2844
▁widget	-2845
allpaper	-2846
bindings	-2847
commands	-2848
counters	-2849
disabled	-2850
geometry	-2851
normpath	-2852
pression	-2853
starting	-2854
timezone	-2855
vertical	-2856
~~~~~~~~	-2857
▁backend	-2858
▁browser	-2859
▁convert	-2860
▁imports	-2861
▁program	-2862
▁running	-2863
▁section	-2864
▁timeout	-2865
▁twisted	-2866
iteration	-2867
noullirbm	-2868
transform	-2869
▁--------	-2870
▁callback	-2871
▁disabled	-2872
▁entities	-2873
▁evaluate	-2874
▁features	-2875
▁hptuning	-2876
▁register	-2877
▁sequence	-2878
javascript	-2879
▁initiator	-2880
▁interface	-2881
▁keepalive	-2882
▁variables	-2883
assertequal	-2884
replication	-2885
▁background	-2886
▁setuptools	-2887
▁application	-2888
▁bernoullirbm	-2889
0000000000000000	-2890
'"	-2891
(-	-2892
.'	-2893
36	-2894
41	-2895
44	-2896
5)	-2897
7,	-2898
>"	-2899
ba	-2900
bb	-2901
bc	-2902
nz	-2903
sd	-2904
wd	-2905
$</	-2906
'")	-2907
');	-2908
(0)	-2909
(['	-2910
(__	-2911
0.5	-2912
10.	-2913
btn	-2914
cat	-2915
cle	-2916
dat	-2917
ini	-2918
jor	-2919
lap	-2920
ltk	-2921
nzb	-2922
ody	-2923
ote	-2924
tps	-2925
ugh	-2926
▁#%	-2927
▁%(	-2928
▁*/	-2929
▁/*	-2930
▁3,	-2931
▁4,	-2932
▁ci	-2933
▁cv	-2934
▁fn	-2935
('--	-2936
()))	-2937
="${	-2938
="{{	-2939
=10,	-2940
[0])	-2941
__':	-2942
ason	-2943
atra	-2944
bash	-2945
buzz	-2946
chef	-2947
cogn	-2948
conn	-2949
dent	-2950
difi	-2951
draw	-2952
feat	-2953
ibre	-2954
ired	-2955
mbed	-2956
mmat	-2957
norm	-2958
note	-2959
ntax	-2960
null	-2961
ogle	-2962
pidy	-2963
ploy	-2964
pyqt	-2965
rame	-2966
rant	-2967
resh	-2968
seed	-2969
sole	-2970
sort	-2971
sque	-2972
uses	-2973
utor	-2974
vbox	-2975
▁'',	-2976
▁10,	-2977
▁ali	-2978
▁bet	-2979
▁btn	-2980
▁sli	-2981
▁sug	-2982
alarm	-2983
align	-2984
anced	-2985
ances	-2986
andas	-2987
annot	-2988
click	-2989
delta	-2990
float	-2991
iline	-2992
isode	-2993
ither	-2994
ogram	-2995
omial	-2996
owner	-2997
patch	-2998
redis	-2999
serve	-3000
slave	-3001
▁bash	-3002
▁body	-3003
▁book	-3004
▁calc	-3005
▁elem	-3006
▁next	-3007
▁temp	-3008
▁vide	-3009
active	-3010
cumsum	-3011
ectors	-3012
groups	-3013
inputs	-3014
lative	-3015
letion	-3016
posure	-3017
proces	-3018
raises	-3019
rapped	-3020
regist	-3021
scalar	-3022
secret	-3023
sender	-3024
tabdoc	-3025
tensor	-3026
utable	-3027
▁based	-3028
▁cloud	-3029
▁delay	-3030
▁match	-3031
▁repos	-3032
▁split	-3033
▁token	-3034
▁tools	-3035
arfbuzz	-3036
atraces	-3037
blender	-3038
hashkey	-3039
initial	-3040
invalid	-3041
mobject	-3042
network	-3043
offsets	-3044
plotlib	-3045
publish	-3046
pvector	-3047
trigger	-3048
windows	-3049
▁apache	-3050
▁branch	-3051
▁compat	-3052
▁during	-3053
▁either	-3054
▁enable	-3055
▁errors	-3056
▁events	-3057
▁integr	-3058
▁layout	-3059
▁linear	-3060
▁offset	-3061
▁recogn	-3062
▁sensor	-3063
▁useful	-3064
document	-3065
gradient	-3066
original	-3067
playback	-3068
selector	-3069
transfer	-3070
validate	-3071
▁already	-3072
▁calibre	-3073
▁environ	-3074
▁matches	-3075
▁missing	-3076
▁modname	-3077
▁outputs	-3078
▁suggest	-3079
▁transpa	-3080
▁vagrant	-3081
▁variant	-3082
datastore	-3083
framework	-3084
ningerror	-3085
particles	-3086
processor	-3087
ultisnips	-3088
▁learning	-3089
▁operator	-3090
▁provided	-3091
attributes	-3092
completion	-3093
▁namespace	-3094
▁normalize	-3095
▁operation	-3096
▁parameter	-3097
tabdocfield	-3098
translation	-3099
▁datatraces	-3100
▁dependency	-3101
▁javascript	-3102
▁likelihood	-3103
▁validation	-3104
organization	-3105
requirements	-3106
▁distributed	-3107
▁information	-3108
▁recognition	-3109
elasticsearch	-3110
▁-------------	-3111
!/	-3112
)"	-3113
02	-3114
0}	-3115
22	-3116
26	-3117
48	-3118
96	-3119
:"	-3120
=3	-3121
[]	-3122
_1	-3123
au	-3124
cf	-3125
dt	-3126
gt	-3127
hq	-3128
nb	-3129
qs	-3130
('.	-3131
(1)	-3132
)',	-3133
012	-3134
24,	-3135
256	-3136
500	-3137
8.0	-3138
=0.	-3139
===	-3140
>{%	-3141
]))	-3142
apt	-3143
bre	-3144
coe	-3145
dot	-3146
ffi	-3147
foo	-3148
ima	-3149
mas	-3150
nlu	-3151
ons	-3152
osx	-3153
oto	-3154
pin	-3155
pix	-3156
seq	-3157
ten	-3158
ula	-3159
▁"#	-3160
▁",	-3161
▁(%	-3162
▁):	-3163
▁/>	-3164
▁15	-3165
▁1;	-3166
▁1]	-3167
▁20	-3168
▁2:	-3169
▁64	-3170
▁ap	-3171
▁df	-3172
▁ml	-3173
▁mx	-3174
▁ok	-3175
▁sa	-3176
▁sm	-3177
▁tm	-3178
0.9.	-3179
3.0.	-3180
5000	-3181
="{%	-3182
[1])	-3183
_008	-3184
axis	-3185
bool	-3186
cell	-3187
cing	-3188
cord	-3189
eryd	-3190
etcd	-3191
font	-3192
iler	-3193
lyph	-3194
mber	-3195
ness	-3196
nose	-3197
nown	-3198
ongs	-3199
rain	-3200
ront	-3201
some	-3202
sses	-3203
tain	-3204
warm	-3205
wise	-3206
▁20,	-3207
▁_('	-3208
▁boo	-3209
▁clf	-3210
▁dir	-3211
▁gas	-3212
▁its	-3213
▁mem	-3214
▁mon	-3215
▁sdl	-3216
▁six	-3217
▁tab	-3218
▁tor	-3219
async	-3220
boost	-3221
defer	-3222
devel	-3223
dumps	-3224
empty	-3225
endar	-3226
forms	-3227
https	-3228
lated	-3229
marks	-3230
merge	-3231
modal	-3232
price	-3233
retry	-3234
setup	-3235
slice	-3236
spack	-3237
stdin	-3238
timer	-3239
tower	-3240
which	-3241
▁anim	-3242
▁cron	-3243
▁drop	-3244
▁fail	-3245
▁free	-3246
▁geom	-3247
▁last	-3248
▁left	-3249
▁role	-3250
▁send	-3251
▁such	-3252
▁them	-3253
▁tool	-3254
▁vari	-3255
broker	-3256
camera	-3257
ceback	-3258
detail	-3259
lement	-3260
memory	-3261
reader	-3262
webkit	-3263
weight	-3264
▁attrs	-3265
▁chunk	-3266
▁conda	-3267
▁early	-3268
▁endif	-3269
▁enter	-3270
▁forms	-3271
▁later	-3272
▁layer	-3273
▁needs	-3274
▁react	-3275
▁sites	-3276
▁story	-3277
▁theme	-3278
abspath	-3279
ception	-3280
cluster	-3281
compile	-3282
control	-3283
destroy	-3284
episode	-3285
iarange	-3286
itional	-3287
openssl	-3288
padding	-3289
rednose	-3290
schemas	-3291
tarsnap	-3292
tonotes	-3293
unicode	-3294
winsize	-3295
▁amount	-3296
▁assume	-3297
▁bucket	-3298
▁common	-3299
▁deploy	-3300
▁domain	-3301
▁expose	-3302
▁future	-3303
▁github	-3304
▁helper	-3305
▁metric	-3306
▁mopidy	-3307
▁netcdf	-3308
▁packer	-3309
▁remote	-3310
▁static	-3311
database	-3312
duration	-3313
entities	-3314
harfbuzz	-3315
mbedding	-3316
mmatizer	-3317
position	-3318
reqtrade	-3319
treenode	-3320
variable	-3321
▁choices	-3322
▁columns	-3323
▁compute	-3324
▁english	-3325
▁getattr	-3326
▁history	-3327
▁improve	-3328
▁libpath	-3329
▁propert	-3330
▁removed	-3331
▁session	-3332
▁specify	-3333
▁success	-3334
▁trainer	-3335
▁vectors	-3336
▁warrant	-3337
▁wrapper	-3338
functions	-3339
localhost	-3340
multiline	-3341
storation	-3342
timestamp	-3343
▁checking	-3344
▁discover	-3345
▁supports	-3346
properties	-3347
structions	-3348
validation	-3349
▁component	-3350
▁connector	-3351
▁inventory	-3352
▁reference	-3353
▁subreddit	-3354
implemented	-3355
▁controller	-3356
augmentables	-3357
cryptography	-3358
distribution	-3359
▁editorstate	-3360
▁environment	-3361
▁transparent	-3362
clientfactory	-3363
▁distribution	-3364
▁configuration	-3365
geodistribution	-3366
"'	-3367
'/	-3368
)/	-3369
*]	-3370
->	-3371
0"	-3372
2/	-3373
2:	-3374
37	-3375
4)	-3376
4,	-3377
42	-3378
63	-3379
88	-3380
94	-3381
:@	-3382
>.	-3383
\[	-3384
fc	-3385
fd	-3386
iq	-3387
kg	-3388
ko	-3389
mt	-3390
nn	-3391
nr	-3392
pn	-3393
rb	-3394
rf	-3395
tt	-3396
uc	-3397
})	-3398
▁9	-3399
"><	-3400
('\	-3401
***	-3402
.")	-3403
/*.	-3404
/\.	-3405
3.0	-3406
425	-3407
:@"	-3408
:{}	-3409
="/	-3410
=${	-3411
=['	-3412
`__	-3413
``,	-3414
ado	-3415
aff	-3416
aro	-3417
att	-3418
bad	-3419
bum	-3420
cmd	-3421
ctx	-3422
exe	-3423
gcc	-3424
irr	-3425
iss	-3426
kes	-3427
kwd	-3428
lor	-3429
met	-3430
mid	-3431
rtd	-3432
rte	-3433
rum	-3434
sec	-3435
tor	-3436
ule	-3437
usr	-3438
vpc	-3439
▁"<	-3440
▁))	-3441
▁*.	-3442
▁./	-3443
▁<=	-3444
▁[>	-3445
▁aw	-3446
▁gp	-3447
']))	-3448
()):	-3449
(_("	-3450
).__	-3451
8000	-3452
="23	-3453
>/\.	-3454
](#-	-3455
aded	-3456
char	-3457
cial	-3458
come	-3459
conv	-3460
dbot	-3461
exit	-3462
gres	-3463
ions	-3464
izip	-3465
macs	-3466
mbol	-3467
meta	-3468
mirr	-3469
misc	-3470
oter	-3471
real	-3472
rink	-3473
rypt	-3474
shed	-3475
sudo	-3476
sure	-3477
upic	-3478
void	-3479
ways	-3480
ween	-3481
writ	-3482
wsgi	-3483
▁###	-3484
▁'--	-3485
▁100	-3486
▁200	-3487
▁64-	-3488
▁bro	-3489
▁cff	-3490
▁cha	-3491
▁dra	-3492
▁inv	-3493
▁mlt	-3494
▁our	-3495
▁pas	-3496
▁src	-3497
▁sum	-3498
▁two	-3499
▁way	-3500
0-9._	-3501
3.0.0	-3502
=300,	-3503
antom	-3504
bytes	-3505
creen	-3506
delay	-3507
entic	-3508
found	-3509
inspe	-3510
itive	-3511
matiq	-3512
media	-3513
postf	-3514
props	-3515
propt	-3516
raint	-3517
rough	-3518
sites	-3519
stats	-3520
swarm	-3521
uplic	-3522
views	-3523
words	-3524
▁been	-3525
▁cart	-3526
▁chat	-3527
▁dont	-3528
▁exog	-3529
▁fill	-3530
▁item	-3531
▁kern	-3532
▁mail	-3533
▁npix	-3534
▁pdst	-3535
▁rest	-3536
▁they	-3537
▁tree	-3538
▁util	-3539
▁virt	-3540
dified	-3541
editor	-3542
ending	-3543
ensity	-3544
ensure	-3545
linear	-3546
lished	-3547
parame	-3548
public	-3549
recent	-3550
rstrip	-3551
slices	-3552
spaces	-3553
speech	-3554
spline	-3555
untime	-3556
xtured	-3557
▁above	-3558
▁actor	-3559
▁align	-3560
▁assoc	-3561
▁being	-3562
▁conll	-3563
▁doesn	-3564
▁emacs	-3565
▁frame	-3566
▁light	-3567
▁msgid	-3568
▁pysma	-3569
▁separ	-3570
▁sheet	-3571
▁these	-3572
▁times	-3573
▁usage	-3574
▁users	-3575
▁video	-3576
antomjs	-3577
basedir	-3578
captcha	-3579
correct	-3580
dropout	-3581
imaging	-3582
kwdargs	-3583
nonzero	-3584
olution	-3585
pective	-3586
rowsers	-3587
spacket	-3588
trained	-3589
utorial	-3590
working	-3591
▁access	-3592
▁applic	-3593
▁direct	-3594
▁engine	-3595
▁indent	-3596
▁inputs	-3597
▁manage	-3598
▁modify	-3599
▁policy	-3600
▁reader	-3601
▁reason	-3602
▁reduce	-3603
▁sample	-3604
▁screen	-3605
▁serial	-3606
▁spline	-3607
▁system	-3608
▁termin	-3609
▁toxenv	-3610
▁typing	-3611
▁unless	-3612
abstract	-3613
activate	-3614
binomial	-3615
channels	-3616
constant	-3617
descript	-3618
hptuning	-3619
lability	-3620
lineedit	-3621
nsstring	-3622
pipeline	-3623
protocol	-3624
revision	-3625
schedule	-3626
selected	-3627
standard	-3628
versions	-3629
▁comment	-3630
▁console	-3631
▁contain	-3632
▁created	-3633
▁handler	-3634
▁hangout	-3635
▁provide	-3636
▁started	-3637
▁updates	-3638
▁virtual	-3639
configure	-3640
getlogger	-3641
inspector	-3642
iteritems	-3643
qtwidgets	-3644
renderers	-3645
▁abstract	-3646
▁comments	-3647
▁complete	-3648
▁database	-3649
▁determin	-3650
▁endblock	-3651
▁examples	-3652
▁original	-3653
▁protocol	-3654
▁snippets	-3655
▁specific	-3656
▁standard	-3657
constraint	-3658
experiment	-3659
expression	-3660
postflight	-3661
withformat	-3662
▁anonymous	-3663
▁bitstring	-3664
▁clipboard	-3665
▁correctly	-3666
▁dimension	-3667
▁histogram	-3668
▁imagedata	-3669
▁implement	-3670
▁recursive	-3671
▁testcases	-3672
▁uninstall	-3673
addcallback	-3674
annotations	-3675
autoinstall	-3676
marginright	-3677
proptrainer	-3678
▁extensions	-3679
xturedensity	-3680
▁likelihoods	-3681
▁marshmallow	-3682
keyprefixwith	-3683
▁dependencies	-3684
centervertical	-3685
lightningerror	-3686
pbclientfactory	-3687
▁|-------------	-3688
$/	-3689
){	-3690
*.	-3691
03	-3692
08	-3693
1>	-3694
1_	-3695
2-	-3696
21	-3697
3-	-3698
43	-3699
4_	-3700
66	-3701
6_	-3702
=(	-3703
=0	-3704
af	-3705
eb	-3706
uv	-3707
vc	-3708
{'	-3709
▁7	-3710
"):	-3711
("_	-3712
(1,	-3713
-06	-3714
/(\	-3715
2',	-3716
3.1	-3717
="<	-3718
]):	-3719
__)	-3720
aml	-3721
ano	-3722
awx	-3723
bam	-3724
btc	-3725
cel	-3726
chi	-3727
cos	-3728
cov	-3729
cts	-3730
det	-3731
dog	-3732
eng	-3733
eze	-3734
gen	-3735
glm	-3736
igr	-3737
ild	-3738
inf	-3739
jpe	-3740
lip	-3741
oly	-3742
pem	-3743
ral	-3744
ret	-3745
rss	-3746
seg	-3747
sep	-3748
svn	-3749
ugc	-3750
uni	-3751
ups	-3752
▁"%	-3753
▁'$	-3754
▁2)	-3755
▁2;	-3756
▁\\	-3757
▁am	-3758
▁cd	-3759
▁cs	-3760
▁fs	-3761
▁na	-3762
▁ns	-3763
▁vo	-3764
▁wo	-3765
("--	-3766
2000	-3767
4012	-3768
509.	-3769
=1):	-3770
aign	-3771
ands	-3772
arge	-3773
atio	-3774
avai	-3775
bers	-3776
brew	-3777
cert	-3778
city	-3779
flat	-3780
hass	-3781
jpeg	-3782
lied	-3783
mean	-3784
moto	-3785
onet	-3786
ored	-3787
peer	-3788
poly	-3789
quiv	-3790
reds	-3791
reed	-3792
rons	-3793
sock	-3794
spro	-3795
sqrt	-3796
tins	-3797
untu	-3798
urro	-3799
▁'0.	-3800
▁[0,	-3801
▁[1,	-3802
▁[],	-3803
▁ami	-3804
▁aut	-3805
▁ccd	-3806
▁cra	-3807
▁gam	-3808
▁ide	-3809
▁ipv	-3810
▁opp	-3811
▁pkg	-3812
▁raw	-3813
▁sca	-3814
▁sen	-3815
▁sim	-3816
▁sky	-3817
▁spe	-3818
▁std	-3819
▁uni	-3820
▁utf	-3821
▁vcp	-3822
▁zer	-3823
2.0.5	-3824
ategy	-3825
bench	-3826
cimal	-3827
coefs	-3828
dices	-3829
dlist	-3830
epage	-3831
flash	-3832
imize	-3833
licit	-3834
lying	-3835
major	-3836
mixed	-3837
month	-3838
mysql	-3839
nodes	-3840
notes	-3841
orith	-3842
ority	-3843
plain	-3844
produ	-3845
pture	-3846
quote	-3847
using	-3848
▁####	-3849
▁camp	-3850
▁cast	-3851
▁core	-3852
▁deli	-3853
▁deps	-3854
▁done	-3855
▁func	-3856
▁gain	-3857
▁join	-3858
▁keys	-3859
▁loss	-3860
▁pipe	-3861
▁poly	-3862
▁pypy	-3863
▁rate	-3864
▁rece	-3865
▁root	-3866
▁safe	-3867
▁scal	-3868
▁sock	-3869
▁stru	-3870
▁well	-3871
/*")),	-3872
==0.8.	-3873
author	-3874
bounds	-3875
coding	-3876
export	-3877
frames	-3878
igraph	-3879
instal	-3880
integr	-3881
latest	-3882
normal	-3883
pytest	-3884
reater	-3885
resume	-3886
scribe	-3887
simple	-3888
struct	-3889
tables	-3890
ternet	-3891
ubuntu	-3892
unsafe	-3893
vanced	-3894
visual	-3895
▁badge	-3896
▁below	-3897
▁chain	-3898
▁click	-3899
▁inner	-3900
▁least	-3901
▁login	-3902
▁minor	-3903
▁mount	-3904
▁nargs	-3905
▁nupic	-3906
▁quant	-3907
▁quick	-3908
▁since	-3909
▁slave	-3910
▁trust	-3911
▁would	-3912
allowed	-3913
celeryd	-3914
element	-3915
ermixin	-3916
estcase	-3917
formula	-3918
forward	-3919
getattr	-3920
ibility	-3921
license	-3922
mplated	-3923
pattern	-3924
reactor	-3925
squeeze	-3926
▁adding	-3927
▁attemp	-3928
▁backup	-3929
▁button	-3930
▁calcul	-3931
▁cancel	-3932
▁comput	-3933
▁duplic	-3934
▁ensure	-3935
▁extras	-3936
▁gittip	-3937
▁global	-3938
▁height	-3939
▁kwargs	-3940
▁loader	-3941
▁msgstr	-3942
▁pandas	-3943
▁partic	-3944
▁proper	-3945
▁raised	-3946
▁review	-3947
▁schema	-3948
▁strict	-3949
▁syntax	-3950
▁within	-3951
++++++++	-3952
==22.0.5	-3953
==23.0.0	-3954
accuracy	-3955
activity	-3956
backward	-3957
coverage	-3958
creation	-3959
datasets	-3960
deferred	-3961
delegate	-3962
interval	-3963
learning	-3964
lowlevel	-3965
mainloop	-3966
markdown	-3967
samtools	-3968
security	-3969
splitter	-3970
▁abspath	-3971
▁between	-3972
▁boolean	-3973
▁captcha	-3974
▁extends	-3975
▁headers	-3976
▁padding	-3977
▁passing	-3978
▁prevent	-3979
▁runtime	-3980
▁samples	-3981
▁setattr	-3982
▁through	-3983
▁upgrade	-3984
▁wrapped	-3985
processed	-3986
registers	-3987
terminate	-3988
useragent	-3989
verything	-3990
wallpaper	-3991
▁accuracy	-3992
▁actually	-3993
▁campaign	-3994
▁consumer	-3995
▁coverage	-3996
▁creating	-3997
▁explicit	-3998
▁independ	-3999
▁iterator	-4000
▁qspacket	-4001
▁relative	-4002
▁security	-4003
▁username	-4004
▁variable	-4005
chefserver	-4006
mainwindow	-4007
persistent	-4008
setwinsize	-4009
▁condition	-4010
▁contribut	-4011
▁earlyinit	-4012
▁electrons	-4013
▁extension	-4014
▁fieldtype	-4015
▁otherwise	-4016
▁processor	-4017
▁transform	-4018
▁typeerror	-4019
buildmaster	-4020
countrobust	-4021
integration	-4022
transaction	-4023
▁completion	-4024
▁defaultvpc	-4025
▁namedtuple	-4026
▁virtualenv	-4027
availability	-4028
datasetequal	-4029
featureerror	-4030
▁performance	-4031
▁placeholder	-4032
▁restoration	-4033
▁setrotation	-4034
visualization	-4035
▁notimplemented	-4036
################	-4037
countrobustmixin	-4038
*(	-4039
.*	-4040
07	-4041
1}	-4042
2>	-4043
3"	-4044
4*	-4045
4-	-4046
77	-4047
8,	-4048
85	-4049
8]	-4050
91	-4051
93	-4052
:/	-4053
>3	-4054
>>	-4055
\"	-4056
\%	-4057
_0	-4058
dd	-4059
fl	-4060
hh	-4061
mq	-4062
rg	-4063
vt	-4064
wb	-4065
wo	-4066
ww	-4067
zy	-4068
!")	-4069
",\	-4070
"]'	-4071
"])	-4072
'''	-4073
']:	-4074
('%	-4075
(',	-4076
()`	-4077
([\	-4078
({'	-4079
-10	-4080
.',	-4081
0.2	-4082
2.7	-4083
207	-4084
27,	-4085
3.2	-4086
71,	-4087
:](	-4088
=""	-4089
=0,	-4090
=1.	-4091
={{	-4092
[1:	-4093
ape	-4094
bas	-4095
css	-4096
day	-4097
dic	-4098
dio	-4099
hal	-4100
ioc	-4101
ipv	-4102
ism	-4103
its	-4104
lan	-4105
lid	-4106
pha	-4107
pop	-4108
sor	-4109
stm	-4110
tib	-4111
tsx	-4112
vcp	-4113
www	-4114
yum	-4115
}")	-4116
▁"-	-4117
▁#.	-4118
▁'/	-4119
▁'<	-4120
▁((	-4121
▁/_	-4122
▁dn	-4123
▁eq	-4124
▁nd	-4125
▁nx	-4126
▁sr	-4127
▁ui	-4128
▁vc	-4129
')))	-4130
("//	-4131
((1,	-4132
...,	-4133
1'},	-4134
://%	-4135
==3.	-4136
alrm	-4137
anel	-4138
ards	-4139
ates	-4140
bank	-4141
coun	-4142
dash	-4143
emon	-4144
eval	-4145
frac	-4146
ggle	-4147
grow	-4148
guid	-4149
iate	-4150
inja	-4151
ived	-4152
jobs	-4153
late	-4154
lobj	-4155
olve	-4156
ones	-4157
ping	-4158
pyro	-4159
ring	-4160
room	-4161
saml	-4162
sing	-4163
skip	-4164
slot	-4165
stri	-4166
sync	-4167
tach	-4168
term	-4169
ural	-4170
uuid	-4171
ving	-4172
yaml	-4173
year	-4174
zzan	-4175
▁%}<	-4176
▁'/'	-4177
▁'{{	-4178
▁**8	-4179
▁2.0	-4180
▁[5,	-4181
▁cnt	-4182
▁dee	-4183
▁dom	-4184
▁eas	-4185
▁etc	-4186
▁fit	-4187
▁foo	-4188
▁gen	-4189
▁ger	-4190
▁nsu	-4191
▁pur	-4192
▁pyb	-4193
▁rbm	-4194
▁sam	-4195
▁seq	-4196
▁sig	-4197
▁slc	-4198
▁vim	-4199
▁why	-4200
▁{},	-4201
[-1].	-4202
__'):	-4203
aroot	-4204
bound	-4205
carts	-4206
clean	-4207
dtype	-4208
egers	-4209
endif	-4210
endog	-4211
eries	-4212
fetch	-4213
glyph	-4214
hints	-4215
idual	-4216
itory	-4217
learn	-4218
lfrom	-4219
lists	-4220
mongo	-4221
opped	-4222
orary	-4223
otent	-4224
pping	-4225
press	-4226
pysma	-4227
quivo	-4228
reply	-4229
retch	-4230
rrule	-4231
secre	-4232
small	-4233
smart	-4234
topro	-4235
verse	-4236
vised	-4237
where	-4238
white	-4239
▁%}</	-4240
▁([#4	-4241
▁-1),	-4242
▁...)	-4243
▁1000	-4244
▁clar	-4245
▁dark	-4246
▁deep	-4247
▁diff	-4248
▁enum	-4249
▁eval	-4250
▁flag	-4251
▁give	-4252
▁haff	-4253
▁high	-4254
▁izip	-4255
▁just	-4256
▁moto	-4257
▁mugc	-4258
▁norm	-4259
▁peer	-4260
▁poss	-4261
▁pref	-4262
▁rout	-4263
▁secp	-4264
▁slow	-4265
▁symp	-4266
▁sync	-4267
▁team	-4268
▁tele	-4269
▁vdim	-4270
▁very	-4271
▁}}</	-4272
[-1]['	-4273
absent	-4274
aconda	-4275
actual	-4276
amount	-4277
apache	-4278
binary	-4279
blocks	-4280
checks	-4281
cookie	-4282
decode	-4283
gitlab	-4284
handle	-4285
istics	-4286
keting	-4287
linalg	-4288
lugins	-4289
manage	-4290
office	-4291
opengl	-4292
prospe	-4293
protot	-4294
pubkey	-4295
qtcore	-4296
routes	-4297
shaped	-4298
should	-4299
sorted	-4300
street	-4301
tibber	-4302
tmpdir	-4303
toggle	-4304
uncate	-4305
upload	-4306
windex	-4307
▁alloc	-4308
▁along	-4309
▁apply	-4310
▁bench	-4311
▁clear	-4312
▁cpdef	-4313
▁curve	-4314
▁dicts	-4315
▁discu	-4316
▁fetch	-4317
▁front	-4318
▁graph	-4319
▁httpd	-4320
▁links	-4321
▁manif	-4322
▁merge	-4323
▁mitem	-4324
▁month	-4325
▁names	-4326
▁pages	-4327
▁press	-4328
▁recor	-4329
▁share	-4330
▁shirt	-4331
▁stack	-4332
▁torch	-4333
▁width	-4334
boolean	-4335
crement	-4336
dbcheck	-4337
develop	-4338
domains	-4339
generic	-4340
jobguid	-4341
keyname	-4342
loading	-4343
locally	-4344
loviews	-4345
monitor	-4346
napshot	-4347
pointer	-4348
posargs	-4349
primary	-4350
restore	-4351
signing	-4352
started	-4353
success	-4354
thedocs	-4355
threads	-4356
useradd	-4357
vagrant	-4358
verbose	-4359
zzanine	-4360
▁======	-4361
▁author	-4362
▁coding	-4363
▁factor	-4364
▁groups	-4365
▁memory	-4366
▁notify	-4367
▁office	-4368
▁pipenv	-4369
▁replic	-4370
▁secret	-4371
▁shards	-4372
▁shared	-4373
▁shutil	-4374
▁stdout	-4375
▁unable	-4376
▁unique	-4377
algorith	-4378
calendar	-4379
compiler	-4380
contents	-4381
ctionary	-4382
dataroot	-4383
deletion	-4384
estimate	-4385
exposure	-4386
finished	-4387
integers	-4388
mixedglm	-4389
optional	-4390
playlist	-4391
rowindex	-4392
sequence	-4393
swarming	-4394
writable	-4395
▁actions	-4396
▁callobj	-4397
▁chainer	-4398
▁compile	-4399
▁decimal	-4400
▁element	-4401
▁ignored	-4402
▁implied	-4403
▁linprog	-4404
▁minimal	-4405
▁purpose	-4406
▁pybrain	-4407
▁related	-4408
▁rewrite	-4409
▁scripts	-4410
▁sensors	-4411
▁servers	-4412
▁tagging	-4413
▁threads	-4414
▁tracker	-4415
▁widgets	-4416
addwidget	-4417
anonymous	-4418
authproxy	-4419
bitstring	-4420
clipboard	-4421
completer	-4422
detection	-4423
embedding	-4424
estimated	-4425
filterset	-4426
initiator	-4427
installto	-4428
isvisible	-4429
namespace	-4430
prototype	-4431
selection	-4432
sequences	-4433
templates	-4434
typeerror	-4435
validator	-4436
viewmodel	-4437
▁building	-4438
▁chatroom	-4439
▁contents	-4440
▁decorate	-4441
▁deferred	-4442
▁dramatiq	-4443
▁haffmpeg	-4444
▁handling	-4445
▁identity	-4446
▁improved	-4447
▁modified	-4448
▁observer	-4449
▁possible	-4450
▁provider	-4451
▁requires	-4452
▁resource	-4453
▁returned	-4454
▁revision	-4455
▁variance	-4456
▁warranty	-4457
basestring	-4458
dispersion	-4459
extensions	-4460
prospector	-4461
▁alignment	-4462
▁authentic	-4463
▁callbacks	-4464
▁clusterhq	-4465
▁currently	-4466
▁decorator	-4467
▁execution	-4468
▁freqtrade	-4469
▁functions	-4470
▁marketing	-4471
▁ontonotes	-4472
▁phantomjs	-4473
▁resources	-4474
▁something	-4475
▁supported	-4476
▁ultisnips	-4477
installfrom	-4478
toprowindex	-4479
tributepage	-4480
yesmixedglm	-4481
▁discussion	-4482
▁domwrapper	-4483
▁functional	-4484
▁matplotlib	-4485
▁methodname	-4486
▁nsuinteger	-4487
▁permission	-4488
▁subprocess	-4489
▁underlying	-4490
▁collections	-4491
▁importerror	-4492
configuration	-4493
rowsersupport	-4494
▁cryptography	-4495
▁httpresponse	-4496
▁installation	-4497
▁instructions	-4498
cursorrowindex	-4499
▁127.0.0.1:5000	-4500
▁127.0.0.1:8000	-4501
▁quboleoperator	-4502
"/	-4503
(3	-4504
(:	-4505
+)	-4506
.+	-4507
.,	-4508
.\	-4509
/;	-4510
05	-4511
06	-4512
15	-4513
2'	-4514
2*	-4515
4/	-4516
45	-4517
67	-4518
69	-4519
95	-4520
=<	-4521
=_	-4522
[\	-4523
[^	-4524
\1	-4525
_2	-4526
`)	-4527
em	-4528
hr	-4529
jo	-4530
lg	-4531
lr	-4532
pd	-4533
qp	-4534
ti	-4535
xp	-4536
};	-4537
▁;	-4538
▁^	-4539
'})	-4540
('#	-4541
()]	-4542
(/\	-4543
(2,	-4544
)",	-4545
)}}	-4546
**4	-4547
++;	-4548
-07	-4549
100	-4550
105	-4551
2.0	-4552
32(	-4553
5.1	-4554
59:	-4555
6',	-4556
="_	-4557
=2,	-4558
>')	-4559
>{{	-4560
``.	-4561
``:	-4562
abs	-4563
ava	-4564
cpp	-4565
ctl	-4566
dle	-4567
gam	-4568
ged	-4569
gic	-4570
gne	-4571
got	-4572
hdf	-4573
inc	-4574
ips	-4575
ipt	-4576
itu	-4577
ivy	-4578
lem	-4579
lon	-4580
lov	-4581
mpk	-4582
nam	-4583
ock	-4584
odb	-4585
ose	-4586
pot	-4587
ptr	-4588
rac	-4589
ren	-4590
scm	-4591
sup	-4592
tcp	-4593
tit	-4594
tle	-4595
ung	-4596
vpn	-4597
way	-4598
wnd	-4599
xel	-4600
zmq	-4601
▁#"	-4602
▁'0	-4603
▁(!	-4604
▁($	-4605
▁++	-4606
▁3*	-4607
▁30	-4608
▁4-	-4609
▁5,	-4610
▁6,	-4611
▁<%	-4612
▁[%	-4613
▁_,	-4614
▁cx	-4615
▁cz	-4616
▁hy	-4617
▁ie	-4618
▁ja	-4619
▁mk	-4620
▁nb	-4621
▁op	-4622
▁rc	-4623
▁sw	-4624
▁sx	-4625
▁sz	-4626
▁um	-4627
▁ur	-4628
▁wr	-4629
▁{"	-4630
"]),	-4631
'}],	-4632
*)',	-4633
-200	-4634
.*$/	-4635
1.0.	-4636
:59:	-4637
==4.	-4638
[-1]	-4639
[1]:	-4640
__',	-4641
agot	-4642
argv	-4643
atul	-4644
auss	-4645
bian	-4646
boot	-4647
chat	-4648
cier	-4649
cupy	-4650
dask	-4651
deep	-4652
does	-4653
echo	-4654
elli	-4655
enot	-4656
fast	-4657
gend	-4658
gent	-4659
grad	-4660
high	-4661
href	-4662
idir	-4663
ighb	-4664
ires	-4665
isel	-4666
lers	-4667
mble	-4668
nltk	-4669
orms	-4670
pace	-4671
phot	-4672
ppav	-4673
pped	-4674
rapy	-4675
rece	-4676
repr	-4677
role	-4678
rosa	-4679
rupt	-4680
serv	-4681
side	-4682
spac	-4683
subs	-4684
tang	-4685
twit	-4686
uler	-4687
ulum	-4688
uman	-4689
unch	-4690
vari	-4691
what	-4692
your	-4693
{}'.	-4694
▁"./	-4695
▁"3.	-4696
▁#!/	-4697
▁%}"	-4698
▁-1)	-4699
▁0.5	-4700
▁1))	-4701
▁1.0	-4702
▁[('	-4703
▁[{'	-4704
▁]),	-4705
▁`--	-4706
▁bam	-4707
▁boc	-4708
▁box	-4709
▁cel	-4710
▁cip	-4711
▁cos	-4712
▁cpu	-4713
▁div	-4714
▁enh	-4715
▁fun	-4716
▁gla	-4717
▁glv	-4718
▁gpu	-4719
▁gra	-4720
▁idx	-4721
▁inc	-4722
▁isn	-4723
▁lon	-4724
▁mix	-4725
▁myp	-4726
▁osx	-4727
▁sym	-4728
▁tol	-4729
▁tst	-4730
▁whe	-4731
▁zip	-4732
('201	-4733
-07-0	-4734
="#">	-4735
=0.1,	-4736
[...,	-4737
after	-4738
alche	-4739
chunk	-4740
clang	-4741
clear	-4742
cycle	-4743
force	-4744
gname	-4745
golem	-4746
green	-4747
gress	-4748
herit	-4749
hesis	-4750
ialog	-4751
iated	-4752
icons	-4753
ision	-4754
isson	-4755
lform	-4756
minor	-4757
miter	-4758
named	-4759
nelid	-4760
norms	-4761
oppia	-4762
pause	-4763
polic	-4764
polys	-4765
popen	-4766
qtgui	-4767
recur	-4768
reset	-4769
sagne	-4770
score	-4771
sence	-4772
songs	-4773
stock	-4774
strap	-4775
terns	-4776
theta	-4777
topic	-4778
toxin	-4779
uples	-4780
xture	-4781
yload	-4782
▁$('#	-4783
▁("\\	-4784
▁bins	-4785
▁care	-4786
▁cred	-4787
▁days	-4788
▁even	-4789
▁fake	-4790
▁game	-4791
▁good	-4792
▁hard	-4793
▁hass	-4794
▁lang	-4795
▁logs	-4796
▁mime	-4797
▁misc	-4798
▁most	-4799
▁move	-4800
▁much	-4801
▁nltk	-4802
▁offi	-4803
▁once	-4804
▁pend	-4805
▁prec	-4806
▁real	-4807
▁rows	-4808
▁shut	-4809
▁side	-4810
▁sqrt	-4811
▁tags	-4812
▁uint	-4813
▁urls	-4814
▁wrap	-4815
▁writ	-4816
adcast	-4817
artist	-4818
backup	-4819
before	-4820
cluded	-4821
ctypes	-4822
differ	-4823
exists	-4824
footer	-4825
gather	-4826
google	-4827
gratul	-4828
hashes	-4829
indent	-4830
labels	-4831
liance	-4832
lihood	-4833
locate	-4834
market	-4835
nippet	-4836
places	-4837
pretty	-4838
record	-4839
resses	-4840
router	-4841
screen	-4842
second	-4843
signed	-4844
single	-4845
stderr	-4846
stripe	-4847
titles	-4848
urllib	-4849
wallet	-4850
wnagot	-4851
worker	-4852
▁2014/	-4853
▁agent	-4854
▁alpha	-4855
▁appro	-4856
▁basis	-4857
▁cases	-4858
▁catch	-4859
▁child	-4860
▁delet	-4861
▁devel	-4862
▁ember	-4863
▁empty	-4864
▁fixme	-4865
▁flash	-4866
▁ispkg	-4867
▁large	-4868
▁looks	-4869
▁makes	-4870
▁might	-4871
▁modal	-4872
▁mongo	-4873
▁mxnet	-4874
▁mycli	-4875
▁norms	-4876
▁notes	-4877
▁oppia	-4878
▁paper	-4879
▁paths	-4880
▁peter	-4881
▁pixel	-4882
▁ratio	-4883
▁reuse	-4884
▁sched	-4885
▁shard	-4886
▁shown	-4887
▁shows	-4888
▁spawn	-4889
▁units	-4890
▁while	-4891
▁wrong	-4892
-------	-4893
ability	-4894
alchemy	-4895
asarray	-4896
authors	-4897
cessary	-4898
changes	-4899
choices	-4900
devices	-4901
dirname	-4902
flatten	-4903
ignored	-4904
macroot	-4905
mailbox	-4906
matches	-4907
missing	-4908
patches	-4909
payment	-4910
poisson	-4911
ppavlov	-4912
present	-4913
preview	-4914
qdialog	-4915
ression	-4916
running	-4917
sigalrm	-4918
signals	-4919
stacked	-4920
stories	-4921
stretch	-4922
tangent	-4923
targets	-4924
testing	-4925
toolbar	-4926
tooltip	-4927
torrent	-4928
twitter	-4929
tzinfos	-4930
witches	-4931
zeronet	-4932
▁always	-4933
▁around	-4934
▁bitmap	-4935
▁bounds	-4936
▁buffer	-4937
▁cursor	-4938
▁debian	-4939
▁deprec	-4940
▁dialog	-4941
▁enumer	-4942
▁google	-4943
▁insert	-4944
▁legend	-4945
▁longer	-4946
▁lookup	-4947
▁myplex	-4948
▁passed	-4949
▁player	-4950
▁pretty	-4951
▁pylint	-4952
▁reprec	-4953
▁runner	-4954
▁shells	-4955
▁slices	-4956
▁struct	-4957
▁switch	-4958
▁symbol	-4959
▁tensor	-4960
▁zerver	-4961
********	-4962
^^^^^^^^	-4963
accounts	-4964
babelpkg	-4965
bsession	-4966
comments	-4967
complete	-4968
directed	-4969
dividual	-4970
encoding	-4971
evaluate	-4972
features	-4973
identity	-4974
integerv	-4975
longname	-4976
notebook	-4977
override	-4978
pagesize	-4979
presence	-4980
readonly	-4981
reground	-4982
renderer	-4983
rollback	-4984
sessions	-4985
strategy	-4986
tutorial	-4987
verified	-4988
▁ability	-4989
▁account	-4990
▁classes	-4991
▁clauses	-4992
▁control	-4993
▁depends	-4994
▁disable	-4995
▁editing	-4996
▁edition	-4997
▁execute	-4998
▁feature	-4999
▁filters	-5000
▁lengths	-5001
▁mobject	-5002
▁pexpect	-5003
▁reactor	-5004
▁setting	-5005
▁snippet	-5006
▁spotify	-5007
▁targets	-5008
▁verbose	-5009
baseestim	-5010
dataframe	-5011
different	-5012
dimension	-5013
entifiers	-5014
extension	-5015
generator	-5016
inputtype	-5017
insertion	-5018
interface	-5019
keepalive	-5020
mezzanine	-5021
modelform	-5022
subreddit	-5023
toxinidir	-5024
wnagotchi	-5025
▁argparse	-5026
▁builtins	-5027
▁consider	-5028
▁constant	-5029
▁delegate	-5030
▁download	-5031
▁electrum	-5032
▁feedback	-5033
▁finished	-5034
▁generate	-5035
▁hostname	-5036
▁importer	-5037
▁includes	-5038
▁integral	-5039
▁interval	-5040
▁makefile	-5041
▁maxdelay	-5042
▁notebook	-5043
▁official	-5044
▁patterns	-5045
▁pipeline	-5046
▁policies	-5047
▁preserve	-5048
▁priority	-5049
▁property	-5050
▁schedule	-5051
▁selected	-5052
▁separate	-5053
▁terminal	-5054
▁treenode	-5055
▁warnings	-5056
▁webnotes	-5057
asserttrue	-5058
descriptor	-5059
dexception	-5060
editobject	-5061
likelihood	-5062
screenshot	-5063
workspaces	-5064
▁congratul	-5065
▁construct	-5066
▁dataframe	-5067
▁deferreds	-5068
▁determine	-5069
▁distutils	-5070
▁ffversion	-5071
▁placement	-5072
▁selection	-5073
▁suggested	-5074
▁taoptions	-5075
▁traceback	-5076
▁tracename	-5077
▁validated	-5078
lengthscale	-5079
marketplace	-5080
operational	-5081
qmainwindow	-5082
unprocessed	-5083
▁additional	-5084
▁deeppavlov	-5085
▁dictionary	-5086
▁lemmatizer	-5087
▁mainwindow	-5088
▁namelength	-5089
▁operations	-5090
▁webbrowser	-5091
assertequals	-5092
baseoperator	-5093
construction	-5094
experimental	-5095
▁limitations	-5096
▁sortimports	-5097
▁transaction	-5098
baseestimator	-5099
bayesmixedglm	-5100
glgetintegerv	-5101
layoutediting	-5102
variantinline	-5103
▁applications	-5104
▁contributors	-5105
▁independence	-5106
▁reconnecting	-5107
▁slavebuilder	-5108
nelidentifiers	-5109
proptrainermix	-5110
▁attributeerror	-5111
▁mixturedensity	-5112
~~~~~~~~~~~~~~~~	-5113
▁congratulations	-5114
▁geodistribution	-5115
#3	-5116
$_	-5117
%-	-5118
*-	-5119
+"	-5120
+0	-5121
-3	-5122
."	-5123
.1	-5124
/"	-5125
09	-5126
1(	-5127
1*	-5128
1=	-5129
3'	-5130
3}	-5131
55	-5132
65	-5133
71	-5134
9,	-5135
92	-5136
98	-5137
:'	-5138
:^	-5139
;"	-5140
=-	-5141
=2	-5142
=`	-5143
[(	-5144
[2	-5145
[<	-5146
[[	-5147
]*	-5148
_.	-5149
cm	-5150
ef	-5151
ii	-5152
ka	-5153
ku	-5154
mx	-5155
nx	-5156
ov	-5157
pm	-5158
pr	-5159
pv	-5160
sr	-5161
tk	-5162
tx	-5163
vm	-5164
wt	-5165
xz	-5166
{2	-5167
{:	-5168
")"	-5169
").	-5170
###	-5171
'$_	-5172
("(	-5173
($_	-5174
(2)	-5175
(:?	-5176
)).	-5177
)])	-5178
**3	-5179
,'/	-5180
-1]	-5181
.0/	-5182
/0.	-5183
001	-5184
00;	-5185
08/	-5186
160	-5187
197	-5188
1}{	-5189
227	-5190
23,	-5191
25,	-5192
288	-5193
3',	-5194
501	-5195
577	-5196
5](	-5197
64,	-5198
64.	-5199
64_	-5200
650	-5201
66,	-5202
7.0	-5203
806	-5204
8]`	-5205
998	-5206
:')	-5207
:00	-5208
;"'	-5209
="7	-5210
='*	-5211
=0)	-5212
=10	-5213
=2)	-5214
=5,	-5215
=["	-5216
={'	-5217
[*]	-5218
][\	-5219
_].	-5220
__,	-5221
`).	-5222
amo	-5223
bat	-5224
can	-5225
cca	-5226
cfg	-5227
cin	-5228
cmp	-5229
cro	-5230
dfs	-5231
dll	-5232
dna	-5233
duo	-5234
ene	-5235
eno	-5236
enr	-5237
fam	-5238
fmt	-5239
ias	-5240
idx	-5241
idy	-5242
ios	-5243
jai	-5244
jid	-5245
ked	-5246
lah	-5247
may	-5248
mgr	-5249
mov	-5250
mrc	-5251
mtx	-5252
mut	-5253
ndk	-5254
nmy	-5255
oms	-5256
ows	-5257
pow	-5258
ppe	-5259
pth	-5260
pur	-5261
rbf	-5262
rgx	-5263
rse	-5264
sim	-5265
src	-5266
ssh	-5267
sso	-5268
tel	-5269
tof	-5270
tok	-5271
two	-5272
uff	-5273
umb	-5274
utc	-5275
vat	-5276
vie	-5277
vor	-5278
xcv	-5279
xor	-5280
ypo	-5281
zen	-5282
{1,	-5283
}-{	-5284
}/>	-5285
▁"'	-5286
▁"_	-5287
▁#3	-5288
▁#{	-5289
▁$?	-5290
▁%%	-5291
▁&.	-5292
▁':	-5293
▁'{	-5294
▁(-	-5295
▁({	-5296
▁);	-5297
▁*[	-5298
▁-2	-5299
▁19	-5300
▁2*	-5301
▁23	-5302
▁3:	-5303
▁40	-5304
▁::	-5305
▁;;	-5306
▁<!	-5307
▁[1	-5308
▁[@	-5309
▁[[	-5310
▁_(	-5311
▁_:	-5312
▁bf	-5313
▁cc	-5314
▁du	-5315
▁dy	-5316
▁et	-5317
▁fq	-5318
▁hb	-5319
▁he	-5320
▁ll	-5321
▁lr	-5322
▁ru	-5323
▁sv	-5324
▁ti	-5325
')])	-5326
'])+	-5327
()),	-5328
()])	-5329
(1),	-5330
/../	-5331
0-9]	-5332
0001	-5333
01</	-5334
200\	-5335
4-01	-5336
4788	-5337
4_0.	-5338
6,7,	-5339
9-10	-5340
9207	-5341
9999	-5342
="#"	-5343
="$_	-5344
="0"	-5345
=0),	-5346
=_("	-5347
_][\	-5348
__')	-5349
__))	-5350
amos	-5351
amqp	-5352
anto	-5353
apit	-5354
area	-5355
babf	-5356
band	-5357
bber	-5358
bbox	-5359
berg	-5360
buff	-5361
byte	-5362
cexp	-5363
coal	-5364
cobb	-5365
cort	-5366
cron	-5367
ctgg	-5368
ctoc	-5369
days	-5370
east	-5371
erta	-5372
fair	-5373
fill	-5374
four	-5375
gate	-5376
gwin	-5377
haps	-5378
hest	-5379
hide	-5380
ient	-5381
ifai	-5382
iloc	-5383
isor	-5384
iver	-5385
ives	-5386
ivre	-5387
java	-5388
lank	-5389
leep	-5390
life	-5391
look	-5392
mant	-5393
mbin	-5394
mini	-5395
more	-5396
most	-5397
msie	-5398
nado	-5399
ncur	-5400
nvis	-5401
nzbs	-5402
oice	-5403
omat	-5404
otal	-5405
pipe	-5406
plex	-5407
poch	-5408
rand	-5409
rest	-5410
same	-5411
shes	-5412
shop	-5413
strf	-5414
tabs	-5415
team	-5416
tist	-5417
tran	-5418
tree	-5419
uest	-5420
uint	-5421
utco	-5422
ypot	-5423
ysql	-5424
{1}{	-5425
{22,	-5426
▁"$(	-5427
▁%>"	-5428
▁%>>	-5429
▁'')	-5430
▁([4	-5431
▁-*-	-5432
▁1")	-5433
▁2),	-5434
▁300	-5435
▁40,	-5436
▁<%=	-5437
▁[*]	-5438
▁[--	-5439
▁]];	-5440
▁__`	-5441
▁age	-5442
▁air	-5443
▁awx	-5444
▁cgi	-5445
▁cle	-5446
▁dct	-5447
▁dot	-5448
▁esc	-5449
▁fpm	-5450
▁ips	-5451
▁mer	-5452
▁mov	-5453
▁own	-5454
▁pid	-5455
▁pop	-5456
▁rpc	-5457
▁sci	-5458
▁sed	-5459
▁smd	-5460
▁sol	-5461
▁ssh	-5462
▁too	-5463
▁unk	-5464
▁uri	-5465
▁urn	-5466
▁vul	-5467
▁yet	-5468
▁{0}	-5469
▁{};	-5470
!](#-	-5471
(',')	-5472
('.')	-5473
('../	-5474
(-0.2	-5475
(/\/\	-5476
*)/(\	-5477
.0/24	-5478
="<%-	-5479
\[([\	-5480
`__{:	-5481
ached	-5482
actly	-5483
album	-5484
alian	-5485
black	-5486
casts	-5487
cells	-5488
cepts	-5489
chain	-5490
chema	-5491
cloak	-5492
codes	-5493
coind	-5494
dense	-5495
encen	-5496
erial	-5497
ested	-5498
evalu	-5499
facts	-5500
ffici	-5501
fixed	-5502
flags	-5503
formp	-5504
going	-5505
ially	-5506
ibler	-5507
ilent	-5508
imate	-5509
jaili	-5510
journ	-5511
lopen	-5512
maker	-5513
mbers	-5514
meval	-5515
modul	-5516
mxnet	-5517
namic	-5518
ndims	-5519
nmyst	-5520
ories	-5521
orrow	-5522
orted	-5523
pagin	-5524
pairs	-5525
paste	-5526
paths	-5527
peers	-5528
phony	-5529
popup	-5530
posal	-5531
proto	-5532
quece	-5533
radio	-5534
ramid	-5535
sport	-5536
surro	-5537
tline	-5538
trust	-5539
ucher	-5540
udesc	-5541
unbro	-5542
undle	-5543
vatar	-5544
vdims	-5545
vicon	-5546
watch	-5547
{1,3}	-5548
{}/{}	-5549
▁""".	-5550
▁"[*]	-5551
▁%}">	-5552
▁([#3	-5553
▁([47	-5554
▁appe	-5555
▁boto	-5556
▁buff	-5557
▁bugs	-5558
▁buku	-5559
▁card	-5560
▁chan	-5561
▁cols	-5562
▁cook	-5563
▁disk	-5564
▁draw	-5565
▁dump	-5566
▁easy	-5567
▁fall	-5568
▁fast	-5569
▁fork	-5570
▁fuse	-5571
▁hack	-5572
▁hope	-5573
▁ints	-5574
▁khal	-5575
▁kind	-5576
▁late	-5577
▁lead	-5578
▁logo	-5579
▁many	-5580
▁mean	-5581
▁migr	-5582
▁mong	-5583
▁pers	-5584
▁pick	-5585
▁pool	-5586
▁prev	-5587
▁pull	-5588
▁pypi	-5589
▁qtpy	-5590
▁repe	-5591
▁repl	-5592
▁rule	-5593
▁scud	-5594
▁simp	-5595
▁typo	-5596
▁unne	-5597
▁vars	-5598
▁wide	-5599
▁xcha	-5600
▁year	-5601
(:?)',	-5602
+0200\	-5603
------	-5604
="$($_	-5605
>301</	-5606
assign	-5607
assume	-5608
bindir	-5609
called	-5610
cancel	-5611
deprec	-5612
engine	-5613
events	-5614
expand	-5615
explor	-5616
finder	-5617
frappe	-5618
getype	-5619
granto	-5620
hasarg	-5621
ically	-5622
ighest	-5623
isfile	-5624
issues	-5625
lapsed	-5626
latent	-5627
licing	-5628
linked	-5629
linter	-5630
loaded	-5631
loader	-5632
lstrip	-5633
middle	-5634
mirror	-5635
mkdocs	-5636
negbin	-5637
neighb	-5638
netcdf	-5639
packer	-5640
parsed	-5641
person	-5642
pkgref	-5643
regexm	-5644
ritain	-5645
rypted	-5646
scheme	-5647
sentry	-5648
shrink	-5649
sprops	-5650
submit	-5651
syslog	-5652
ticker	-5653
tokens	-5654
typing	-5655
walker	-5656
▁([#47	-5657
▁**93.	-5658
▁0.50,	-5659
▁0.66,	-5660
▁14788	-5661
▁3.71,	-5662
▁again	-5663
▁album	-5664
▁bases	-5665
▁begin	-5666
▁blank	-5667
▁books	-5668
▁cache	-5669
▁calls	-5670
▁categ	-5671
▁crash	-5672
▁creep	-5673
▁dirac	-5674
▁faces	-5675
▁flake	-5676
▁force	-5677
▁gamos	-5678
▁gname	-5679
▁guide	-5680
▁hypot	-5681
▁isosx	-5682
▁items	-5683
▁jails	-5684
▁klass	-5685
▁magic	-5686
▁modes	-5687
▁mysql	-5688
▁owner	-5689
▁pairs	-5690
▁power	-5691
▁price	-5692
▁pydoc	-5693
▁qmenu	-5694
▁qvbox	-5695
▁rules	-5696
▁seems	-5697
▁sense	-5698
▁shape	-5699
▁shrin	-5700
▁simil	-5701
▁slice	-5702
▁small	-5703
▁space	-5704
▁speed	-5705
▁stats	-5706
▁steps	-5707
▁suite	-5708
▁synap	-5709
▁terms	-5710
▁texts	-5711
▁those	-5712
▁total	-5713
▁works	-5714
.*$/,'/	-5715
2014-01	-5716
6,7,8]`	-5717
9-10-03	-5718
android	-5719
asserta	-5720
binding	-5721
capture	-5722
classes	-5723
cobbler	-5724
counter	-5725
country	-5726
ctories	-5727
defined	-5728
denberg	-5729
divisor	-5730
edition	-5731
example	-5732
expired	-5733
extract	-5734
filterm	-5735
fixture	-5736
foreach	-5737
gccname	-5738
gettext	-5739
greater	-5740
headers	-5741
indices	-5742
instate	-5743
instead	-5744
journal	-5745
loaders	-5746
metrics	-5747
mirrors	-5748
ncurses	-5749
numbers	-5750
observe	-5751
ongoing	-5752
photons	-5753
profile	-5754
ranches	-5755
refresh	-5756
revised	-5757
rollers	-5758
shifted	-5759
spacing	-5760
ssorted	-5761
stringi	-5762
summary	-5763
testenv	-5764
toblock	-5765
umanize	-5766
unknown	-5767
veloper	-5768
websafe	-5769
{22,23,	-5770
▁1))")"	-5771
▁active	-5772
▁allows	-5773
▁append	-5774
▁artist	-5775
▁attach	-5776
▁basket	-5777
▁border	-5778
▁bottom	-5779
▁breaks	-5780
▁builds	-5781
▁camera	-5782
▁cannot	-5783
▁censor	-5784
▁chosen	-5785
▁cipher	-5786
▁daemon	-5787
▁dbusqt	-5788
▁detect	-5789
▁encode	-5790
▁exceed	-5791
▁german	-5792
▁header	-5793
▁iocage	-5794
▁libffi	-5795
▁mainta	-5796
▁neural	-5797
▁online	-5798
▁pillow	-5799
▁prefer	-5800
▁proble	-5801
▁proces	-5802
▁raises	-5803
▁rather	-5804
▁recomm	-5805
▁region	-5806
▁rounds	-5807
▁scalar	-5808
▁scaled	-5809
▁secexp	-5810
▁sender	-5811
▁shrink	-5812
▁signum	-5813
▁sizeof	-5814
▁states	-5815
▁stored	-5816
▁street	-5817
▁syslog	-5818
▁thanks	-5819
▁things	-5820
▁threat	-5821
▁traces	-5822
▁vision	-5823
▁vulner	-5824
▁walker	-5825
▁webres	-5826
▁worker	-5827
▁xrange	-5828
▁xvalue	-5829
('../../	-5830
0-9._(),	-5831
blockdim	-5832
bookmark	-5833
buildbot	-5834
cfstring	-5835
checkout	-5836
computed	-5837
contacts	-5838
endpoint	-5839
endswith	-5840
ensemble	-5841
examples	-5842
failures	-5843
fairness	-5844
fieldset	-5845
finditer	-5846
gasprice	-5847
generate	-5848
hdfstore	-5849
headless	-5850
homebrew	-5851
iblerows	-5852
ingerror	-5853
internet	-5854
jailicon	-5855
markread	-5856
negative	-5857
nmystery	-5858
noscript	-5859
observer	-5860
polation	-5861
postgres	-5862
previous	-5863
profiles	-5864
pytables	-5865
question	-5866
readable	-5867
rsequece	-5868
services	-5869
snippets	-5870
strftime	-5871
subtitle	-5872
switches	-5873
tomorrow	-5874
trackers	-5875
transact	-5876
valuable	-5877
▁-------	-5878
▁charact	-5879
▁chardet	-5880
▁compare	-5881
▁deleted	-5882
▁envlist	-5883
▁extract	-5884
▁flashid	-5885
▁getting	-5886
▁glances	-5887
▁gobject	-5888
▁inherit	-5889
▁invalid	-5890
▁iocstop	-5891
▁lasagne	-5892
▁layouts	-5893
▁librosa	-5894
▁metavar	-5895
▁mongodb	-5896
▁mutable	-5897
▁openvpn	-5898
▁pathing	-5899
▁perhaps	-5900
▁pkgutil	-5901
▁prefect	-5902
▁private	-5903
▁publish	-5904
▁pymongo	-5905
▁queries	-5906
▁simplex	-5907
▁sources	-5908
▁spacing	-5909
▁special	-5910
▁summary	-5911
▁sympify	-5912
▁testdir	-5913
▁trigger	-5914
▁unknown	-5915
▁urlopen	-5916
▁visible	-5917
▁voucher	-5918
▁website	-5919
▁writing	-5920
arguments	-5921
bandwidth	-5922
benchmark	-5923
bootstrap	-5924
charfield	-5925
collector	-5926
connector	-5927
datapoint	-5928
direction	-5929
downloads	-5930
envbindir	-5931
increment	-5932
innerhtml	-5933
installed	-5934
languages	-5935
lifecycle	-5936
minilight	-5937
operation	-5938
published	-5939
recursive	-5940
reference	-5941
rendering	-5942
sequencen	-5943
showflash	-5944
structure	-5945
subtensor	-5946
surrogate	-5947
templated	-5948
utcoffset	-5949
validated	-5950
▁2014/08/	-5951
▁activate	-5952
▁advanced	-5953
▁anaconda	-5954
▁buildbot	-5955
▁chainerx	-5956
▁checkout	-5957
▁clarifai	-5958
▁deletion	-5959
▁encoding	-5960
▁exchange	-5961
▁existing	-5962
▁exposure	-5963
▁frontend	-5964
▁gasprice	-5965
▁handlers	-5966
▁included	-5967
▁keepdims	-5968
▁keyboard	-5969
▁licensed	-5970
▁maintain	-5971
▁minimize	-5972
▁networkx	-5973
▁nsstring	-5974
▁operands	-5975
▁overflow	-5976
▁pendulum	-5977
▁performs	-5978
▁playlist	-5979
▁position	-5980
▁postgres	-5981
▁progress	-5982
▁quantity	-5983
▁readline	-5984
▁received	-5985
▁releases	-5986
▁removing	-5987
▁shutting	-5988
▁startgas	-5989
▁tempfile	-5990
▁transfer	-5991
▁updating	-5992
▁xchainer	-5993
2014-01-06	-5994
algorithms	-5995
allocation	-5996
changetype	-5997
dockerfile	-5998
evaluation	-5999
everything	-6000
formplugin	-6001
functional	-6002
individual	-6003
lemmatizer	-6004
management	-6005
matplotlib	-6006
parameters	-6007
parentleft	-6008
preference	-6009
pwnagotchi	-6010
resolution	-6011
subproject	-6012
unverified	-6013
windowlong	-6014
▁bookmarks	-6015
▁botplugin	-6016
▁byteorder	-6017
▁chartview	-6018
▁container	-6019
▁datapoint	-6020
▁defaultip	-6021
▁despotify	-6022
▁detection	-6023
▁discovery	-6024
▁enumerate	-6025
▁fieldname	-6026
▁formatter	-6027
▁generated	-6028
▁holoviews	-6029
▁important	-6030
▁mxndarray	-6031
▁overrides	-6032
▁persistor	-6033
▁powerline	-6034
▁pyopenssl	-6035
▁qlineedit	-6036
▁rendering	-6037
▁scudcloud	-6038
▁sequences	-6039
▁specified	-6040
▁temporary	-6041
▁wallpaper	-6042
cfstringref	-6043
classobject	-6044
constraints	-6045
environment	-6046
filebrowser	-6047
grantoption	-6048
marshmallow	-6049
perspective	-6050
placeholder	-6051
pluginjails	-6052
recentfiles	-6053
unbroadcast	-6054
▁----------	-6055
▁2019-10-03	-6056
▁==========	-6057
▁[5,6,7,8]`	-6058
▁associated	-6059
▁botfactory	-6060
▁chartmodel	-6061
▁compliance	-6062
▁conditions	-6063
▁configured	-6064
▁containing	-6065
▁diracdelta	-6066
▁experiment	-6067
▁foundation	-6068
▁hypothesis	-6069
▁identifier	-6070
▁initialize	-6071
▁installing	-6072
▁iocdestroy	-6073
▁libspotify	-6074
▁makedevice	-6075
▁methoddesc	-6076
▁particular	-6077
▁persistent	-6078
▁processing	-6079
▁properties	-6080
▁repository	-6081
assertaccess	-6082
baseplayback	-6083
detailsprops	-6084
nodeselector	-6085
nvisiblerows	-6086
packagestore	-6087
searchparams	-6088
▁-----------	-6089
▁directories	-6090
▁implemented	-6091
▁perspective	-6092
▁qvboxlayout	-6093
▁recursively	-6094
▁redisbroker	-6095
▁screencasts	-6096
▁stepdivisor	-6097
▁thispointer	-6098
endinghashkey	-6099
gatherresults	-6100
modulessorted	-6101
▁gettracename	-6102
▁telepresence	-6103
▁testhdfstore	-6104
▁transmission	-6105
browsersupport	-6106
initialization	-6107
▁attributepage	-6108
▁compatibility	-6109
▁elasticsearch	-6110
▁endblocktrans	-6111
▁interpolation	-6112
▁mxndarrayload	-6113
▁setwindowlong	-6114
▁specification	-6115
alignparentleft	-6116
startinghashkey	-6117
▁datadescriptor	-6118
▁dbusqtmainloop	-6119
▁reconstruction	-6120
abstractwritable	-6121
connectionfailed	-6122
▁evaluatetangent	-6123
▁linearbandwidth	-6124
$1	-6125
%;	-6126
(5	-6127
(?	-6128
*'	-6129
+=	-6130
/#	-6131
/`	-6132
/{	-6133
0_	-6134
31	-6135
4:	-6136
4;	-6137
5'	-6138
5:	-6139
5;	-6140
5>	-6141
6:	-6142
7:	-6143
8'	-6144
83	-6145
:1	-6146
=%	-6147
=4	-6148
=\	-6149
>,	-6150
>/	-6151
>]	-6152
>`	-6153
?'	-6154
@%	-6155
@2	-6156
_)	-6157
aa	-6158
bf	-6159
bi	-6160
br	-6161
fb	-6162
fn	-6163
fr	-6164
fx	-6165
gp	-6166
hg	-6167
hi	-6168
hy	-6169
ik	-6170
ix	-6171
jn	-6172
ju	-6173
mr	-6174
qa	-6175
rd	-6176
sn	-6177
wi	-6178
xa	-6179
xf	-6180
yu	-6181
zn	-6182
|(	-6183
}.	-6184
▁~	-6185
"].	-6186
"]:	-6187
(""	-6188
(".	-6189
(${	-6190
('_	-6191
(5)	-6192
));	-6193
))]	-6194
*)|	-6195
++)	-6196
-3)	-6197
-64	-6198
-{}	-6199
*/	-6200
(**	-6201
)</	-6202
.+?	-6203
/(.	-6204
/7.	-6205
106	-6206
1](	-6207
2")	-6208
2):	-6209
2.6	-6210
225	-6211
237	-6212
2['	-6213
3':	-6214
311	-6215
316	-6216
32_	-6217
33,	-6218
34,	-6219
348	-6220
3])	-6221
5.4	-6222
507	-6223
7.3	-6224
9.0	-6225
:")	-6226
:${	-6227
:*/	-6228
:28	-6229
:^{	-6230
={}	-6231
>',	-6232
[5:	-6233
\.\	-6234
]')	-6235
]),	-6236
]).	-6237
]);	-6238
]*)	-6239
_2:	-6240
_2_	-6241
_{}	-6242
`_.	-6243
abc	-6244
abi	-6245
acc	-6246
adj	-6247
alt	-6248
arr	-6249
asn	-6250
bbl	-6251
bid	-6252
bil	-6253
bir	-6254
bul	-6255
ccd	-6256
cgi	-6257
cks	-6258
clf	-6259
cnt	-6260
cry	-6261
cwd	-6262
dac	-6263
dsa	-6264
emp	-6265
enh	-6266
eso	-6267
fbe	-6268
fep	-6269
flt	-6270
fpm	-6271
fro	-6272
har	-6273
hex	-6274
ico	-6275
ied	-6276
ife	-6277
ifs	-6278
ili	-6279
iod	-6280
ird	-6281
ish	-6282
jup	-6283
lls	-6284
ltc	-6285
maz	-6286
mis	-6287
miv	-6288
mul	-6289
nbe	-6290
nca	-6291
ndr	-6292
neo	-6293
nil	-6294
nle	-6295
nlg	-6296
nos	-6297
ogs	-6298
oir	-6299
]"	-6300
2.1	-6301
3](	-6302
4',	-6303
4.7	-6304
_1,	-6305
_``	-6306
acl	-6307
agg	-6308
dia	-6309
don	-6310
ora	-6311
ord	-6312
orn	-6313
pam	-6314
php	-6315
por	-6316
pwd	-6317
pyx	-6318
ram	-6319
rar	-6320
rds	-6321
rec	-6322
rem	-6323
rev	-6324
rod	-6325
rut	-6326
sat	-6327
scp	-6328
shr	-6329
sla	-6330
smb	-6331
sph	-6332
sse	-6333
tar	-6334
til	-6335
tin	-6336
trl	-6337
ube	-6338
uby	-6339
uda	-6340
upt	-6341
urf	-6342
ves	-6343
vim	-6344
wee	-6345
you	-6346
zma	-6347
}')	-6348
}))	-6349
▁!$	-6350
▁")	-6351
▁"^	-6352
▁'&	-6353
▁(1	-6354
▁*=	-6355
▁/^	-6356
▁0]	-6357
▁17	-6358
▁25	-6359
▁35	-6360
▁5.	-6361
▁50	-6362
▁7,	-6363
▁=~	-6364
▁[(	-6365
▁[-	-6366
▁[2	-6367
▁[<	-6368
▁\'	-6369
▁],	-6370
▁bg	-6371
▁dx	-6372
▁ed	-6373
▁gh	-6374
▁js	-6375
▁ko	-6376
▁oc	-6377
▁pq	-6378
▁ps	-6379
▁rd	-6380
▁sd	-6381
▁sn	-6382
▁sq	-6383
▁tx	-6384
▁zz	-6385
▁{!	-6386
▁})	-6387
▁}:	-6388
""),	-6389
'));	-6390
'/(\	-6391
']),	-6392
("""	-6393
(.+?	-6394
([],	-6395
({1:	-6396
))/(	-6397
-8')	-6398
..."	-6399
cs	-6400
004	-6401
257	-6402
1.12	-6403
2278	-6404
3000	-6405
32")	-6406
3500	-6407
36}-	-6408
97](	-6409
="1"	-6410
[1].	-6411
[:-1	-6412
\\',	-6413
__(*	-6414
`'):	-6415
adam	-6416
ales	-6417
amel	-6418
aped	-6419
appy	-6420
ario	-6421
ases	-6422
awsp	-6423
bler	-6424
blue	-6425
bold	-6426
boto	-6427
capa	-6428
card	-6429
clip	-6430
copg	-6431
cors	-6432
ctic	-6433
cule	-6434
cump	-6435
deis	-6436
dian	-6437
dupe	-6438
else	-6439
erty	-6440
erun	-6441
exim	-6442
exog	-6443
fact	-6444
figs	-6445
fing	-6446
foun	-6447
full	-6448
gain	-6449
havi	-6450
hhhh	-6451
htof	-6452
ials	-6453
ilip	-6454
inds	-6455
irsb	-6456
isin	-6457
istr	-6458
izes	-6459
jump	-6460
jupo	-6461
kill	-6462
kivy	-6463
lazy	-6464
leaf	-6465
loit	-6466
lstm	-6467
luxt	-6468
mach	-6469
meth	-6470
migr	-6471
mime	-6472
moid	-6473
mole	-6474
news	-6475
nife	-6476
okta	-6477
orgs	-6478
oton	-6479
pare	-6480
pdst	-6481
pper	-6482
priv	-6483
pull	-6484
pytz	-6485
quit	-6486
raps	-6487
remo	-6488
risk	-6489
rols	-6490
ropy	-6491
ross	-6492
scue	-6493
ship	-6494
shut	-6495
simp	-6496
sinc	-6497
spar	-6498
sted	-6499
tely	-6500
ture	-6501
udnn	-6502
ulip	-6503
ulth	-6504
unic	-6505
urls	-6506
vide	-6507
warn	-6508
weak	-6509
west	-6510
wget	-6511
wily	-6512
znab	-6513
{27,	-6514
}.${	-6515
▁"";	-6516
▁"$_	-6517
▁","	-6518
▁"0"	-6519
▁%}?	-6520
▁'-'	-6521
▁(10	-6522
▁---	-6523
▁-->	-6524
▁0),	-6525
▁0.7	-6526
▁1).	-6527
▁1)]	-6528
▁12-	-6529
▁120	-6530
▁1],	-6531
▁3.0	-6532
▁4),	-6533
▁[])	-6534
▁adj	-6535
▁aga	-6536
▁aio	-6537
▁ang	-6538
▁ard	-6539
▁awk	-6540
▁bag	-6541
▁bal	-6542
▁bar	-6543
▁cas	-6544
▁css	-6545
▁den	-6546
▁dns	-6547
▁fam	-6548
▁fed	-6549
▁few	-6550
▁fre	-6551
▁gcc	-6552
▁gtk	-6553
▁ima	-6554
▁img	-6555
▁law	-6556
▁lit	-6557
▁mac	-6558
▁mit	-6559
▁mpk	-6560
▁nmp	-6561
▁occ	-6562
▁psy	-6563
▁pyg	-6564
▁red	-6565
▁scm	-6566
▁sco	-6567
▁seg	-6568
▁sma	-6569
▁sty	-6570
▁sus	-6571
▁svn	-6572
▁tee	-6573
▁tmp	-6574
▁vpn	-6575
▁wav	-6576
▁who	-6577
▁xml	-6578
▁{1:	-6579
▁{}>	-6580
'][0]	-6581
']}),	-6582
(".")	-6583
('/')	-6584
***)|	-6585
-2000	-6586
507](	-6587
6.6',	-6588
86_64	-6589
904.7	-6590
:{}".	-6591
="$1"	-6592
=()):	-6593
=[(0,	-6594
=[]):	-6595
={}):	-6596
[0]['	-6597
[1],1	-6598
[:3])	-6599
agerc	-6600
aking	-6601
alert	-6602
anger	-6603
anism	-6604
apped	-6605
aries	-6606
avbar	-6607
based	-6608
bdist	-6609
birth	-6610
bokeh	-6611
books	-6612
built	-6613
chase	-6614
cmake	-6615
could	-6616
death	-6617
decor	-6618
depth	-6619
digit	-6620
edire	-6621
ently	-6622
epoch	-6623
ffero	-6624
front	-6625
fspro	-6626
given	-6627
hasis	-6628
ident	-6629
iming	-6630
ingsd	-6631
inpre	-6632
iodic	-6633
itude	-6634
izers	-6635
izing	-6636
jinja	-6637
later	-6638
latex	-6639
linet	-6640
maked	-6641
maybe	-6642
mazon	-6643
metic	-6644
mkdir	-6645
modes	-6646
nginx	-6647
noise	-6648
nonce	-6649
oname	-6650
parts	-6651
peech	-6652
posed	-6653
ptime	-6654
pyter	-6655
quick	-6656
refer	-6657
sales	-6658
shall	-6659
sleep	-6660
soabi	-6661
speed	-6662
spons	-6663
steps	-6664
super	-6665
takes	-6666
tasks	-6667
three	-6668
torig	-6669
trast	-6670
uming	-6671
unded	-6672
unnel	-6673
voice	-6674
wards	-6675
wider	-6676
young	-6677
▁'../	-6678
▁(***	-6679
▁(201	-6680
▁--->	-6681
▁...,	-6682
▁10),	-6683
▁1}))	-6684
▁2013	-6685
▁5000	-6686
▁800;	-6687
▁<!--	-6688
▁['--	-6689
▁apps	-6690
▁arch	-6691
▁aren	-6692
▁away	-6693
▁bias	-6694
▁bind	-6695
▁blah	-6696
▁brew	-6697
▁cgit	-6698
▁clon	-6699
▁come	-6700
▁ctrl	-6701
▁cuda	-6702
▁dele	-6703
▁desc	-6704
▁disp	-6705
▁face	-6706
▁gets	-6707
▁ical	-6708
▁idea	-6709
▁jump	-6710
▁less	-6711
▁live	-6712
▁lstm	-6713
▁lzma	-6714
▁mmap	-6715
▁nose	-6716
▁obso	-6717
▁osxv	-6718
▁past	-6719
▁perl	-6720
▁pyro	-6721
▁quit	-6722
▁qweb	-6723
▁repo	-6724
▁rtmp	-6725
▁ruby	-6726
▁runs	-6727
▁scen	-6728
▁sets	-6729
▁spin	-6730
▁spre	-6731
▁vary	-6732
▁walk	-6733
▁went	-6734
▁were	-6735
▁{}'.	-6736
▁}}{%	-6737
",""),	-6738
'")[0]	-6739
-2001.	-6740
0000')	-6741
==0.1.	-6742
==1.0.	-6743
>=1.8,	-6744
[0],))	-6745
adderr	-6746
always	-6747
ameram	-6748
andler	-6749
atives	-6750
attles	-6751
basket	-6752
choice	-6753
clause	-6754
commit	-6755
confli	-6756
corpor	-6757
ctions	-6758
ctures	-6759
cython	-6760
destin	-6761
during	-6762
elcome	-6763
ention	-6764
erture	-6765
finger	-6766
gettra	-6767
havior	-6768
ignkey	-6769
imizer	-6770
ioloop	-6771
iplist	-6772
iptest	-6773
isgrid	-6774
istral	-6775
itlets	-6776
ledger	-6777
lfield	-6778
linger	-6779
london	-6780
magent	-6781
mantic	-6782
minust	-6783
mitted	-6784
modify	-6785
monkey	-6786
multis	-6787
observ	-6788
outube	-6789
pandas	-6790
policy	-6791
poller	-6792
polyps	-6793
poster	-6794
presse	-6795
priate	-6796
primit	-6797
prints	-6798
resize	-6799
selves	-6800
series	-6801
served	-6802
signum	-6803
sphinx	-6804
squeze	-6805
switch	-6806
symbol	-6807
syntax	-6808
trusty	-6809
tuples	-6810
uiview	-6811
umenta	-6812
unding	-6813
unpack	-6814
vevent	-6815
waiter	-6816
wallpa	-6817
xvalue	-6818
▁(`#43	-6819
▁**89.	-6820
▁**96.	-6821
▁100%;	-6822
▁accor	-6823
▁atoms	-6824
▁await	-6825
▁black	-6826
▁clone	-6827
▁ecdsa	-6828
▁euler	-6829
▁every	-6830
▁faker	-6831
▁fdiff	-6832
▁funcs	-6833
▁games	-6834
▁glyph	-6835
▁going	-6836
▁gover	-6837
▁happy	-6838
▁hosts	-6839
▁hyper	-6840
▁idemp	-6841
▁ident	-6842
▁imple	-6843
▁intro	-6844
▁jinja	-6845
▁lists	-6846
▁logic	-6847
▁lower	-6848
▁macos	-6849
▁major	-6850
▁mkdir	-6851
▁newer	-6852
▁nginx	-6853
▁oldac	-6854
▁panel	-6855
▁parts	-6856
▁party	-6857
▁props	-6858
▁pyasn	-6859
▁quote	-6860
▁rally	-6861
▁relev	-6862
▁remot	-6863
▁reply	-6864
▁rerun	-6865
▁rfile	-6866
▁roles	-6867
▁route	-6868
▁rprop	-6869
▁slack	-6870
▁smart	-6871
▁songs	-6872
▁stdin	-6873
▁strip	-6874
▁stuff	-6875
▁surro	-6876
▁synta	-6877
▁takes	-6878
▁tasks	-6879
▁their	-6880
▁toolz	-6881
▁trade	-6882
▁tweak	-6883
▁until	-6884
▁uwsgi	-6885
▁vcard	-6886
▁views	-6887
▁{}/{}	-6888
('20180	-6889
==1.0.1	-6890
accepts	-6891
angular	-6892
archive	-6893
arquivo	-6894
atewith	-6895
awsprop	-6896
backsla	-6897
blocked	-6898
boosted	-6899
capabil	-6900
chantab	-6901
chooser	-6902
compute	-6903
creates	-6904
cumprod	-6905
depends	-6906
dialogs	-6907
disable	-6908
dscript	-6909
duction	-6910
edirect	-6911
endency	-6912
exclude	-6913
favicon	-6914
findall	-6915
fsprogs	-6916
getters	-6917
grabber	-6918
hangout	-6919
hasattr	-6920
ificate	-6921
include	-6922
inition	-6923
keyword	-6924
lineare	-6925
linprog	-6926
listenr	-6927
luxtask	-6928
machine	-6929
methods	-6930
mutable	-6931
origins	-6932
osition	-6933
outputs	-6934
overlap	-6935
plugins	-6936
privacy	-6937
pyramid	-6938
quality	-6939
qwidget	-6940
refused	-6941
regular	-6942
related	-6943
sdfiles	-6944
secretp	-6945
servers	-6946
setattr	-6947
setsock	-6948
setting	-6949
slicing	-6950
sponser	-6951
stopped	-6952
streets	-6953
subform	-6954
uniform	-6955
workers	-6956
wrapped	-6957
zmatrix	-6958
zonekey	-6959
▁'.0/24	-6960
▁(1024,	-6961
▁(`#427	-6962
▁absent	-6963
▁accept	-6964
▁affero	-6965
▁agreed	-6966
▁amazon	-6967
▁arrays	-6968
▁better	-6969
▁broken	-6970
▁bukudb	-6971
▁celery	-6972
▁center	-6973
▁closes	-6974
▁cookie	-6975
▁cygwin	-6976
▁decode	-6977
▁define	-6978
▁detail	-6979
▁entire	-6980
▁errbot	-6981
▁exists	-6982
▁fixing	-6983
▁folder	-6984
▁footer	-6985
▁gather	-6986
▁intern	-6987
▁issues	-6988
▁joined	-6989
▁launch	-6990
▁linked	-6991
▁listen	-6992
▁little	-6993
▁logged	-6994
▁mapper	-6995
▁mocker	-6996
▁moment	-6997
▁nameko	-6998
▁newipv	-6999
▁obtain	-7000
▁period	-7001
▁permut	-7002
▁philip	-7003
▁pickle	-7004
▁potent	-7005
▁progra	-7006
▁quotes	-7007
▁really	-7008
▁record	-7009
▁rename	-7010
▁rescue	-7011
▁resume	-7012
▁revert	-7013
▁scrapy	-7014
▁spaces	-7015
▁sparse	-7016
▁starts	-7017
▁theano	-7018
▁trusty	-7019
▁whites	-7020
advanced	-7021
basepath	-7022
baseview	-7023
bounding	-7024
branches	-7025
building	-7026
contrast	-7027
cortical	-7028
defaults	-7029
discover	-7030
drawable	-7031
enotfoun	-7032
exchange	-7033
exeption	-7034
explorer	-7035
external	-7036
formulas	-7037
gravatar	-7038
idigraph	-7039
istrator	-7040
limiters	-7041
longlong	-7042
luxmerge	-7043
molecule	-7044
networkx	-7045
notexist	-7046
positive	-7047
produces	-7048
progress	-7049
purchase	-7050
qtwebkit	-7051
receiver	-7052
relative	-7053
releases	-7054
requests	-7055
required	-7056
scmtools	-7057
shutdown	-7058
snapshot	-7059
spection	-7060
statuses	-7061
structor	-7062
truncate	-7063
variance	-7064
vertices	-7065
xception	-7066
{1,3}\.\	-7067
{27,36}-	-7068
{}/{}/{}	-7069
▁against	-7070
▁airflow	-7071
▁arquivo	-7072
▁assumed	-7073
▁automat	-7074
▁bytesio	-7075
▁cameram	-7076
▁capture	-7077
▁charset	-7078
▁checked	-7079
▁cleared	-7080
▁consist	-7081
▁creates	-7082
▁credent	-7083
▁devices	-7084
▁dropout	-7085
▁escaped	-7086
▁exactly	-7087
▁expires	-7088
▁express	-7089
▁finally	-7090
▁fitness	-7091
▁fixture	-7092
▁glacier	-7093
▁greater	-7094
▁handles	-7095
▁indices	-7096
▁instant	-7097
▁intelli	-7098
▁italian	-7099
▁matched	-7100
▁members	-7101
▁ndarray	-7102
▁numbers	-7103
▁numenta	-7104
▁occured	-7105
▁operand	-7106
▁ordered	-7107
▁overlap	-7108
▁pathlib	-7109
▁payload	-7110
▁plugins	-7111
▁precise	-7112
▁present	-7113
▁psycopg	-7114
▁quantum	-7115
▁records	-7116
▁refresh	-7117
▁resolve	-7118
▁respons	-7119
▁restore	-7120
▁reverse	-7121
▁signing	-7122
▁skipped	-7123
▁sorting	-7124
▁startup	-7125
▁stopped	-7126
▁strings	-7127
▁synapse	-7128
▁tarsnap	-7129
▁tornado	-7130
▁tribler	-7131
▁various	-7132
▁whether	-7133
'")[0][0]	-7134
127.0.0.1	-7135
addresses	-7136
adminform	-7137
boxlayout	-7138
byteorder	-7139
clusterhq	-7140
constants	-7141
edbrowser	-7142
erializer	-7143
existence	-7144
formatter	-7145
freqtrade	-7146
highlight	-7147
ientation	-7148
important	-7149
inventory	-7150
locations	-7151
negbinclu	-7152
neighbors	-7153
omwrapper	-7154
ontonotes	-7155
osascript	-7156
placement	-7157
portjails	-7158
promptlen	-7159
questions	-7160
quickmark	-7161
setoption	-7162
something	-7163
sysconfig	-7164
timedelta	-7165
torightof	-7166
transport	-7167
verifying	-7168
verifykey	-7169
winpython	-7170
▁addition	-7171
▁aperture	-7172
▁aptitude	-7173
▁assuming	-7174
▁backward	-7175
▁basename	-7176
▁behavior	-7177
▁bitcoind	-7178
▁chunking	-7179
▁datasets	-7180
▁defining	-7181
▁delivery	-7182
▁describe	-7183
▁directly	-7184
▁division	-7185
▁edgelist	-7186
▁extended	-7187
▁failures	-7188
▁getchart	-7189
▁imported	-7190
▁internet	-7191
▁manifest	-7192
▁manifold	-7193
▁markdown	-7194
▁marshall	-7195
▁obsolete	-7196
▁onelogin	-7197
▁optparse	-7198
▁pairinfo	-7199
▁pgettext	-7200
▁positive	-7201
▁propbank	-7202
▁properly	-7203
▁proposal	-7204
▁provides	-7205
▁pyqtslot	-7206
▁qtwebkit	-7207
▁randomly	-7208
▁readmemd	-7209
▁refactor	-7210
▁reoffset	-7211
▁repeated	-7212
▁reported	-7213
▁rollback	-7214
▁samtools	-7215
▁savepath	-7216
▁scenario	-7217
▁semantic	-7218
▁snapshot	-7219
▁stringio	-7220
▁stripped	-7221
▁truncate	-7222
▁tutorial	-7223
▁unsigned	-7224
▁workflow	-7225
("//",""),	-7226
('.')[:3])	-7227
==22.0.5"]	-7228
==23.0.0"]	-7229
adderrback	-7230
augmenters	-7231
callremote	-7232
coveragerc	-7233
dependency	-7234
distribute	-7235
frameworks	-7236
ignorecase	-7237
ingsdfiles	-7238
linuxjails	-7239
loginstate	-7240
observable	-7241
pagination	-7242
poissonclu	-7243
pressevent	-7244
primitives	-7245
registered	-7246
serializer	-7247
setenabled	-7248
setsockopt	-7249
stacklevel	-7250
staticpage	-7251
statistics	-7252
transition	-7253
ulthandler	-7254
undirected	-7255
valueerror	-7256
veloperkey	-7257
wallpapers	-7258
withvalues	-7259
▁---------	-7260
▁=========	-7261
▁according	-7262
▁actionban	-7263
▁animation	-7264
▁benchmark	-7265
▁calculate	-7266
▁constants	-7267
▁delimiter	-7268
▁downloads	-7269
▁duplicate	-7270
▁estimated	-7271
▁governing	-7272
▁gridstack	-7273
▁hbchannel	-7274
▁highlight	-7275
▁imagedraw	-7276
▁integrate	-7277
▁ipaddress	-7278
▁iteration	-7279
▁magicmock	-7280
▁persisted	-7281
▁processes	-7282
▁published	-7283
▁restarted	-7284
▁searching	-7285
▁seqrecord	-7286
▁serialize	-7287
▁statement	-7288
▁subtitles	-7289
▁syntactic	-7290
▁tableexpr	-7291
▁templated	-7292
▁textinput	-7293
▁timedelta	-7294
▁tokenizer	-7295
▁unchanged	-7296
▁webserver	-7297
==22.0.5"]'	-7298
==23.0.0"]'	-7299
awsproperty	-7300
backloading	-7301
baseimaging	-7302
baselibrary	-7303
conditional	-7304
contenttype	-7305
descriptors	-7306
destination	-7307
distributed	-7308
groupoffice	-7309
hiddeninput	-7310
information	-7311
isevaluable	-7312
metricnames	-7313
prettyprint	-7314
qutebrowser	-7315
readthedocs	-7316
recursively	-7317
requirement	-7318
transformer	-7319
unsupported	-7320
▁**********	-7321
▁++++++++++	-7322
▁animations	-7323
▁applicable	-7324
▁blocktrans	-7325
▁buildslave	-7326
▁delimiters	-7327
▁deprecated	-7328
▁duplicates	-7329
▁everything	-7330
▁expression	-7331
▁foreground	-7332
▁idempotent	-7333
▁imageframe	-7334
▁implements	-7335
▁maintainer	-7336
▁management	-7337
▁merchantab	-7338
▁oldaccount	-7339
▁parameters	-7340
▁previously	-7341
▁qubolehook	-7342
▁regression	-7343
▁serializer	-7344
▁sqlalchemy	-7345
▁statements	-7346
▁statistics	-7347
▁subclasses	-7348
▁surrounded	-7349
▁userschema	-7350
▁visibility	-7351
▁warranties	-7352
▁whitespace	-7353
("//{}/{}/{}	-7354
assertraises	-7355
capabilities	-7356
disconnected	-7357
fingerprints	-7358
glgetstringi	-7359
instructions	-7360
joblifecycle	-7361
linetestcase	-7362
minustrainer	-7363
serviceproxy	-7364
spotifytrack	-7365
▁animatewith	-7366
▁appropriate	-7367
▁basecommand	-7368
▁cameramjpeg	-7369
▁clusterhqci	-7370
▁connections	-7371
▁contenttype	-7372
▁controllers	-7373
▁filenotfoun	-7374
▁fillsubform	-7375
▁gotpassword	-7376
▁imageinline	-7377
▁keybindings	-7378
▁lengthscale	-7379
▁permissions	-7380
▁potentially	-7381
▁readthedocs	-7382
▁recommended	-7383
▁reviewboard	-7384
▁tablesymbol	-7385
▁translation	-7386
▁unnecessary	-7387
▁vagrantfile	-7388
dashboarddata	-7389
dispersionset	-7390
exeptionerror	-7391
homeassistant	-7392
paddingbottom	-7393
referenceable	-7394
specification	-7395
▁commanderror	-7396
▁improvements	-7397
▁localstorage	-7398
▁papermanager	-7399
▁qapplication	-7400
▁redistribute	-7401
▁spotifytrack	-7402
exceptionerror	-7403
isgriddisabled	-7404
locallylineare	-7405
mixturedensity	-7406
secretpassword	-7407
sponseredirect	-7408
userserializer	-7409
▁anonymoususer	-7410
▁authenticated	-7411
▁canchangetype	-7412
▁clientdataset	-7413
▁packagefinder	-7414
▁vulnerability	-7415
backproptrainer	-7416
dialogmodelform	-7417
validationerror	-7418
▁authentication	-7419
▁feedbackdialog	-7420
▁implementation	-7421
▁initialization	-7422
▁paymentfailure	-7423
▁policyensemble	-7424
▁shirtadminform	-7425
▁subtitlespeech	-7426
▁testpoissonclu	-7427
▁uninstallation	-7428
negativebinomial	-7429
redditcontroller	-7430
▁createsubreddit	-7431
▁existingsdfiles	-7432
▁merchantability	-7433
▁viewpluginjails	-7434
"},	-7435
($4	-7436
(*[	-7437
(3)	-7438
(99	-7439
(\"	-7440
(_,	-7441
)-8	-7442
)/;	-7443
*[^	-7444
+4-	-7445
-4)	-7446
-53	-7447
.,;	-7448
/'>	-7449
/(?	-7450
173	-7451
2/*	-7452
228	-7453
260	-7454
317	-7455
32,	-7456
330	-7457
367	-7458
37-	-7459
40)	-7460
405	-7461
411	-7462
454	-7463
476	-7464
477	-7465
496	-7466
537	-7467
547	-7468
549	-7469
60*	-7470
609	-7471
687	-7472
697	-7473
7.1	-7474
7.2	-7475
728	-7476
763	-7477
7\.	-7478
80/	-7479
836	-7480
856	-7481
90;	-7482
946	-7483
953	-7484
970	-7485
977	-7486
999	-7487
=$?	-7488
=7,	-7489
=[{	-7490
=`*	-7491
[:,	-7492
[:5	-7493
_->	-7494
`:/	-7495
awk	-7496
bay	-7497
bcc	-7498
bmc	-7499
"((	-7500
'."	-7501
(((	-7502
-08	-7503
431	-7504
`.\	-7505
ccn	-7506
cgg	-7507
ebp	-7508
emu	-7509
gwt	-7510
iaz	-7511
krb	-7512
mvt	-7513
pvc	-7514
six	-7515
sky	-7516
srt	-7517
udw	-7518
vfb	-7519
xbc	-7520
{0}	-7521
}".	-7522
▁5:	-7523
▁60	-7524
▁6;	-7525
▁7.	-7526
▁8*	-7527
▁8,	-7528
▁80	-7529
▁95	-7530
">\1	-7531
#389	-7532
'201	-7533
('./	-7534
(**{	-7535
(-1,	-7536
(1))	-7537
(10,	-7538
(24,	-7539
(99)	-7540
(['(	-7541
)**2	-7542
)}/>	-7543
**14	-7544
**21	-7545
*,*.	-7546
-%02	-7547
-9])	-7548
.650	-7549
/*",	-7550
/2',	-7551
/{}.	-7552
0.20	-7553
008'	-7554
0106	-7555
0144	-7556
0525	-7557
0}))	-7558
1059	-7559
1164	-7560
1197	-7561
1301	-7562
1821	-7563
2.7"	-7564
2.7-	-7565
256.	-7566
27}-	-7567
29](	-7568
335,	-7569
3525	-7570
5068	-7571
6.4.	-7572
63](	-7573
68](	-7574
8"><	-7575
8'),	-7576
8050	-7577
8077	-7578
85",	-7579
90.1	-7580
9760	-7581
:8.0	-7582
="12	-7583
="20	-7584
="3"	-7585
="@+	-7586
="{'	-7587
=0.1	-7588
=1.,	-7589
=1{%	-7590
==0)	-7591
>/</	-7592
>=0.	-7593
[:1:	-7594
[:5]	-7595
\1',	-7596
](/#	-7597
_024	-7598
`](#	-7599
$//	-7600
1".	-7601
5.0	-7602
506	-7603
6.0	-7604
924	-7605
=1)	-7606
=19	-7607
ecc	-7608
ecp	-7609
ncy	-7610
ofb	-7611
▁5*	-7612
"]*)	-7613
$//'	-7614
0.24	-7615
00.0	-7616
adow	-7617
aksh	-7618
alys	-7619
apex	-7620
asci	-7621
audi	-7622
beat	-7623
bech	-7624
bnzb	-7625
boxc	-7626
brid	-7627
clau	-7628
cntl	-7629
coef	-7630
crop	-7631
cros	-7632
crum	-7633
cvsp	-7634
ddly	-7635
each	-7636
flex	-7637
fold	-7638
freq	-7639
glob	-7640
gwtf	-7641
hold	-7642
idpc	-7643
inov	-7644
kits	-7645
laze	-7646
lbox	-7647
lccn	-7648
lify	-7649
marc	-7650
miva	-7651
mobi	-7652
mptt	-7653
nets	-7654
ombu	-7655
opts	-7656
phed	-7657
poll	-7658
rcsp	-7659
rtmp	-7660
snew	-7661
snmp	-7662
surf	-7663
tian	-7664
tidy	-7665
tttc	-7666
uous	-7667
vars	-7668
vmtx	-7669
vorb	-7670
wide	-7671
wiks	-7672
wood	-7673
|]')	-7674
}}]"	-7675
▁":"	-7676
▁#40	-7677
▁'*.	-7678
▁'?'	-7679
▁($5	-7680
▁(2,	-7681
▁));	-7682
▁*/_	-7683
▁+\%	-7684
▁-1:	-7685
▁.5,	-7686
▁/$1	-7687
▁/*!	-7688
▁10:	-7689
▁150	-7690
▁22:	-7691
▁3.5	-7692
▁7])	-7693
▁80)	-7694
▁90;	-7695
▁<>\	-7696
▁["/	-7697
▁['$	-7698
▁[1]	-7699
tg	-7700
(3,	-7701
)|(	-7702
*",	-7703
/",	-7704
5",	-7705
9](	-7706
>",	-7707
acu	-7708
fol	-7709
iel	-7710
loa	-7711
mal	-7712
mer	-7713
osh	-7714
pir	-7715
vig	-7716
vol	-7717
▁$6	-7718
▁*`	-7719
▁`*	-7720
+=",	-7721
6[0]	-7722
atca	-7723
cost	-7724
cttg	-7725
lisp	-7726
taig	-7727
trun	-7728
vacu	-7729
▁$6}	-7730
▁0.0	-7731
▁[];	-7732
▁`${	-7733
▁`*`	-7734
▁aud	-7735
▁crt	-7736
▁csv	-7737
▁dna	-7738
▁dst	-7739
▁eof	-7740
▁hon	-7741
▁llc	-7742
▁ltd	-7743
▁nlg	-7744
▁pie	-7745
▁rng	-7746
▁rpm	-7747
▁srt	-7748
▁tty	-7749
▁vpc	-7750
▁xcv	-7751
▁ycm	-7752
▁{})	-7753
'2000	-7754
'])))	-7755
("2")	-7756
('_',	-7757
)}/>}	-7758
)}}',	-7759
*$//'	-7760
*****	-7761
----#	-7762
.,;:'	-7763
0.3.1	-7764
0.9.9	-7765
0335,	-7766
1.0.7	-7767
10.00	-7768
23549	-7769
24}-{	-7770
25}-{	-7771
27763	-7772
2==2.	-7773
35254	-7774
47806	-7775
495](	-7776
501](	-7777
506](	-7778
53760	-7779
6680/	-7780
94500	-7781
://{}	-7782
:5000	-7783
:8000	-7784
::-1]	-7785
=")))	-7786
='/'>	-7787
==1.1	-7788
>=1.1	-7789
[-1],	-7790
[0]))	-7791
[2]['	-7792
[<(1,	-7793
\''))	-7794
\.7\.	-7795
])[1]	-7796
_008=	-7797
`'):]	-7798
accat	-7799
=5	-7800
')]	-7801
('0	-7802
('?	-7803
0")	-7804
2}}	-7805
="!	-7806
=")	-7807
][0	-7808
cvs	-7809
dos	-7810
ema	-7811
gma	-7812
hip	-7813
seu	-7814
squ	-7815
vec	-7816
▁4:	-7817
▁[#	-7818
▁[`	-7819
▁gi	-7820
▁px	-7821
▁}.	-7822
"/><	-7823
')):	-7824
-3.0	-7825
="!$	-7826
alls	-7827
arty	-7828
atta	-7829
emai	-7830
gion	-7831
pseu	-7832
pypi	-7833
quid	-7834
xbmc	-7835
xone	-7836
▁-1;	-7837
▁alt	-7838
▁thr	-7839
▁yum	-7840
][0](	-7841
alics	-7842
ander	-7843
aniel	-7844
aring	-7845
ascii	-7846
asive	-7847
attgt	-7848
audio	-7849
aussi	-7850
aware	-7851
awsec	-7852
basic	-7853
blaze	-7854
break	-7855
ccaat	-7856
child	-7857
comes	-7858
comms	-7859
couch	-7860
ctcgg	-7861
cudnn	-7862
cvsig	-7863
datum	-7864
disks	-7865
emote	-7866
endor	-7867
erics	-7868
esour	-7869
extre	-7870
fluid	-7871
gedin	-7872
gmail	-7873
great	-7874
guest	-7875
haust	-7876
hooks	-7877
icorn	-7878
idump	-7879
ilver	-7880
ircle	-7881
ising	-7882
keyus	-7883
knife	-7884
kombu	-7885
large	-7886
lexec	-7887
libgl	-7888
lined	-7889
loits	-7890
lural	-7891
misag	-7892
monty	-7893
msgid	-7894
naker	-7895
nutil	-7896
ptvie	-7897
quene	-7898
ragma	-7899
ky	-7900
|.	-7901
}`	-7902
(-1	-7903
--;	-7904
/__	-7905
128	-7906
6']	-7907
abb	-7908
ahi	-7909
aki	-7910
ijn	-7911
ium	-7912
kps	-7913
med	-7914
sol	-7915
thr	-7916
unl	-7917
▁*)	-7918
▁-4	-7919
▁eb	-7920
2>{%	-7921
__()	-7922
abbb	-7923
aged	-7924
cili	-7925
ders	-7926
haan	-7927
igns	-7928
isal	-7929
kers	-7930
orge	-7931
rief	-7932
thre	-7933
▁big	-7934
▁due	-7935
▁eli	-7936
▁ptr	-7937
(-1))	-7938
0000)	-7939
_008)	-7940
aigns	-7941
akiri	-7942
brief	-7943
crete	-7944
ersal	-7945
ertex	-7946
flows	-7947
lited	-7948
mplar	-7949
randn	-7950
reede	-7951
rence	-7952
rency	-7953
riend	-7954
rutra	-7955
seqio	-7956
seven	-7957
sired	-7958
sizes	-7959
sktop	-7960
specs	-7961
stems	-7962
sters	-7963
taiga	-7964
thumb	-7965
tmpfs	-7966
torch	-7967
udwig	-7968
uffer	-7969
unset	-7970
ussed	-7971
utili	-7972
utton	-7973
verio	-7974
weeks	-7975
wraps	-7976
{27}-	-7977
▁"../	-7978
▁"0")	-7979
▁"=",	-7980
▁$6}'	-7981
▁%}?_	-7982
▁'($4	-7983
▁'-')	-7984
▁'.'.	-7985
▁/^\[	-7986
▁0.0;	-7987
▁0.5)	-7988
▁0.8.	-7989
▁1.5;	-7990
▁1.71	-7991
▁1999	-7992
▁2)])	-7993
▁2,2,	-7994
▁200)	-7995
▁2010	-7996
▁3.5,	-7997
▁300)	-7998
▁40],	-7999
2;	-8000
\{	-8001
{3	-8002
">/	-8003
1-9	-8004
27\	-8005
="%	-8006
nls	-8007
nma	-8008
pus	-8009
tax	-8010
ury	-8011
▁tb	-8012
!=1.	-8013
acon	-8014
alot	-8015
imst	-8016
romo	-8017
shim	-8018
txid	-8019
ying	-8020
▁"."	-8021
▁(0,	-8022
▁did	-8023
▁pty	-8024
▁sha	-8025
▁toc	-8026
▁vex	-8027
-256.	-8028
_008.	-8029
klass	-8030
muted	-8031
odian	-8032
pusho	-8033
shims	-8034
short	-8035
stest	-8036
uling	-8037
uname	-8038
veral	-8039
▁10},	-8040
▁2007	-8041
▁['*.	-8042
▁[(1,	-8043
▁[20,	-8044
▁[]):	-8045
▁adds	-8046
▁aram	-8047
▁asks	-8048
▁atta	-8049
▁blog	-8050
▁caro	-8051
▁copi	-8052
▁csrf	-8053
▁died	-8054
▁dirs	-8055
▁duck	-8056
▁etcd	-8057
▁fact	-8058
▁fitc	-8059
▁fult	-8060
▁glad	-8061
▁goes	-8062
▁grab	-8063
▁hdfs	-8064
▁hold	-8065
▁hook	-8066
▁imgh	-8067
▁kill	-8068
▁kivy	-8069
▁know	-8070
▁leak	-8071
▁mand	-8072
▁mptt	-8073
▁mule	-8074
▁omit	-8075
▁patt	-8076
▁pika	-8077
▁plex	-8078
▁puts	-8079
▁rank	-8080
▁risk	-8081
▁tell	-8082
▁tons	-8083
▁trim	-8084
▁}}">	-8085
▁}}'"	-8086
">\1</	-8087
"]*)''	-8088
$10.00	-8089
(','))	-8090
('/'),	-8091
('/'):	-8092
(.+?):	-8093
(/\/\&	-8094
(/\/\?	-8095
-06:00	-8096
-07-02	-8097
-07-05	-8098
10:59:	-8099
-`	-8100
62	-8101
?:	-8102
]'	-8103
nv	-8104
qq	-8105
vv	-8106
}\	-8107
"',	-8108
740	-8109
=60	-8110
>01	-8111
gif	-8112
hol	-8113
htm	-8114
}">	-8115
▁"3	-8116
▁/.	-8117
▁/=	-8118
▁8:	-8119
▁pd	-8120
▁vm	-8121
')['	-8122
/></	-8123
6960	-8124
ando	-8125
chie	-8126
cole	-8127
scss	-8128
unes	-8129
vals	-8130
▁1.1	-8131
▁bul	-8132
▁del	-8133
▁hue	-8134
▁ops	-8135
='*',	-8136
arith	-8137
assoc	-8138
atory	-8139
flush	-8140
intro	-8141
▁bulk	-8142
▁dupe	-8143
▁inde	-8144
▁push	-8145
▁rele	-8146
▁vand	-8147
116466	-8148
2278>]	-8149
228454	-8150
230106	-8151
3000",	-8152
321821	-8153
367476	-8154
60960*	-8155
976049	-8156
==0.2.	-8157
==0.4.	-8158
==2.4.	-8159
>0.9.9	-8160
[-1]["	-8161
[0].__	-8162
[::-1]	-8163
[^0-9]	-8164
accttg	-8165
almost	-8166
alysis	-8167
andoff	-8168
angups	-8169
ansion	-8170
apikey	-8171
apital	-8172
asciid	-8173
atcaag	-8174
atebay	-8175
attach	-8176
bidden	-8177
boxcar	-8178
bullet	-8179
cannot	-8180
caying	-8181
chieve	-8182
circle	-8183
combin	-8184
contin	-8185
counto	-8186
cussed	-8187
daemon	-8188
danger	-8189
digits	-8190
docper	-8191
dotted	-8192
driven	-8193
dshape	-8194
dutton	-8195
entral	-8196
ercial	-8197
essent	-8198
etched	-8199
'\	-8200
.2	-8201
.]	-8202
/%	-8203
0`	-8204
9)	-8205
>%	-8206
>&	-8207
`'	-8208
`\	-8209
ej	-8210
gz	-8211
ji	-8212
za	-8213
-11	-8214
10)	-8215
2']	-8216
217	-8217
26,	-8218
=9)	-8219
>&1	-8220
dar	-8221
doi	-8222
mlp	-8223
ork	-8224
rpm	-8225
tex	-8226
ttl	-8227
}",	-8228
▁'#	-8229
▁xx	-8230
](0.	-8231
anit	-8232
coin	-8233
ejwa	-8234
gbin	-8235
lite	-8236
moji	-8237
nbsp	-8238
runs	-8239
trip	-8240
wned	-8241
ylor	-8242
▁">>	-8243
▁$0`	-8244
▁%.2	-8245
▁3])	-8246
▁rst	-8247
▁xxx	-8248
▁{{/	-8249
/(.*)	-8250
[1:],	-8251
agger	-8252
earns	-8253
eware	-8254
moves	-8255
owned	-8256
scans	-8257
▁...]	-8258
▁2>&1	-8259
▁bion	-8260
▁lear	-8261
▁math	-8262
▁qemu	-8263
▁york	-8264
=0.25,	-8265
](0.),	-8266
darwin	-8267
detect	-8268
etitor	-8269
expose	-8270
flakes	-8271
floatx	-8272
forwar	-8273
freede	-8274
frozen	-8275
george	-8276
getenv	-8277
headph	-8278
ington	-8279
interi	-8280
intext	-8281
lapack	-8282
launch	-8283
lenium	-8284
likely	-8285
liquid	-8286
litedb	-8287
livery	-8288
llings	-8289
lobber	-8290
marcin	-8291
misago	-8292
modifi	-8293
navbar	-8294
ndrang	-8295
notify	-8296
nzbget	-8297
oboost	-8298
odling	-8299
#"	-8300
(%	-8301
(@	-8302
,"	-8303
4'	-8304
6)	-8305
=:	-8306
cr	-8307
fg	-8308
']]	-8309
']}	-8310
127	-8311
6')	-8312
64(	-8313
fri	-8314
gla	-8315
kat	-8316
nan	-8317
sif	-8318
sin	-8319
ugo	-8320
▁'_	-8321
▁cr	-8322
▁fy	-8323
=:99	-8324
____	-8325
ares	-8326
axon	-8327
cake	-8328
ceed	-8329
clic	-8330
crud	-8331
ever	-8332
oral	-8333
repo	-8334
waff	-8335
wbox	-8336
▁500	-8337
▁gue	-8338
▁vms	-8339
[1:]:	-8340
adiaz	-8341
freet	-8342
hyper	-8343
lintr	-8344
myweb	-8345
omany	-8346
osbot	-8347
owbox	-8348
umber	-8349
▁hugo	-8350
▁mask	-8351
▁tall	-8352
▁turn	-8353
attrib	-8354
dicted	-8355
omgwtf	-8356
passwd	-8357
paused	-8358
please	-8359
postal	-8360
produc	-8361
pyamqp	-8362
qubole	-8363
raisal	-8364
rcspat	-8365
recomm	-8366
reduce	-8367
ritunl	-8368
rootfs	-8369
rsplit	-8370
rupted	-8371
sabnzb	-8372
satosh	-8373
scales	-8374
scroll	-8375
sdcard	-8376
secake	-8377
simpli	-8378
spkern	-8379
sqlite	-8380
stroys	-8381
theano	-8382
theora	-8383
timing	-8384
umberr	-8385
undary	-8386
untary	-8387
urther	-8388
vacuum	-8389
versal	-8390
ximate	-8391
~~~~~~	-8392
▁"+=",	-8393
▁"-=",	-8394
▁"1.0.	-8395
▁"2.7"	-8396
▁"3.3"	-8397
▁"^=",	-8398
▁'0.2.	-8399
!}	-8400
(0	-8401
-"	-8402
-2	-8403
/.	-8404
/>	-8405
1;	-8406
jg	-8407
oo	-8408
tl	-8409
va	-8410
wl	-8411
%);	-8412
',{	-8413
),)	-8414
1._	-8415
3",	-8416
kan	-8417
mbx	-8418
rdp	-8419
vaz	-8420
▁"&	-8421
▁6*	-8422
▁nc	-8423
([[0	-8424
))(*	-8425
8753	-8426
asdf	-8427
best	-8428
kick	-8429
mask	-8430
scal	-8431
▁"/"	-8432
▁"__	-8433
▁0)]	-8434
▁ifs	-8435
▁pin	-8436
▁wra	-8437
([[0,	-8438
chomp	-8439
leshe	-8440
mtime	-8441
oauth	-8442
paper	-8443
prowl	-8444
▁#387	-8445
▁2017	-8446
▁atom	-8447
▁ckan	-8448
▁mich	-8449
▁slot	-8450
anging	-8451
channe	-8452
edplot	-8453
fileno	-8454
hesize	-8455
vazque	-8456
▁"&=",	-8457
▁'0.5.	-8458
▁'0.9.	-8459
▁(#389	-8460
▁(2012	-8461
▁**84.	-8462
▁**94.	-8463
▁**98.	-8464
▁1.12.	-8465
▁1.8.0	-8466
▁2013,	-8467
▁2013.	-8468
▁2015,	-8469
▁2017)	-8470
▁25%);	-8471
▁3.7.3	-8472
▁30}))	-8473
▁31197	-8474
▁:8050	-8475
▁]*)',	-8476
▁baksh	-8477
▁casca	-8478
▁choos	-8479
▁chore	-8480
▁chron	-8481
▁cycle	-8482
▁diffs	-8483
▁ebook	-8484
▁emoji	-8485
▁encry	-8486
▁favor	-8487
▁fcntl	-8488
▁feder	-8489
▁final	-8490
▁flaky	-8491
▁fname	-8492
▁freed	-8493
▁frequ	-8494
▁fresh	-8495
▁funct	-8496
▁great	-8497
▁guess	-8498
▁guest	-8499
!"	-8500
*|	-8501
/)	-8502
/<	-8503
2[	-8504
5"	-8505
]/	-8506
_,	-8507
ev	-8508
hs	-8509
sz	-8510
tv	-8511
'',	-8512
005	-8513
1',	-8514
262	-8515
64)	-8516
dra	-8517
jit	-8518
sty	-8519
too	-8520
▁#:	-8521
▁/(	-8522
▁\$	-8523
▁ba	-8524
)}};	-8525
:{}/	-8526
="15	-8527
[10,	-8528
ceil	-8529
maps	-8530
recv	-8531
segm	-8532
song	-8533
▁"):	-8534
▁xen	-8535
("-")	-8536
+0000	-8537
2="$_	-8538
47796	-8539
=[10,	-8540
enmod	-8541
ftmax	-8542
sedit	-8543
▁">",	-8544
▁pyes	-8545
▁situ	-8546
+0000\	-8547
anelle	-8548
except	-8549
family	-8550
otogra	-8551
pseudo	-8552
rmtree	-8553
silent	-8554
toxenv	-8555
▁1.71,	-8556
▁badpa	-8557
▁heart	-8558
▁imghd	-8559
▁iopub	-8560
▁learn	-8561
▁loads	-8562
▁locus	-8563
▁logst	-8564
▁maint	-8565
▁maxim	-8566
▁mixer	-8567
▁multi	-8568
▁muted	-8569
▁nodes	-8570
▁oauth	-8571
▁occur	-8572
▁oddly	-8573
▁opera	-8574
▁packa	-8575
▁paste	-8576
▁piece	-8577
▁popul	-8578
▁posts	-8579
▁prior	-8580
▁pyzmq	-8581
▁qcore	-8582
▁scale	-8583
▁sigma	-8584
▁spacy	-8585
▁spell	-8586
▁timer	-8587
▁touch	-8588
▁trunk	-8589
▁typed	-8590
▁udesc	-8591
▁umask	-8592
▁voice	-8593
▁waste	-8594
▁webui	-8595
▁whose	-8596
▁wider	-8597
▁wrapp	-8598
▁wrapt	-8599
%}	-8600
-6	-8601
_%	-8602
ae	-8603
bn	-8604
);\	-8605
1).	-8606
7':	-8607
907	-8608
ctp	-8609
dec	-8610
enk	-8611
gro	-8612
iso	-8613
lle	-8614
mle	-8615
off	-8616
rgb	-8617
ros	-8618
une	-8619
▁',	-8620
▁'4	-8621
▁'6	-8622
▁8]	-8623
▁='	-8624
▁cm	-8625
▁oo	-8626
▁pb	-8627
());	-8628
404)	-8629
68**	-8630
dctp	-8631
deal	-8632
fied	-8633
lice	-8634
meas	-8635
scan	-8636
todo	-8637
▁abc	-8638
▁dro	-8639
▁eco	-8640
▁emr	-8641
▁mut	-8642
▁ret	-8643
(404)	-8644
00101	-8645
==0.1	-8646
camel	-8647
chdir	-8648
groun	-8649
maper	-8650
▁plat	-8651
▁ring	-8652
▁seed	-8653
▁stor	-8654
▁supp	-8655
(5)>')	-8656
10.7':	-8657
[0-9])	-8658
dealer	-8659
denied	-8660
isters	-8661
offest	-8662
subset	-8663
verage	-8664
vorbis	-8665
▁adapt	-8666
▁avahi	-8667
▁dupes	-8668
▁indic	-8669
▁isort	-8670
▁libav	-8671
▁unity	-8672
▁young	-8673
▁zulip	-8674
(-0.20,	-8675
-2001.\	-8676
0-9._]*	-8677
1301330	-8678
4780659	-8679
==0.1.0	-8680
==0.3.1	-8681
==0.8.1	-8682
==0.8.7	-8683
=======	-8684
>=1.8,<	-8685
_008[0]	-8686
amounts	-8687
aresame	-8688
asyncio	-8689
atility	-8690
because	-8691
britain	-8692
brokers	-8693
checked	-8694
chunked	-8695
claudia	-8696
closing	-8697
company	-8698
compare	-8699
(&	-8700
3:	-8701
ld	-8702
xd	-8703
'][	-8704
346	-8705
:':	-8706
ane	-8707
lia	-8708
ued	-8709
vul	-8710
wiz	-8711
▁).	-8712
▁0"	-8713
▁mr	-8714
▁rm	-8715
▁ul	-8716
5933	-8717
>302	-8718
[[],	-8719
alle	-8720
bugs	-8721
copi	-8722
fuse	-8723
kept	-8724
lost	-8725
meso	-8726
must	-8727
omit	-8728
pypy	-8729
▁"":	-8730
▁acc	-8731
▁adu	-8732
▁cmp	-8733
▁ins	-8734
▁neg	-8735
▁rid	-8736
▁tip	-8737
72827	-8738
allel	-8739
cmark	-8740
ipant	-8741
mesos	-8742
usels	-8743
▁cola	-8744
▁cort	-8745
▁dest	-8746
▁dots	-8747
▁hill	-8748
▁kept	-8749
▁star	-8750
>302</	-8751
assand	-8752
bidire	-8753
closed	-8754
htmles	-8755
minate	-8756
mities	-8757
reason	-8758
strong	-8759
tagger	-8760
wizard	-8761
▁ndims	-8762
7282711	-8763
==0.6.0	-8764
complex	-8765
concept	-8766
console	-8767
contain	-8768
couchid	-8769
covered	-8770
credent	-8771
cvspass	-8772
dtfield	-8773
enotype	-8774
entered	-8775
eresour	-8776
ericson	-8777
ertests	-8778
finally	-8779
fixtags	-8780
folders	-8781
fromrgb	-8782
funding	-8783
glacier	-8784
hashtag	-8785
highest	-8786
indexes	-8787
indexof	-8788
ipproto	-8789
ismixin	-8790
iversal	-8791
jupyter	-8792
keydown	-8793
lesheet	-8794
limiter	-8795
linesep	-8796
lookups	-8797
magento	-8798
mailcmd	-8799
("/	-8800
-1.	-8801
279	-8802
='#	-8803
['"	-8804
amd	-8805
bet	-8806
nsu	-8807
rel	-8808
''))	-8809
')),	-8810
("__	-8811
([1,	-8812
([])	-8813
*[^\	-8814
[0]:	-8815
anim	-8816
chev	-8817
ifex	-8818
proc	-8819
vimb	-8820
wind	-8821
▁"0.	-8822
▁'</	-8823
▁2))	-8824
▁401	-8825
▁80,	-8826
▁abi	-8827
▁bel	-8828
▁gir	-8829
▁iam	-8830
▁nam	-8831
1.12"	-8832
100',	-8833
ioctl	-8834
keras	-8835
phbet	-8836
reful	-8837
toder	-8838
▁4011	-8839
▁cert	-8840
▁doct	-8841
▁leaf	-8842
▁made	-8843
▁memo	-8844
▁nacl	-8845
▁objs	-8846
▁opts	-8847
▁para	-8848
▁subs	-8849
affect	-8850
follow	-8851
locale	-8852
locked	-8853
outdim	-8854
reward	-8855
tunnel	-8856
unable	-8857
▁'0.4.	-8858
▁10)),	-8859
▁errno	-8860
▁maybe	-8861
▁third	-8862
="1.12"	-8863
assumed	-8864
bambook	-8865
chevron	-8866
dynamic	-8867
getcode	-8868
keyfile	-8869
lookfor	-8870
makedir	-8871
mistral	-8872
modname	-8873
mpaigns	-8874
mplates	-8875
mysecre	-8876
nellbox	-8877
newznab	-8878
ngaussi	-8879
noindex	-8880
noreply	-8881
odelete	-8882
onclick	-8883
onlyips	-8884
outside	-8885
passlib	-8886
percent	-8887
perform	-8888
pidfile	-8889
placing	-8890
playing	-8891
program	-8892
provide	-8893
qaction	-8894
queness	-8895
queries	-8896
randint	-8897
rdparty	-8898
reached	-8899
/$	-8900
7/	-8901
xx	-8902
:</	-8903
>")	-8904
nch	-8905
▁4;	-8906
▁ya	-8907
▁{<	-8908
()">	-8909
1.2-	-8910
alex	-8911
diso	-8912
fake	-8913
gime	-8914
lift	-8915
mods	-8916
▁"")	-8917
▁0):	-8918
▁aug	-8919
▁beh	-8920
▁chr	-8921
▁der	-8922
▁rds	-8923
▁tls	-8924
(100,	-8925
37-43	-8926
50001	-8927
:.650	-8928
ately	-8929
ctime	-8930
faces	-8931
faker	-8932
ffect	-8933
gimel	-8934
logic	-8935
pylab	-8936
retri	-8937
rtype	-8938
texts	-8939
trial	-8940
unity	-8941
▁""")	-8942
▁hash	-8943
▁rasa	-8944
')[1])	-8945
'][1])	-8946
malloc	-8947
myplex	-8948
nchron	-8949
reload	-8950
ressed	-8951
sheets	-8952
trades	-8953
wglget	-8954
▁navig	-8955
▁oname	-8956
▁refer	-8957
▁throw	-8958
ctional	-8959
mininov	-8960
removed	-8961
reports	-8962
resolve	-8963
restapi	-8964
reverse	-8965
sabnzbd	-8966
seditor	-8967
segment	-8968
shardid	-8969
sharing	-8970
sidebar	-8971
softmax	-8972
squared	-8973
stdouts	-8974
strings	-8975
subject	-8976
testapp	-8977
tolower	-8978
toolkit	-8979
unicate	-8980
uptuous	-8981
userlog	-8982
utcomes	-8983
vazquez	-8984
waiting	-8985
youtube	-8986
▁">>=",	-8987
▁'1.0.7	-8988
▁([#393	-8989
▁-1),))	-8990
▁1.71),	-8991
▁10:59:	-8992
▁2.00.0	-8993
▁3\.7\.	-8994
▁across	-8995
▁actual	-8996
▁advert	-8997
▁altern	-8998
▁arpack	-8999
'<	-9000
(\	-9001
-7	-9002
mu	-9003
vh	-9004
yy	-9005
-1)	-9006
\'\	-9007
dao	-9008
iro	-9009
lms	-9010
mnt	-9011
rng	-9012
rpc	-9013
sym	-9014
whe	-9015
{\\	-9016
▁$.	-9017
▁9)	-9018
▁^/	-9019
▁mh	-9020
bdir	-9021
bone	-9022
cape	-9023
dirs	-9024
fail	-9025
lang	-9026
prev	-9027
}{\\	-9028
▁'1'	-9029
▁***	-9030
▁0],	-9031
▁400	-9032
▁ind	-9033
▁shr	-9034
▁}}'	-9035
__.__	-9036
alism	-9037
apple	-9038
argcd	-9039
cairo	-9040
codec	-9041
docks	-9042
httpd	-9043
quant	-9044
repos	-9045
rowse	-9046
rules	-9047
timed	-9048
until	-9049
▁"'].	-9050
▁0)],	-9051
▁endi	-9052
▁hour	-9053
▁soon	-9054
▁upon	-9055
▁wash	-9056
▁xarf	-9057
▁youg	-9058
attgtg	-9059
browse	-9060
escape	-9061
itunes	-9062
prefer	-9063
preter	-9064
tolist	-9065
transl	-9066
▁elsif	-9067
▁means	-9068
▁newip	-9069
▁runpy	-9070
▁sname	-9071
(-0.21,	-9072
getitem	-9073
measure	-9074
overlay	-9075
textbox	-9076
▁atomic	-9077
▁avconv	-9078
▁become	-9079
▁bionic	-9080
▁blocks	-9081
▁broker	-9082
▁bugfix	-9083
▁bytest	-9084
▁caller	-9085
▁closed	-9086
▁combin	-9087
▁counts	-9088
▁crypto	-9089
▁ctable	-9090
▁daniel	-9091
▁doesnt	-9092
▁easily	-9093
▁effici	-9094
▁emrjob	-9095
▁endife	-9096
▁family	-9097
▁fileno	-9098
▁finder	-9099
tb	-9100
vd	-9101
">%	-9102
">'	-9103
">(	-9104
("%	-9105
)],	-9106
**6	-9107
**7	-9108
-01	-9109
-17	-9110
1**	-9111
133	-9112
647	-9113
='0	-9114
phy	-9115
pxd	-9116
sac	-9117
});	-9118
▁3)	-9119
▁jr	-9120
▁ju	-9121
▁qe	-9122
▁ry	-9123
")],	-9124
excl	-9125
libs	-9126
ough	-9127
park	-9128
phen	-9129
pick	-9130
▁30,	-9131
▁``$	-9132
▁``_	-9133
▁jim	-9134
▁jit	-9135
arial	-9136
ators	-9137
caper	-9138
growl	-9139
indim	-9140
irver	-9141
lites	-9142
macre	-9143
shlib	-9144
uting	-9145
▁")";	-9146
▁clib	-9147
▁esac	-9148
▁gent	-9149
▁stre	-9150
0.9.3,	-9151
ervice	-9152
opened	-9153
pended	-9154
▁...])	-9155
▁dummy	-9156
▁dword	-9157
▁spark	-9158
▁watch	-9159
▁xhtml	-9160
docperm	-9161
groundb	-9162
history	-9163
ivation	-9164
listdir	-9165
nzbsorg	-9166
prevent	-9167
referer	-9168
skipped	-9169
sudoers	-9170
waffles	-9171
▁flakes	-9172
▁forgot	-9173
▁friend	-9174
▁fulton	-9175
▁functo	-9176
▁george	-9177
▁getcwd	-9178
▁hashes	-9179
▁hidden	-9180
▁howdoi	-9181
▁imghdr	-9182
▁immedi	-9183
▁inject	-9184
▁invent	-9185
▁ledger	-9186
▁libssl	-9187
▁limits	-9188
▁loaded	-9189
▁locals	-9190
▁locate	-9191
▁logout	-9192
▁ludwig	-9193
▁marked	-9194
▁member	-9195
▁minute	-9196
▁mixing	-9197
▁mkdocs	-9198
▁moving	-9199
,)	-9200
]\	-9201
/><	-9202
293	-9203
4](	-9204
=2.	-9205
]].	-9206
`.`	-9207
fds	-9208
ned	-9209
nll	-9210
wav	-9211
▁"`	-9212
__":	-9213
bits	-9214
dbus	-9215
deps	-9216
here	-9217
labc	-9218
lisa	-9219
mate	-9220
mick	-9221
tcsh	-9222
utes	-9223
▁$``	-9224
▁269	-9225
▁bdb	-9226
▁kub	-9227
▁rsa	-9228
32}')	-9229
:1000	-9230
=1.):	-9231
abort	-9232
aving	-9233
house	-9234
sheep	-9235
tsalt	-9236
▁1.3.	-9237
▁2015	-9238
▁hole	-9239
▁scme	-9240
▁tens	-9241
attack	-9242
edited	-9243
ensive	-9244
ertask	-9245
lindex	-9246
pslist	-9247
racket	-9248
undant	-9249
▁comps	-9250
▁serve	-9251
▁types	-9252
▁whate	-9253
=0.125,	-9254
appcase	-9255
estring	-9256
expires	-9257
friends	-9258
scmtool	-9259
sigterm	-9260
▁decomp	-9261
▁endadd	-9262
▁native	-9263
▁nature	-9264
▁nested	-9265
▁ngauss	-9266
▁observ	-9267
▁opened	-9268
▁opengl	-9269
▁passen	-9270
▁paused	-9271
▁photon	-9272
▁pixels	-9273
▁places	-9274
▁plotly	-9275
▁points	-9276
▁pprint	-9277
▁pragma	-9278
▁prices	-9279
▁printf	-9280
▁prompt	-9281
▁psutil	-9282
▁qinput	-9283
▁qpoint	-9284
▁recall	-9285
▁reedit	-9286
▁regard	-9287
▁releas	-9288
▁retval	-9289
▁rights	-9290
▁router	-9291
▁rtmpfd	-9292
▁scikit	-9293
▁scores	-9294
▁sentry	-9295
▁series	-9296
▁shimst	-9297
▁silent	-9298
▁simply	-9299
)}	-9300
fy	-9301
'[\	-9302
)-1	-9303
,))	-9304
0.,	-9305
103	-9306
3.3	-9307
6':	-9308
\"]	-9309
dry	-9310
fee	-9311
vex	-9312
▁.5	-9313
▁18	-9314
▁4*	-9315
▁41	-9316
▁ds	-9317
▁}\	-9318
");\	-9319
('\'	-9320
-1',	-9321
="19	-9322
=16,	-9323
cdot	-9324
defs	-9325
disk	-9326
gray	-9327
they	-9328
zdef	-9329
{}{}	-9330
▁csh	-9331
▁nat	-9332
...')	-9333
leave	-9334
plots	-9335
react	-9336
sampl	-9337
shake	-9338
share	-9339
{}{}/	-9340
▁adam	-9341
▁argv	-9342
▁slug	-9343
("6.4.	-9344
10.6':	-9345
:6680/	-9346
ffplay	-9347
player	-9348
review	-9349
shared	-9350
userid	-9351
▁dense	-9352
▁qrect	-9353
▁short	-9354
▁thing	-9355
batches	-9356
checker	-9357
esecake	-9358
reified	-9359
searchx	-9360
▁'{}{}/	-9361
▁bundle	-9362
▁explor	-9363
▁itself	-9364
▁scheme	-9365
▁solver	-9366
▁splice	-9367
▁splits	-9368
▁stddev	-9369
▁stripe	-9370
▁submit	-9371
▁subtle	-9372
▁tested	-9373
▁themes	-9374
▁tuning	-9375
▁tuples	-9376
▁tweaks	-9377
▁unpack	-9378
▁unsafe	-9379
▁vertex	-9380
▁videos	-9381
▁visits	-9382
▁xarray	-9383
▁xenial	-9384
"]*)''',	-9385
------#"	-9386
0-9._]*)	-9387
03-07-02	-9388
24,25}-{	-9389
34+0200\	-9390
>0.9.9</	-9391
_008[0])	-9392
accident	-9393
aclsetup	-9394
adedpoll	-9395
aggccaat	-9396
alephbet	-9397
allclose	-9398
anaconda	-9399
258	-9400
364	-9401
=25	-9402
cbe	-9403
("{}	-9404
="25	-9405
corr	-9406
tell	-9407
▁lex	-9408
)[0].	-9409
=256,	-9410
▁4+4-	-9411
▁colls	-9412
getlist	-9413
▁choice	-9414
anitizer	-9415
apitests	-9416
archinfo	-9417
asciidoc	-9418
assandra	-9419
assertin	-9420
basename	-9421
builtins	-9422
cachedir	-9423
checkbox	-9424
checking	-9425
checksum	-9426
children	-9427
compiled	-9428
composer	-9429
concrete	-9430
conflict	-9431
crossent	-9432
delivery	-9433
describe	-9434
detector	-9435
disables	-9436
discount	-9437
dramatiq	-9438
dropdown	-9439
emphasis	-9440
enhanced	-9441
execinfo	-9442
executed	-9443
exponent	-9444
exporter	-9445
extended	-9446
fdrcspat	-9447
formdata	-9448
freetype	-9449
frontend	-9450
germeval	-9451
harakiri	-9452
humanize	-9453
ialclass	-9454
importer	-9455
incorpor	-9456
indexers	-9457
interior	-9458
keyusage	-9459
lexecute	-9460
lintrule	-9461
lncurses	-9462
mailargs	-9463
makedirs	-9464
messages	-9465
mininova	-9466
modified	-9467
ndranghe	-9468
ndwidget	-9469
newsblur	-9470
ningpeer	-9471
operands	-9472
optimize	-9473
organism	-9474
pathname	-9475
periodic	-9476
personal	-9477
pickable	-9478
pictures	-9479
plotting	-9480
policies	-9481
prevdiff	-9482
priority	-9483
producer	-9484
pushalot	-9485
pushover	-9486
pytibber	-9487
queryset	-9488
released	-9489
requires	-9490
resilver	-9491
romosome	-9492
sampling	-9493
satoshis	-9494
setlevel	-9495
songkick	-9496
standoff	-9497
startgas	-9498
stoploss	-9499
stringio	-9500
strptime	-9501
supports	-9502
suppress	-9503
theclass	-9504
toderive	-9505
toplevel	-9506
ustodian	-9507
utorrent	-9508
vazquezd	-9509
vmobject	-9510
whatsnew	-9511
▁([507](	-9512
▁(`#4257	-9513
▁(`#4288	-9514
▁2013-11	-9515
▁achieve	-9516
▁aliases	-9517
▁allowed	-9518
▁angular	-9519
▁another	-9520
▁appears	-9521
▁assumes	-9522
▁asyncio	-9523
▁attempt	-9524
▁authors	-9525
▁autofix	-9526
▁badmarc	-9527
▁balance	-9528
▁bambook	-9529
▁battles	-9530
▁boosted	-9531
▁britain	-9532
▁builder	-9533
▁builtin	-9534
▁capital	-9535
▁cascade	-9536
▁categor	-9537
▁celeryd	-9538
▁central	-9539
▁chained	-9540
▁checker	-9541
▁cimport	-9542
▁clarify	-9543
▁cleanup	-9544
▁clobber	-9545
▁cloning	-9546
▁codegen	-9547
▁collect	-9548
▁configs	-9549
▁consume	-9550
▁contact	-9551
▁convent	-9552
▁crashes	-9553
▁credits	-9554
▁desired	-9555
▁destroy	-9556
▁dirname	-9557
▁disrupt	-9558
▁drawing	-9559
▁dynamic	-9560
▁elapsed	-9561
▁enables	-9562
▁encoded	-9563
▁enhance	-9564
▁exceeds	-9565
▁exclude	-9566
▁explain	-9567
▁exploit	-9568
▁factory	-9569
▁failing	-9570
▁fetched	-9571
▁follows	-9572
▁formula	-9573
▁further	-9574
▁getopen	-9575
▁getpass	-9576
▁gitfuse	-9577
▁globals	-9578
▁hangups	-9579
▁highest	-9580
▁honored	-9581
▁ifequal	-9582
▁indexes	-9583
▁integer	-9584
▁iocjson	-9585
▁ioclist	-9586
▁ioerror	-9587
▁iterate	-9588
▁keyring	-9589
▁kwdargs	-9590
▁leading	-9591
▁libedit	-9592
▁lighten	-9593
▁limited	-9594
▁lintian	-9595
▁maildir	-9596
▁mailing	-9597
▁mapping	-9598
▁memoize	-9599
▁mention	-9600
▁metrics	-9601
▁modules	-9602
▁monthly	-9603
▁multipy	-9604
▁nsarray	-9605
▁ongoing	-9606
▁onlyips	-9607
▁openssl	-9608
▁optical	-9609
▁packing	-9610
▁partner	-9611
▁pending	-9612
▁picture	-9613
▁placing	-9614
▁prepare	-9615
▁printer	-9616
▁pritunl	-9617
▁problem	-9618
▁pyquery	-9619
▁qsingle	-9620
▁qwidget	-9621
▁reached	-9622
▁reflect	-9623
▁regular	-9624
▁removal	-9625
▁reports	-9626
▁resized	-9627
▁routing	-9628
▁sampled	-9629
▁scaling	-9630
▁science	-9631
▁scmtool	-9632
▁seconds	-9633
▁segment	-9634
▁setuppy	-9635
▁several	-9636
▁shrinks	-9637
▁sigmoid	-9638
▁signals	-9639
▁similar	-9640
▁sklearn	-9641
▁solvers	-9642
▁someone	-9643
▁spinner	-9644
▁stearns	-9645
▁streets	-9646
▁styling	-9647
▁subsync	-9648
▁suffici	-9649
▁swapped	-9650
▁templar	-9651
▁terrain	-9652
▁trusted	-9653
▁uicolor	-9654
▁unicorn	-9655
▁useradd	-9656
▁utility	-9657
▁viewing	-9658
▁welcome	-9659
▁xdigits	-9660
▁ycmcore	-9661
▁zeronet	-9662
'2000-200	-9663
014453760	-9664
10590335,	-9665
228454237	-9666
311367476	-9667
://{}:{}/	-9668
:28+0200\	-9669
==3.6.6',	-9670
alexander	-9671
algorithm	-9672
appraisal	-9673
authentic	-9674
bdisttest	-9675
blacklist	-9676
blueprint	-9677
bookmarks	-9678
botplugin	-9679
clientabc	-9680
codestyle	-9681
computing	-9682
configobj	-9683
cremented	-9684
cursorcol	-9685
cvsignore	-9686
datashape	-9687
decorator	-9688
decrypted	-9689
deferreds	-9690
deprecate	-9691
documents	-9692
dummytask	-9693
encrypted	-9694
entrypage	-9695
eresource	-9696
essential	-9697
evolution	-9698
exefolder	-9699
extractor	-9700
filtering	-9701
forbidden	-9702
forwarded	-9703
generated	-9704
geometric	-9705
gitignore	-9706
histogram	-9707
histories	-9708
holoviews	-9709
ieversion	-9710
imageview	-9711
inputline	-9712
instances	-9713
insteadof	-9714
intercept	-9715
iswindows	-9716
levelname	-9717
libvorbis	-9718
listequal	-9719
loginview	-9720
mergeable	-9721
namedtemp	-9722
nonrobust	-9723
normalize	-9724
nsmutable	-9725
observers	-9726
oraryfile	-9727
organelle	-9728
owboxplot	-9729
pacemaker	-9730
paperinfo	-9731
parameter	-9732
persistor	-9733
phantomjs	-9734
piratebay	-9735
positions	-9736
posterror	-9737
processes	-9738
pyopenssl	-9739
qlineedit	-9740
qthelpers	-9741
readlines	-9742
recovered	-9743
registrar	-9744
roundtrip	-9745
rutracker	-9746
secondary	-9747
serialize	-9748
setheader	-9749
setmaster	-9750
shrinking	-9751
smasensor	-9752
statement	-9753
subscribe	-9754
svnpoller	-9755
synoindex	-9756
threading	-9757
toolchain	-9758
translate	-9759
triggered	-9760
tttcctcgg	-9761
tutorials	-9762
unarchive	-9763
versation	-9764
wikswitch	-9765
wrapfirst	-9766
xyzmatrix	-9767
▁'.0/24',	-9768
▁12035254	-9769
▁31197348	-9770
▁========	-9771
▁analysis	-9772
▁anywhere	-9773
▁argindex	-9774
▁assertin	-9775
▁attacker	-9776
▁autoaudi	-9777
▁bakshian	-9778
▁binaries	-9779
▁binomial	-9780
▁blocking	-9781
▁boundary	-9782
▁browsers	-9783
▁buildiso	-9784
▁calendar	-9785
▁category	-9786
▁changing	-9787
▁chaosbot	-9788
▁checkbox	-9789
▁checksum	-9790
▁choosing	-9791
▁compared	-9792
▁compiler	-9793
▁compress	-9794
▁conftest	-9795
▁contains	-9796
▁controls	-9797
▁couldnot	-9798
▁dbusmenu	-9799
▁dctptvie	-9800
▁decaying	-9801
▁deleting	-9802
▁deployed	-9803
▁destroys	-9804
▁detected	-9805
▁directed	-9806
▁diskless	-9807
▁dropdown	-9808
▁duration	-9809
▁editable	-9810
▁elemwise	-9811
▁enterabs	-9812
▁estimate	-9813
▁failjson	-9814
▁favorite	-9815
▁filtered	-9816
▁germeval	-9817
▁getmodul	-9818
▁homepage	-9819
▁humanize	-9820
▁intended	-9821
▁internal	-9822
▁invasive	-9823
▁islinked	-9824
▁libboost	-9825
▁limiting	-9826
▁logstash	-9827
▁manually	-9828
▁markread	-9829
▁mimedata	-9830
▁mimetype	-9831
▁national	-9832
▁negative	-9833
▁newlines	-9834
▁parseint	-9835
▁pathname	-9836
▁photogra	-9837
▁playable	-9838
▁playback	-9839
▁polyaxon	-9840
▁printing	-9841
▁problems	-9842
▁programm	-9843
▁proposed	-9844
▁pygments	-9845
▁pythread	-9846
▁pytibber	-9847
▁recorded	-9848
▁replicas	-9849
▁reposync	-9850
▁resolves	-9851
▁reviewed	-9852
▁rotation	-9853
▁sections	-9854
▁selenium	-9855
▁showtext	-9856
▁shrinker	-9857
▁simplify	-9858
▁skiptest	-9859
▁somebody	-9860
▁spregion	-9861
▁sqlitedb	-9862
▁starting	-9863
▁strategy	-9864
▁temporal	-9865
▁tendency	-9866
▁testdims	-9867
▁thisdiff	-9868
▁timefunc	-9869
▁timezone	-9870
▁toolkits	-9871
▁treebank	-9872
▁whenever	-9873
▁wrapping	-9874
.*$/,'/').	-9875
.*$/,'/');	-9876
0525230106	-9877
127.0.0.1"	-9878
4780659225	-9879
accttgctgg	-9880
agentcheck	-9881
arithmetic	-9882
authhelper	-9883
autoissues	-9884
background	-9885
channelabc	-9886
collection	-9887
combinator	-9888
compatible	-9889
completeme	-9890
contribute	-9891
cornellbox	-9892
ctggatcaag	-9893
datasource	-9894
dbsnapshot	-9895
definition	-9896
deprecated	-9897
dimensions	-9898
dispatcher	-9899
domwrapper	-9900
downloader	-9901
dummymodel	-9902
emailfield	-9903
embeddings	-9904
entitycode	-9905
ertestcase	-9906
expanduser	-9907
foreground	-9908
foreignkey	-9909
frombuffer	-9910
getsdfiles	-9911
getwinsize	-9912
headphones	-9913
isinstance	-9914
isrelative	-9915
jsonconfig	-9916
keyrequest	-9917
lationship	-9918
lispindent	-9919
llingswood	-9920
mailsource	-9921
maperitive	-9922
middleware	-9923
migrations	-9924
modulargcd	-9925
ncampaigns	-9926
newversion	-9927
ngaussians	-9928
nsuinteger	-9929
omgwtfnzbs	-9930
paddingtop	-9931
permission	-9932
production	-9933
publishers	-9934
pushbullet	-9935
recommends	-9936
regression	-9937
serialized	-9938
signingkey	-9939
simplified	-9940
sourcename	-9941
splitlines	-9942
stemplates	-9943
timeformat	-9944
translator	-9945
umberrange	-9946
uniqueness	-9947
unreleased	-9948
userapikey	-9949
waldenberg	-9950
websupport	-9951
wglgetproc	-9952
worksheets	-9953
▁'"]*)''',	-9954
▁**96.68**	-9955
▁269116466	-9956
▁5000:5000	-9957
▁addresses	-9958
▁associate	-9959
▁attempted	-9960
▁authproxy	-9961
▁backwards	-9962
▁beginning	-9963
▁blockdims	-9964
▁broodling	-9965
▁cancelled	-9966
▁carousels	-9967
▁character	-9968
▁clibuffer	-9969
▁completed	-9970
▁computing	-9971
▁coveralls	-9972
▁datashape	-9973
▁datastore	-9974
▁debugging	-9975
▁delayfunc	-9976
▁depending	-9977
▁discussed	-9978
▁docstring	-9979
▁documents	-9980
▁downgrade	-9981
▁ecosystem	-9982
▁eliminate	-9983
▁engineloa	-9984
▁evaluates	-9985
▁exceeding	-9986
▁expansion	-9987
▁extractor	-9988
▁filterset	-9989
▁framework	-9990
▁functools	-9991
▁gitignore	-9992
▁glversion	-9993
▁gotcancel	-9994
▁handshake	-9995
▁heartbeat	-9996
▁imagefont	-9997
▁incorrect	-9998
▁installer	-9999
▁ispackage	-10000
▁iswindows	-10001
▁iteritems	-10002
▁itertools	-10003
▁ivretests	-10004
▁listening	-10005
▁localfile	-10006
▁migrating	-10007
▁migration	-10008
▁natsorted	-10009
▁navigator	-10010
▁necessary	-10011
▁openstack	-10012
▁optimizer	-10013
▁packaging	-10014
▁plaintext	-10015
▁platforms	-10016
▁precision	-10017
▁predicted	-10018
▁qsplitter	-10019
▁quickmark	-10020
▁recreated	-10021
▁recurrent	-10022
▁redundant	-10023
▁registers	-10024
▁relevance	-10025
▁replacing	-10026
▁replicate	-10027
▁represent	-10028
▁scheduler	-10029
▁showflash	-10030
▁similarly	-10031
▁spinnaker	-10032
▁srtparser	-10033
▁subformat	-10034
▁subtensor	-10035
▁suspended	-10036
▁sympified	-10037
▁threading	-10038
▁timestamp	-10039
▁traitlets	-10040
▁transifex	-10041
▁translate	-10042
▁triggered	-10043
▁tryexcept	-10044
▁universal	-10045
▁vandalism	-10046
2776360960*	-10047
backgroundb	-10048
backslashes	-10049
basecommand	-10050
basedataset	-10051
blendercrop	-10052
blendertask	-10053
certificate	-10054
communicate	-10055
createdbdir	-10056
credentials	-10057
crudservice	-10058
currentdict	-10059
detailsview	-10060
development	-10061
formaterror	-10062
freedesktop	-10063
htmlescaper	-10064
hypersearch	-10065
incorporate	-10066
ingfinished	-10067
initialized	-10068
modulesrule	-10069
mywebclient	-10070
orientation	-10071
plotcontext	-10072
proxyiplist	-10073
rapydscript	-10074
replacement	-10075
restoration	-10076
scalematrix	-10077
searchregex	-10078
showmessage	-10079
stringmixin	-10080
tempcontent	-10081
tolowercase	-10082
variational	-10083
▁/^\[(.+?):	-10084
▁2014/08/21	-10085
▁addressing	-10086
▁addtoblock	-10087
▁attachment	-10088
▁attempting	-10089
▁authhelper	-10090
▁autodelete	-10091
▁badpayload	-10092
▁bytestring	-10093
▁calculated	-10094
▁cgenerator	-10095
▁characters	-10096
▁commercial	-10097
▁competitor	-10098
▁compileall	-10099
▁completely	-10100
▁components	-10101
▁connstring	-10102
▁covariance	-10103
▁credential	-10104
▁dbinstance	-10105
▁decompress	-10106
▁developers	-10107
▁difference	-10108
▁dispersion	-10109
▁distribute	-10110
▁downloaded	-10111
▁efficiency	-10112
▁encryption	-10113
▁endifequal	-10114
▁executable	-10115
▁explicitly	-10116
▁federation	-10117
▁formatting	-10118
▁futuredesc	-10119
▁getsamples	-10120
▁inspection	-10121
▁isinternal	-10122
▁libavcodec	-10123
▁logcontext	-10124
▁membership	-10125
▁metricname	-10126
▁modelindex	-10127
▁motoserver	-10128
▁movecursor	-10129
▁multigraph	-10130
▁namespaces	-10131
▁preprocess	-10132
▁quickstart	-10133
▁qvalidator	-10134
▁redirected	-10135
▁relatively	-10136
▁remotename	-10137
▁responsive	-10138
▁scheduling	-10139
▁screenshot	-10140
▁simplejson	-10141
▁submission	-10142
▁submodules	-10143
▁successful	-10144
▁supplement	-10145
▁tabdocperm	-10146
▁testcreate	-10147
▁testreader	-10148
▁themselves	-10149
▁throughout	-10150
▁transition	-10151
▁undirected	-10152
▁unreadable	-10153
▁validateks	-10154
▁vectorized	-10155
▁volatility	-10156
▁voluptuous	-10157
▁waldenberg	-10158
▁washington	-10159
▁whateverio	-10160
0-9._]*\[([\	-10161
321821976049	-10162
adedpolltext	-10163
asynciodebug	-10164
cebackobject	-10165
channeltests	-10166
choicefilter	-10167
conceptually	-10168
crossentropy	-10169
deeplearning	-10170
defaulttable	-10171
dependencies	-10172
developerkey	-10173
doesnotexist	-10174
getattribute	-10175
hashkeyrange	-10176
linuxcommand	-10177
localstorage	-10178
macresources	-10179
multiservice	-10180
mysecretsalt	-10181
packagemaker	-10182
pluginwidget	-10183
reconnecting	-10184
routingrules	-10185
slavebuilder	-10186
startworkers	-10187
templatetags	-10188
transformers	-10189
transmission	-10190
updateoutput	-10191
userloggedin	-10192
{22,23,24}-{	-10193
▁"127.0.0.1"	-10194
▁"2014-01-06	-10195
▁(2012-07-05	-10196
▁[2014-01-06	-10197
▁advertising	-10198
▁ansiblelint	-10199
▁approximate	-10200
▁attachments	-10201
▁buildmaster	-10202
▁chronoboost	-10203
▁composition	-10204
▁computation	-10205
▁conditional	-10206
▁considerion	-10207
▁consistency	-10208
▁constructor	-10209
▁defaultdict	-10210
▁exploration	-10211
▁feedforward	-10212
▁filechooser	-10213
▁filestorage	-10214
▁groupoffice	-10215
▁httprequest	-10216
▁immediately	-10217
▁incremented	-10218
▁indentation	-10219
▁independent	-10220
▁instantiate	-10221
▁intelligent	-10222
▁interrupted	-10223
▁inventories	-10224
▁jailservice	-10225
▁lightweight	-10226
▁loadertests	-10227
▁lockexpired	-10228
▁maintainers	-10229
▁metricmodel	-10230
▁participant	-10231
▁permutation	-10232
▁prettyprint	-10233
▁qmainwindow	-10234
▁rallytarget	-10235
▁reconfigure	-10236
▁redirecting	-10237
▁replacement	-10238
▁serializers	-10239
▁servicebase	-10240
▁suggestions	-10241
▁threadawsec	-10242
▁threadslist	-10243
▁transmitted	-10244
▁uninstalled	-10245
*************	-10246
0-9._]*)\[([\	-10247
administrator	-10248
attributepage	-10249
authenticated	-10250
authorization	-10251
bidirectional	-10252
clientsession	-10253
commonoverlap	-10254
countoutcomes	-10255
enhancedmodel	-10256
fixedtimezone	-10257
maybedeferred	-10258
normalization	-10259
querycontacts	-10260
serversession	-10261
stackedinline	-10262
stackedwidget	-10263
standardjails	-10264
symboliclinks	-10265
ultisnipsedit	-10266
ultisnipsjump	-10267
updatemanager	-10268
▁------------	-10269
▁alternatives	-10270
▁baseplayback	-10271
▁computations	-10272
▁configparser	-10273
▁contributing	-10274
▁customerform	-10275
▁deviceplugin	-10276
▁emrjobrunner	-10277
▁faulthandler	-10278
▁ffmpegcamera	-10279
▁gitinspector	-10280
▁htmlresource	-10281
▁incsubtensor	-10282
▁jsonprotocol	-10283
▁khalcalendar	-10284
▁multidigraph	-10285
▁notification	-10286
▁photographed	-10287
▁preprocessor	-10288
▁processcheck	-10289
▁qinputdialog	-10290
▁scmexception	-10291
▁templateview	-10292
--------------	-10293
activitystream	-10294
ationalization	-10295
backwardcompat	-10296
ertestcasebase	-10297
filedownloader	-10298
formpluginbase	-10299
isrelativetype	-10300
loggingcontext	-10301
nsmutablearray	-10302
orderplacement	-10303
readpreference	-10304
requestbuilder	-10305
sequencenumber	-10306
sequencetagger	-10307
sublimelistenr	-10308
toderivesecret	-10309
wrapfirsterror	-10310
▁apicontroller	-10311
▁assertismixin	-10312
▁automatically	-10313
▁consumeerrors	-10314
▁decimalnumber	-10315
▁dialogmanager	-10316
▁endaddtoblock	-10317
▁functionality	-10318
▁getmodulename	-10319
▁installwizard	-10320
▁keypressevent	-10321
▁lightningpeer	-10322
▁messagewidget	-10323
▁ndarrayhandle	-10324
▁pythreadstate	-10325
▁qwebinspector	-10326
▁sequencespace	-10327
▁shimstestcase	-10328
▁sphinxcontrib	-10329
▁testnegbinclu	-10330
▁viewportjails	-10331
▁workermanager	-10332
▁youcompleteme	-10333
assertlistequal	-10334
backgroundcolor	-10335
booleanproperty	-10336
conflictwarning	-10337
ctggatcaagaccat	-10338
experimentgroup	-10339
helperfunctions	-10340
lookupexefolder	-10341
minustrainermix	-10342
projectresource	-10343
timedistributed	-10344
upportedbrowser	-10345
{22,23,24,25}-{	-10346
▁1478810590335,	-10347
▁browsersupport	-10348
▁completionview	-10349
▁fullconnection	-10350
▁lightningerror	-10351
▁scipydatastore	-10352
▁triblerrequest	-10353
▁uicolorfromrgb	-10354
▁viewlinuxjails	-10355
▁widgetsbrowser	-10356
(/\/\&.*$/,'/');	-10357
(/\/\?.*$/,'/').	-10358
2284542371301330	-10359
^^^^^^^^^^^^^^^^	-10360
connectionclosed	-10361
disablesanitizer	-10362
dummymodelrunner	-10363
fdrcspatialclass	-10364
lemmatizerlookup	-10365
threadedpolltext	-10366
transformermixin	-10367
▁commandlineedit	-10368
▁datasetapitests	-10369
▁getopenfilename	-10370
▁handshakefailed	-10371
▁holoviewswidget	-10372
▁inventorysource	-10373
▁testcurrentdict	-10374
#30	-10375
#@%	-10376
&#3	-10377
(/{	-10378
(?:	-10379
)+"	-10380
-]*	-10381
.9,	-10382
/)?	-10383
0:1	-10384
55>	-10385
:^(	-10386
=\(	-10387
[<'	-10388
\(\	-10389
\}\	-10390
ikh	-10391
iki	-10392
jni	-10393
srs	-10394
yua	-10395
yuh	-10396
#/)?	-10397
&#39	-10398
&]*)	-10399
('(%	-10400
(10)	-10401
(192	-10402
(5),	-10403
)(?:	-10404
+"$/	-10405
+"',	-10406
+">%	-10407
-004	-10408
-1.3	-10409
-]*\	-10410
-`).	-10411
.1",	-10412
.153	-10413
001-	-10414
0092	-10415
0911	-10416
0950	-10417
1331	-10418
160*	-10419
1792	-10420
1}".	-10421
23.3	-10422
2}')	-10423
3004	-10424
3167	-10425
3455	-10426
4058	-10427
4288	-10428
4:].	-10429
5765	-10430
5798	-10431
62**	-10432
6297	-10433
6509	-10434
6560	-10435
7577	-10436
7977	-10437
7:11	-10438
8-1.	-10439
9098	-10440
92**	-10441
9536	-10442
998;	-10443
:0:1	-10444
:10)	-10445
:431	-10446
=-1)	-10447
=-1.	-10448
=16)	-10449
=2):	-10450
=20)	-10451
=400	-10452
=64,	-10453
[0.,	-10454
[2]:	-10455
[5:]	-10456
\"]\	-10457
\"]|	-10458
\[(?	-10459
\{\{	-10460
\}\}	-10461
_856	-10462
_{0}	-10463
_{}(	-10464
beza	-10465
chld	-10466
cmda	-10467
cram	-10468
dndk	-10469
eijn	-10470
ftof	-10471
hiko	-10472
hmtx	-10473
holm	-10474
ikho	-10475
iliy	-10476
muex	-10477
omix	-10478
usix	-10479
xdmi	-10480
xvfb	-10481
yyyy	-10482
}:${	-10483
}`).	-10484
▁']'	-10485
▁(/<	-10486
▁16)	-10487
▁4.1	-10488
▁45;	-10489
▁5.7	-10490
▁81*	-10491
▁[2]	-10492
▁[9,	-10493
▁ctx	-10494
▁heg	-10495
▁jwt	-10496
▁mcm	-10497
▁mhv	-10498
▁rhs	-10499
+)?	-10500
+[\	-10501
/15	-10502
/;$	-10503
679	-10504
845	-10505
joh	-10506
+)?$	-10507
/'/;	-10508
/15/	-10509
1519	-10510
272*	-10511
3295	-10512
4>{{	-10513
6495	-10514
6727	-10515
952*	-10516
::.+	-10517
?)",	-10518
[^']	-10519
_2}}	-10520
sexp	-10521
|>')	-10522
▁(2*	-10523
▁0};	-10524
▁^\[	-10525
▁{3:	-10526
"((?:	-10527
#3064	-10528
&#39;	-10529
'008'	-10530
("/")	-10531
("{}\	-10532
(#/)?	-10533
('?',	-10534
((100	-10535
(.+?)	-10536
(500,	-10537
))+[\	-10538
)-1=%	-10539
)|(\\	-10540
-08-0	-10541
-1)).	-10542
-16')	-10543
-{}".	-10544
.-]*\	-10545
.153-	-10546
.]'],	-10547
/(?:\	-10548
/;$()	-10549
00014	-10550
00019	-10551
0005'	-10552
00532	-10553
00647	-10554
05-17	-10555
1.100	-10556
10-01	-10557
10323	-10558
105()	-10559
10513	-10560
10635	-10561
12907	-10562
14577	-10563
15258	-10564
16075	-10565
16225	-10566
17380	-10567
19496	-10568
1955>	-10569
1972.	-10570
24217	-10571
25293	-10572
26085	-10573
26264	-10574
27997	-10575
28886	-10576
29394	-10577
3001-	-10578
316',	-10579
31717	-10580
31737	-10581
33197	-10582
333',	-10583
33924	-10584
35364	-10585
40687	-10586
47547	-10587
481](	-10588
48836	-10589
50.20	-10590
53970	-10591
54795	-10592
6.3',	-10593
62974	-10594
64749	-10595
65607	-10596
67272	-10597
68258	-10598
68748	-10599
3+)	-10600
+)['	-10601
(3)),	-10602
69787	-10603
69796	-10604
74049	-10605
79770	-10606
80237	-10607
80411	-10608
80623	-10609
86836	-10610
89127	-10611
9.0',	-10612
90788	-10613
94600	-10614
98127	-10615
99133	-10616
99577	-10617
99800	-10618
://.+	-10619
="*",	-10620
=(192	-10621
=10):	-10622
=19',	-10623
>|]')	-10624
[4:].	-10625
\"]|\	-10626
__))+	-10627
alias	-10628
antlr	-10629
boots	-10630
canon	-10631
cceed	-10632
cihar	-10633
cross	-10634
cryst	-10635
enska	-10636
facin	-10637
gnyuh	-10638
gunic	-10639
hemer	-10640
ipsas	-10641
lersh	-10642
looka	-10643
lorem	-10644
magic	-10645
ndays	-10646
nhere	-10647
percs	-10648
ptemp	-10649
pyjni	-10650
rench	-10651
scala	-10652
simil	-10653
slots	-10654
udhol	-10655
ufact	-10656
uneja	-10657
video	-10658
vimrc	-10659
vulns	-10660
wheel	-10661
winsz	-10662
xdeps	-10663
zulip	-10664
▁"3.8	-10665
▁#402	-10666
▁','.	-10667
▁'0',	-10668
▁'2.6	-10669
▁'_'.	-10670
▁(/<\	-10671
▁(10,	-10672
▁(7.0	-10673
▁-21.	-10674
▁1);\	-10675
▁1.0\	-10676
▁1900	-10677
▁230,	-10678
▁235,	-10679
▁25),	-10680
▁3),)	-10681
▁\$1"	-10682
▁\'{}	-10683
▁ciph	-10684
▁cmds	-10685
▁dctf	-10686
▁dctp	-10687
▁depd	-10688
▁llvm	-10689
▁mcmc	-10690
▁mobi	-10691
▁noqa	-10692
▁nyua	-10693
▁oifs	-10694
▁ryui	-10695
▁surf	-10696
▁swed	-10697
▁tidy	-10698
▁uris	-10699
+8]	-10700
04*	-10701
38]	-10702
391	-10703
vtb	-10704
'([\	-10705
-207	-10706
.'''	-10707
1085	-10708
144*	-10709
1}')	-10710
3.2"	-10711
4348	-10712
5.3"	-10713
9149	-10714
93**	-10715
:0.2	-10716
="""	-10717
\"](	-10718
_0">	-10719
dbaa	-10720
iocs	-10721
khal	-10722
tioc	-10723
▁((%	-10724
▁18,	-10725
▁eqn	-10726
▁kvm	-10727
▁{1}	-10728
-10">	-10729
-2071	-10730
.93**	-10731
25391	-10732
29207	-10733
3.2),	-10734
65431	-10735
8')))	-10736
=...,	-10737
>=0.2	-10738
_0500	-10739
alpha	-10740
ismer	-10741
scape	-10742
sorry	-10743
▁acwb	-10744
▁wthr	-10745
▁yaps	-10746
▁{0}:	-10747
▁~1.0	-10748
'"+"',	-10749
'''([\	-10750
'2016,	-10751
("__")	-10752
('2015	-10753
('?'):	-10754
*)?)",	-10755
-0042.	-10756
-03-08	-10757
-1998;	-10758
/0.2.1	-10759
0-9]+)	-10760
0.20))	-10761
0001',	-10762
0001:\	-10763
000650	-10764
003500	-10765
10272*	-10766
105138	-10767
12|>')	-10768
189536	-10769
1972',	-10770
2.61**	-10771
233167	-10772
235493	-10773
2==2.6	-10774
300034	-10775
300647	-10776
327997	-10777
345597	-10778
346509	-10779
350013	-10780
400019	-10781
414577	-10782
421085	-10783
428811	-10784
434899	-10785
468748	-10786
477967	-10787
480623	-10788
50681*	-10789
579822	-10790
593333	-10791
593364	-10792
599133	-10793
61.100	-10794
635364	-10795
649589	-10796
656074	-10797
658753	-10798
726264	-10799
07/	-10800
07:	-10801
072,	-10802
▁19:	-10803
07/28	-10804
07:07	-10805
freed	-10806
▁sims	-10807
+)?$')	-10808
235495	-10809
740498	-10810
833924	-10811
875366	-10812
9.9999	-10813
910000	-10814
981274	-10815
:00:00	-10816
:59:55	-10817
:8000)	-10818
::.+',	-10819
=2.5.4	-10820
=2.8.0	-10821
==2.45	-10822
==3.1.	-10823
==3.5.	-10824
[5:]))	-10825
[:-1])	-10826
[:-1],	-10827
[:-1]:	-10828
_0240.	-10829
_11.0.	-10830
______	-10831
abusix	-10832
acccca	-10833
adjust	-10834
amrole	-10835
aneous	-10836
artijn	-10837
atmaps	-10838
beware	-10839
bitrar	-10840
cabeza	-10841
chatty	-10842
dersco	-10843
dicate	-10844
effect	-10845
ellipt	-10846
formed	-10847
getcwd	-10848
getdos	-10849
global	-10850
gorith	-10851
gwinsz	-10852
highly	-10853
hyphen	-10854
igauss	-10855
ipchat	-10856
ipping	-10857
ishing	-10858
issued	-10859
johnta	-10860
lipped	-10861
lnutil	-10862
macros	-10863
mantly	-10864
mbdash	-10865
muexrf	-10866
mysqld	-10867
namics	-10868
omixer	-10869
photon	-10870
phylip	-10871
plersh	-10872
plural	-10873
rescan	-10874
rpclib	-10875
semble	-10876
setupt	-10877
shadow	-10878
spacer	-10879
sparam	-10880
suhiko	-10881
though	-10882
udholk	-10883
umaniz	-10884
uraged	-10885
vendor	-10886
volume	-10887
vundle	-10888
wapped	-10889
xdmiod	-10890
yweeks	-10891
{}'.".	-10892
▁"0.4.	-10893
▁"3.5"	-10894
▁"3.8"	-10895
▁#####	-10896
▁#3295	-10897
▁$1}')	-10898
▁'1'},	-10899
$/.	-10900
-21	-10901
4_.	-10902
oeb	-10903
prs	-10904
/$/.	-10905
0816	-10906
0824	-10907
6633	-10908
=(',	-10909
=0):	-10910
dcos	-10911
ebff	-10912
segp	-10913
uvex	-10914
wano	-10915
▁"*.	-10916
▁7],	-10917
▁9){	-10918
20066	-10919
222',	-10920
=""):	-10921
=0)),	-10922
=6633	-10923
[:100	-10924
cachi	-10925
cwano	-10926
ratio	-10927
utral	-10928
xygen	-10929
▁amue	-10930
▁csst	-10931
▁jenk	-10932
▁naom	-10933
▁voca	-10934
▁yaml	-10935
-06-03	-10936
/\/$/.	-10937
146960	-10938
2000-1	-10939
340816	-10940
420066	-10941
68160*	-10942
970824	-10943
=(',',	-10944
[:100]	-10945
atious	-10946
genmod	-10947
pyyaml	-10948
quivos	-10949
stored	-10950
▁'2.6'	-10951
▁'6160	-10952
▁(/<\/	-10953
▁(2014	-10954
▁(7.0)	-10955
▁([#48	-10956
▁**88.	-10957
▁-22.0	-10958
▁0.5.1	-10959
▁19:44	-10960
▁2.0](	-10961
▁22:06	-10962
▁22:09	-10963
▁3.3+)	-10964
▁3072,	-10965
▁4.1',	-10966
▁7/15/	-10967
▁[#160	-10968
▁angle	-10969
▁asked	-10970
▁audit	-10971
▁autog	-10972
▁balke	-10973
▁camel	-10974
▁cdrom	-10975
▁cooki	-10976
▁copia	-10977
▁corta	-10978
▁cross	-10979
▁cudnn	-10980
▁deriv	-10981
▁dumps	-10982
▁endog	-10983
▁epoch	-10984
▁freel	-10985
▁gamma	-10986
▁gives	-10987
▁ideas	-10988
▁ipsum	-10989
▁kuber	-10990
▁lacro	-10991
▁loose	-10992
▁mandr	-10993
▁mhvks	-10994
▁micha	-10995
▁mixin	-10996
▁mjpeg	-10997
▁naman	-10998
▁namit	-10999
▁9*	-11000
/(2*	-11001
2/*.	-11002
3.0\	-11003
="/"	-11004
="/%	-11005
?`__	-11006
cltk	-11007
educ	-11008
▁"_"	-11009
▁'$4	-11010
']=['	-11011
27``,	-11012
>=3.1	-11013
[5:])	-11014
_1"><	-11015
bitmq	-11016
crypt	-11017
metan	-11018
nakes	-11019
▁"-//	-11020
▁))['	-11021
▁crum	-11022
▁drag	-11023
="/"),	-11024
bbitmq	-11025
snakes	-11026
social	-11027
xtcltk	-11028
▁crypt	-11029
▁invol	-11030
▁ipsec	-11031
▁naomi	-11032
▁ndoes	-11033
▁pendu	-11034
▁pysvn	-11035
▁scaff	-11036
▁seqio	-11037
▁sizes	-11038
▁tmpfs	-11039
▁today	-11040
▁utili	-11041
▁weiss	-11042
▁world	-11043
▁wraps	-11044
▁{0}."	-11045
▁{1}'.	-11046
▁~1.0"	-11047
#######	-11048
'726264	-11049
("'008'	-11050
("6.4.2	-11051
(.+?)'/	-11052
(1)}`).	-11053
([0-9])	-11054
)|(\\\\	-11055
.0/24'}	-11056
/(.*)',	-11057
/\&#39;	-11058
0.24.0.	-11059
0067272	-11060
0092():	-11061
0650001	-11062
0680411	-11063
068160*	-11064
08-08-0	-11065
0950316	-11066
0970824	-11067
1063537	-11068
10:59:3	-11069
1525827	-11070
1955>-1	-11071
1==0.1.	-11072
2040687	-11073
2319496	-11074
2529390	-11075
2939411	-11076
3173789	-11077
3319763	-11078
3669787	-11079
4100532	-11080
4910323	-11081
510272*	-11082
5397089	-11083
5933646	-11084
6047796	-11085
6346509	-11086
6543187	-11087
7235495	-11088
7526085	-11089
7977035	-11090
8077173	-11091
8753665	-11092
8912734	-11093
9450096	-11094
9450099	-11095
9477967	-11096
97.93**	-11097
9716075	-11098
9980048	-11099
'/"	-11100
*'/	-11101
2/<	-11102
=4)	-11103
?)/	-11104
[2:	-11105
\2/	-11106
_0"	-11107
_88	-11108
drf	-11109
fdr	-11110
iko	-11111
('->	-11112
+?)/	-11113
3718	-11114
6364	-11115
cott	-11116
ernn	-11117
sfdr	-11118
▁-4)	-11119
▁294	-11120
▁snr	-11121
*'/__	-11122
+?)/$	-11123
3.3.0	-11124
73718	-11125
[2:],	-11126
\1\2/	-11127
_8886	-11128
scott	-11129
sigtt	-11130
today	-11131
▁_('%	-11132
▁tabs	-11133
('->')	-11134
+?)/$'	-11135
166364	-11136
==0.42	-11137
[1:]))	-11138
merged	-11139
mspack	-11140
▁0.8.1	-11141
▁2014,	-11142
▁29457	-11143
▁monit	-11144
▁movie	-11145
▁tabul	-11146
!=1.10.	-11147
7166364	-11148
7371824	-11149
9999998	-11150
=10.3.1	-11151
==0.1.8	-11152
==0.1.9	-11153
==0.4.4	-11154
==0.5.1	-11155
==0.7.2	-11156
==0.8.6	-11157
==1.0.3	-11158
==1.0.7	-11159
==1.2.1	-11160
==2.2.0	-11161
==2.5.0	-11162
==2.5.4	-11163
==2.7.0	-11164
==2.7.2	-11165
==3.7.3	-11166
==4.0.1	-11167
==4.3.2	-11168
>=0.2.0	-11169
[:1:-1]	-11170
accccag	-11171
ageconv	-11172
asctime	-11173
bdutton	-11174
bracket	-11175
byteswa	-11176
cachier	-11177
cebacks	-11178
central	-11179
chained	-11180
chardet	-11181
charset	-11182
cleaned	-11183
cmdargs	-11184
corrupt	-11185
cortado	-11186
couldnt	-11187
crystax	-11188
decimal	-11189
dleware	-11190
eddocks	-11191
elapsed	-11192
encrypt	-11193
enhance	-11194
entropy	-11195
ephemer	-11196
exactly	-11197
exploit	-11198
exports	-11199
=3`	-11200
gtk	-11201
tgt	-11202
0513	-11203
4500	-11204
5012	-11205
::[]	-11206
='[]	-11207
bten	-11208
osxv	-11209
pink	-11210
▁srv	-11211
▁tgt	-11212
('.',	-11213
([1])	-11214
50012	-11215
50411	-11216
=0.68	-11217
===',	-11218
[1])#	-11219
]))),	-11220
_1():	-11221
_2_4.	-11222
_5012	-11223
drain	-11224
ilerp	-11225
ipynb	-11226
nsome	-11227
pixie	-11228
shdot	-11229
tfont	-11230
utoto	-11231
xaxis	-11232
▁1527	-11233
▁5012	-11234
▁okta	-11235
▁sake	-11236
'2015,	-11237
0.9.0,	-11238
150012	-11239
894500	-11240
='[]()	-11241
>=3.0.	-11242
andons	-11243
autoto	-11244
dotsub	-11245
vember	-11246
▁2.8.0	-11247
▁aweso	-11248
▁known	-11249
▁pydot	-11250
▁smith	-11251
']]))),	-11252
('===',	-11253
=0.6826	-11254
==2.8.0	-11255
>=3.0.2	-11256
cmdline	-11257
cordion	-11258
curtain	-11259
ffected	-11260
genbank	-11261
gerblue	-11262
globals	-11263
gorithm	-11264
hensive	-11265
iamrole	-11266
ifempty	-11267
ighbors	-11268
inetrun	-11269
isdigit	-11270
italian	-11271
lapping	-11272
lasagne	-11273
leaking	-11274
librosa	-11275
libyaml	-11276
magenta	-11277
masters	-11278
miscell	-11279
movewhe	-11280
mplernn	-11281
newslet	-11282
prepare	-11283
pyjnius	-11284
pylearn	-11285
receipt	-11286
redcrum	-11287
rehouse	-11288
removal	-11289
restype	-11290
retries	-11291
ropping	-11292
runtime	-11293
scaling	-11294
scponly	-11295
secured	-11296
sigchld	-11297
sigmoid	-11298
sigttin	-11299
021	-11300
0}'	-11301
22:	-11302
261	-11303
485	-11304
822	-11305
848	-11306
96)	-11307
1396	-11308
1826	-11309
2548	-11310
2596	-11311
2699	-11312
:%02	-11313
vuln	-11314
▁28,	-11315
▁3};	-11316
02125	-11317
10261	-11318
26000	-11319
81826	-11320
822',	-11321
82548	-11322
84848	-11323
▁$0}'	-11324
▁java	-11325
112596	-11326
139624	-11327
269987	-11328
626000	-11329
781826	-11330
isodes	-11331
▁3};')	-11332
▁4096)	-11333
0212501	-11334
1026149	-11335
4482548	-11336
848484;	-11337
clicked	-11338
glances	-11339
pisodes	-11340
similar	-11341
smaller	-11342
smbpass	-11343
styling	-11344
succeed	-11345
swapped	-11346
through	-11347
thumbor	-11348
tically	-11349
todense	-11350
toomany	-11351
tornado	-11352
trusted	-11353
venient	-11354
weights	-11355
writing	-11356
xdmiodz	-11357
{}/{}'.	-11358
{}:{}".	-11359
~~~~~~~	-11360
▁"1.0.4	-11361
▁#402):	-11362
▁'#3064	-11363
▁(#389,	-11364
▁**89.5	-11365
▁**98.0	-11366
▁1000))	-11367
▁1000),	-11368
▁10000)	-11369
▁1527-1	-11370
▁19:44:	-11371
▁5.153-	-11372
▁950411	-11373
▁addons	-11374
▁appear	-11375
▁auditd	-11376
▁autore	-11377
▁ayoung	-11378
▁behind	-11379
▁beware	-11380
▁binned	-11381
▁casper	-11382
▁chunks	-11383
▁cloned	-11384
▁codecs	-11385
▁consec	-11386
▁copiar	-11387
▁cortar	-11388
▁cyclic	-11389
▁dehaan	-11390
▁denied	-11391
▁denses	-11392
▁dotest	-11393
▁etreed	-11394
▁explan	-11395
▁facili	-11396
▁french	-11397
▁gentoo	-11398
▁gmtime	-11399
744	-11400
=5)	-11401
gba	-11402
10.0	-11403
1936	-11404
1944	-11405
1972	-11406
5941	-11407
=''"	-11408
='.'	-11409
cabc	-11410
dabc	-11411
sabc	-11412
▁35)	-11413
▁[(-	-11414
▁dfb	-11415
([0])	-11416
33740	-11417
74419	-11418
][0])	-11419
asswd	-11420
catal	-11421
caten	-11422
▁rgba	-11423
▁slip	-11424
2.9999	-11425
410000	-11426
594186	-11427
871944	-11428
=''"):	-11429
abcabc	-11430
deploy	-11431
eldabc	-11432
iframe	-11433
llnull	-11434
spired	-11435
▁:1936	-11436
▁dfbie	-11437
▁grant	-11438
5941863	-11439
8674419	-11440
==0.0.5	-11441
==1.0.5	-11442
catalog	-11443
clauses	-11444
cleared	-11445
cparser	-11446
mbedded	-11447
opasswd	-11448
sorting	-11449
▁gpuinc	-11450
▁graphs	-11451
▁having	-11452
▁hbytes	-11453
▁hegler	-11454
▁hybrid	-11455
▁ifnull	-11456
▁iframe	-11457
▁indeed	-11458
▁inside	-11459
▁juneja	-11460
▁layers	-11461
▁macosx	-11462
▁mailto	-11463
▁mapped	-11464
▁markov	-11465
▁michal	-11466
▁miscpy	-11467
▁months	-11468
▁occurs	-11469
▁opport	-11470
▁passes	-11471
▁rateof	-11472
▁redash	-11473
▁repeat	-11474
▁restri	-11475
▁rootof	-11476
▁scalap	-11477
▁scalat	-11478
▁shadow	-11479
▁sheikh	-11480
▁signed	-11481
▁sockjs	-11482
▁speech	-11483
▁taylor	-11484
▁ticker	-11485
▁ticket	-11486
▁tismer	-11487
▁tmpdir	-11488
▁toxini	-11489
▁trades	-11490
▁traffi	-11491
▁tunnel	-11492
▁uncopi	-11493
▁uptime	-11494
▁whoops	-11495
▁{}/{},	-11496
▁{}/{}:	-11497
#######\	-11498
#@%/;$()	-11499
';'	-11500
)';	-11501
075	-11502
1:-	-11503
754	-11504
>';	-11505
>:\	-11506
]];	-11507
_75	-11508
drm	-11509
''')	-11510
-754	-11511
1:-$	-11512
224,	-11513
8075	-11514
=1.0	-11515
_75_	-11516
mksh	-11517
▁prs	-11518
(224,	-11519
[1]):	-11520
\'';'	-11521
_75_7	-11522
begin	-11523
cumst	-11524
duced	-11525
orsel	-11526
slack	-11527
uffle	-11528
▁-0.5	-11529
▁0.75	-11530
▁4}),	-11531
▁qsus	-11532
▁wasn	-11533
▁{0}.	-11534
418075	-11535
=1.0):	-11536
_75_79	-11537
ducing	-11538
ginate	-11539
mkhome	-11540
unched	-11541
▁qsusb	-11542
▁}''')	-11543
=${1:-$	-11544
getpass	-11545
ircumst	-11546
picture	-11547
shuffle	-11548
uploads	-11549
▁([#347	-11550
▁digest	-11551
▁dolint	-11552
▁locale	-11553
▁morsel	-11554
'7282711	-11555
('-06:00	-11556
('2000-1	-11557
('201806	-11558
(.+?)'/;	-11559
(10)[:1:	-11560
([0-9])/	-11561
))[::-1]	-11562
-06:00')	-11563
-{}-{}".	-11564
0-9]+"$/	-11565
000:1000	-11566
00410000	-11567
00533740	-11568
01:00:00	-11569
05-17-03	-11570
08-08-04	-11571
10-01-01	-11572
10513849	-11573
10833924	-11574
10:59:49	-11575
16635364	-11576
18953623	-11577
19480623	-11578
1==0.1.7	-11579
22939411	-11580
23000650	-11581
23549332	-11582
24300647	-11583
3.269987	-11584
30003403	-11585
39450096	-11586
43489903	-11587
47871944	-11588
50-1998;	-11589
50.203.2	-11590
50894500	-11591
59333324	-11592
61.100",	-11593
64958917	-11594
80400019	-11595
80418075	-11596
9.999999	-11597
91000018	-11598
97024217	-11599
/#{	-11600
162	-11601
16:	-11602
268	-11603
681	-11604
\.)	-11605
\.3	-11606
ttf	-11607
1\.3	-11608
6468	-11609
8924	-11610
="16	-11611
?"),	-11612
\\\.	-11613
isbn	-11614
walk	-11615
zyme	-11616
26817	-11617
=\\\.	-11618
\.)[\	-11619
_0060	-11620
ploit	-11621
rutex	-11622
zymes	-11623
▁'%',	-11624
▁4681	-11625
**[0.,	-11626
-=\\\.	-11627
478924	-11628
646880	-11629
="?"),	-11630
_0060_	-11631
codify	-11632
medium	-11633
regexp	-11634
▁-20.,	-11635
▁ancla	-11636
▁deplo	-11637
▁tried	-11638
+-=\\\.	-11639
0-9]+)\	-11640
8726817	-11641
▁badges	-11642
▁brutex	-11643
▁couldn	-11644
▁errone	-11645
▁nearly	-11646
▁refers	-11647
▁refmin	-11648
80646880	-11649
97762974	-11650
99421085	-11651
='[](){}	-11652
==0.10.1	-11653
==0.15.1	-11654
==0.4.23	-11655
==0.42',	-11656
==0.8.10	-11657
==0.90.1	-11658
==1.0.57	-11659
==1.11.0	-11660
>.+?)/$'	-11661
>=0.23.3	-11662
>=1.15.4	-11663
[^0-9]';	-11664
\"]([^']	-11665
\+-=\\\.	-11666
_008[0].	-11667
_0500_{}	-11668
_75_79'.	-11669
_{0}')),	-11670
abattles	-11671
adatious	-11672
adsnakes	-11673
alliance	-11674
andscape	-11675
angerous	-11676
attgtgat	-11677
autotool	-11678
awsquery	-11679
backbone	-11680
bitcoind	-11681
bustness	-11682
catenate	-11683
connmenu	-11684
continue	-11685
controls	-11686
createdi	-11687
currence	-11688
dgerblue	-11689
diffgeom	-11690
diskless	-11691
entional	-11692
erinputs	-11693
ersploit	-11694
extbokeh	-11695
facingex	-11696
fieldabc	-11697
freedman	-11698
genutils	-11699
144	-11700
▁6)	-11701
-030	-11702
296.	-11703
idea	-11704
oria	-11705
▁'`'	-11706
▁2.7	-11707
▁2.8	-11708
▁6);	-11709
▁60,	-11710
▁sna	-11711
00144	-11712
>=1.4	-11713
>=1.5	-11714
>=5.1	-11715
dcast	-11716
▁apis	-11717
▁gzip	-11718
▁hide	-11719
▁nice	-11720
-0308.	-11721
==0.6.	-11722
>=1.1.	-11723
accept	-11724
ndrine	-11725
odcast	-11726
▁'>=1.	-11727
▁5296.	-11728
▁loria	-11729
▁snake	-11730
▁socke	-11731
0014424	-11732
==0.6.1	-11733
>=1.1.6	-11734
[^0-9]<	-11735
delines	-11736
podcast	-11737
specify	-11738
weather	-11739
▁cython	-11740
▁finite	-11741
▁market	-11742
cgeneral	-11743
greenlet	-11744
gressive	-11745
gunicorn	-11746
hangouts	-11747
ificates	-11748
inactive	-11749
intintro	-11750
islinked	-11751
keplersh	-11752
lacabeza	-11753
lambdash	-11754
loglines	-11755
material	-11756
maxdelay	-11757
metanode	-11758
mmutable	-11759
modifier	-11760
multired	-11761
multisig	-11762
mutation	-11763
nbconfig	-11764
osxtcltk	-11765
parallel	-11766
paramiko	-11767
pecially	-11768
proposal	-11769
qspacket	-11770
racketed	-11771
realtime	-11772
received	-11773
rections	-11774
remities	-11775
retrying	-11776
reviewed	-11777
sentryap	-11778
skipdown	-11779
skipping	-11780
skiptest	-11781
synchron	-11782
tangents	-11783
traverse	-11784
udholkar	-11785
ultimate	-11786
visibles	-11787
webnotes	-11788
▁"'"+"',	-11789
▁"0.5.3"	-11790
▁'#333',	-11791
▁'.*'/__	-11792
▁'0.4.1'	-11793
▁'0.5.2-	-11794
▁'0.9.4'	-11795
▁'>=1.8'	-11796
▁'{}'.".	-11797
▁(#389):	-11798
▁(/\/$/.	-11799
'/'	-11800
/02	-11801
157	-11802
57.	-11803
813	-11804
913	-11805
cfb	-11806
▁?)	-11807
▁?,	-11808
**]\	-11809
/02/	-11810
0057	-11811
1813	-11812
2.5'	-11813
2003	-11814
2357	-11815
9136	-11816
9200	-11817
calc	-11818
cups	-11819
mako	-11820
smtp	-11821
▁$1'	-11822
▁16:	-11823
▁313	-11824
▁50)	-11825
▁8`:	-11826
▁lsb	-11827
('200	-11828
105))	-11829
15731	-11830
18131	-11831
81377	-11832
9136*	-11833
?**]\	-11834
_0240	-11835
ndrin	-11836
smarg	-11837
▁16:5	-11838
▁1949	-11839
▁daph	-11840
▁prin	-11841
()[0],	-11842
/02/17	-11843
009200	-11844
2003-0	-11845
235712	-11846
5.157.	-11847
_0240:	-11848
dryrun	-11849
ellips	-11850
finite	-11851
median	-11852
modgcd	-11853
ndrina	-11854
▁'2.5'	-11855
▁16:58	-11856
▁1949-	-11857
▁cells	-11858
▁regex	-11859
▁tiocs	-11860
▁tower	-11861
▁votes	-11862
1573187	-11863
1813123	-11864
2003-05	-11865
235712*	-11866
ablesip	-11867
calcder	-11868
itories	-11869
venconf	-11870
▁(`#428	-11871
▁daphne	-11872
▁dispon	-11873
▁warner	-11874
12009200	-11875
callable	-11876
dfmemory	-11877
ellipsis	-11878
smargins	-11879
startfin	-11880
trainers	-11881
▁([429](	-11882
▁([463](	-11883
▁([468](	-11884
▁([473](	-11885
▁([474](	-11886
▁([475](	-11887
▁([479](	-11888
▁([481](	-11889
▁([495](	-11890
▁([501](	-11891
▁(`#4162	-11892
▁(`#4262	-11893
▁(`#4271	-11894
▁(`#4272	-11895
▁(`#4273	-11896
▁(`#4283	-11897
▁(`#4303	-11898
▁(`#4305	-11899
=3,	-11900
dfb	-11901
lgo	-11902
7)),	-11903
awso	-11904
nowb	-11905
zeug	-11906
▁(-)	-11907
▁\$$	-11908
▁hdf	-11909
(7)),	-11910
blurb	-11911
fully	-11912
kzeug	-11913
lgomp	-11914
nostd	-11915
optim	-11916
stian	-11917
trize	-11918
▁3)),	-11919
▁\$$"	-11920
▁asdf	-11921
0.9.2,	-11922
cowner	-11923
ingful	-11924
izedde	-11925
▁-1)),	-11926
▁hdfsa	-11927
▁nonce	-11928
▁organ	-11929
▁snowb	-11930
erkzeug	-11931
izeddeg	-11932
lcowner	-11933
ristian	-11934
stoptim	-11935
▁coreff	-11936
▁fedora	-11937
_008[0]`	-11938
nostdlib	-11939
paginate	-11940
redcrumb	-11941
▁(`#4310	-11942
▁**94.67	-11943
▁**98.00	-11944
▁-2.9999	-11945
▁1.12.10	-11946
▁1.12.11	-11947
▁19:44:4	-11948
▁2)>|]')	-11949
▁3/02/17	-11950
▁3781826	-11951
▁3\.7\.3	-11952
▁70000')	-11953
▁[#160](	-11954
▁accepts	-11955
▁appease	-11956
▁archive	-11957
▁asctime	-11958
▁atomicc	-11959
▁attrseq	-11960
▁auditor	-11961
▁augment	-11962
▁autopep	-11963
▁belongs	-11964
▁binding	-11965
▁bitcoin	-11966
▁boilerp	-11967
▁careful	-11968
▁ciphers	-11969
▁climate	-11970
▁concept	-11971
▁condens	-11972
▁cookiec	-11973
▁cronjob	-11974
▁csstidy	-11975
▁descend	-11976
▁enzymes	-11977
▁eoftext	-11978
▁exhaust	-11979
▁fastano	-11980
▁favicon	-11981
▁flexbox	-11982
▁fnmatch	-11983
▁fromutc	-11984
▁grained	-11985
▁granted	-11986
▁hackath	-11987
▁hipchat	-11988
▁hostdao	-11989
▁imaging	-11990
▁inspect	-11991
▁invites	-11992
▁invoice	-11993
▁italics	-11994
▁jupyter	-11995
▁kernels	-11996
▁knowing	-11997
▁leaving	-11998
▁listenr	-11999
)20	-12000
+2)	-12001
.14	-12002
183	-12003
205	-12004
218	-12005
22)	-12006
292	-12007
3*_	-12008
593	-12009
(3*_	-12010
-02)	-12011
18**	-12012
29',	-12013
29**	-12014
3183	-12015
3529	-12016
6795	-12017
8292	-12018
8729	-12019
:22)	-12020
="18	-12021
flag	-12022
▁118	-12023
▁ecs	-12024
▁gpl	-12025
▁pvt	-12026
*")),	-12027
+2)*(	-12028
2-02)	-12029
20026	-12030
21814	-12031
256='	-12032
35296	-12033
descr	-12034
flask	-12035
rexml	-12036
▁'205	-12037
▁0,3,	-12038
▁[1,2	-12039
200265	-12040
256='9	-12041
278729	-12042
356795	-12043
478292	-12044
mopidy	-12045
▁300])	-12046
▁[1,2]	-12047
▁fonts	-12048
▁knife	-12049
▁rexml	-12050
▁treat	-12051
▁visit	-12052
-02-02)	-12053
expdesc	-12054
intflag	-12055
▁behave	-12056
▁jagger	-12057
▁probab	-12058
▁repair	-12059
/*.*")),	-12060
00278729	-12061
10478292	-12062
35679583	-12063
57721814	-12064
freenode	-12065
▁'0.2.2'	-12066
▁2200265	-12067
▁chunked	-12068
▁company	-12069
▁contrib	-12070
▁locales	-12071
▁locally	-12072
▁mainten	-12073
▁martijn	-12074
▁maximum	-12075
▁michael	-12076
▁minutes	-12077
▁monoton	-12078
▁mounted	-12079
▁neutral	-12080
▁offsets	-12081
▁parsing	-12082
▁pidfile	-12083
▁players	-12084
▁pylearn	-12085
▁pytorch	-12086
▁readmer	-12087
▁receipt	-12088
▁receive	-12089
▁remarks	-12090
▁renamed	-12091
▁setnull	-12092
▁sigpipe	-12093
▁simuvex	-12094
▁slicing	-12095
▁smaller	-12096
▁stddevs	-12097
▁streame	-12098
▁stretch	-12099
(-6	-12100
-8"	-12101
-8'	-12102
175	-12103
(10.	-12104
(100	-12105
(124	-12106
(197	-12107
17](	-12108
45',	-12109
500,	-12110
▁'.'	-12111
▁'.3	-12112
▁`17	-12113
▁php	-12114
17'],	-12115
chars	-12116
ulars	-12117
▁500,	-12118
(10.0,	-12119
(1245)	-12120
(1500,	-12121
(1970,	-12122
1.2/</	-12123
928886	-12124
==1.4.	-12125
multip	-12126
noring	-12127
▁'.'),	-12128
angling	-12129
concret	-12130
evision	-12131
exhaust	-12132
ledmult	-12133
pkgutil	-12134
▁docspy	-12135
▁skipif	-12136
▁slimit	-12137
==0.45',	-12138
==1.4.11	-12139
==2.45.0	-12140
eledmult	-12141
evisions	-12142
multiple	-12143
newstyle	-12144
terminal	-12145
▁ericson	-12146
▁subnets	-12147
▁svntool	-12148
▁swedish	-12149
▁systems	-12150
▁timesin	-12151
▁toomany	-12152
▁turning	-12153
▁uniform	-12154
▁uploads	-12155
▁visitor	-12156
▁vpcname	-12157
▁weblate	-12158
▁written	-12159
▁youtube	-12160
#########	-12161
'72626487	-12162
('.')[0])	-12163
/0.1.2/</	-12164
0-9]+)\](	-12165
00000005'	-12166
006727212	-12167
103928886	-12168
139624500	-12169
152582775	-12170
1955>-199	-12171
204068747	-12172
236346509	-12173
24.0/24'}	-12174
251813123	-12175
3001-3500	-12176
317378933	-12177
350013000	-12178
352969098	-12179
370650001	-12180
47068160*	-12181
502529390	-12182
593364632	-12183
604779611	-12184
677526085	-12185
723549526	-12186
754910323	-12187
800410000	-12188
87510272*	-12189
880400019	-12190
97-2001.\	-12191
971607597	-12192
998-2001.	-12193
999999840	-12194
=0.68269,	-12195
==0.2.2']	-12196
==2.3.3.0	-12197
==2.4.3.0	-12198
>[^0-9]';	-12199
28*	-12200
28,	-12201
404	-12202
440	-12203
=$1	-12204
]".	-12205
)))\	-12206
2013	-12207
2014	-12208
404.	-12209
600,	-12210
anlu	-12211
cipe	-12212
lued	-12213
lugs	-12214
relu	-12215
▁3.2	-12216
▁3.6	-12217
▁agg	-12218
▁nlu	-12219
(0,1)	-12220
..../	-12221
="679	-12222
ohttp	-12223
sanlu	-12224
slugs	-12225
ysics	-12226
▁0440	-12227
▁128,	-12228
▁200,	-12229
▁bold	-12230
▁deci	-12231
▁msgs	-12232
▁term	-12233
▁tern	-12234
)))[0]	-12235
etests	-12236
learnt	-12237
luedon	-12238
recipe	-12239
strict	-12240
▁3600,	-12241
▁badly	-12242
▁exits	-12243
▁loops	-12244
▁marks	-12245
▁ranks	-12246
▁termi	-12247
▁terri	-12248
aiohttp	-12249
gignore	-12250
haproxy	-12251
mapexec	-12252
physics	-12253
▁``404.	-12254
▁aggreg	-12255
▁decide	-12256
▁letter	-12257
▁matvec	-12258
▁rewrit	-12259
▁suport	-12260
://..../	-12261
rencyfmt	-12262
▁'0.2.3'	-12263
▁bluedon	-12264
▁markers	-12265
▁primary	-12266
▁rasanlu	-12267
▁refused	-12268
▁suports	-12269
▁termios	-12270
▁ternary	-12271
▁terribe	-12272
_008[0]),	-12273
_0500_{}.	-12274
_10092():	-12275
accccagca	-12276
alchemypy	-12277
arycenter	-12278
asemonkey	-12279
associate	-12280
augmenter	-12281
bitbucket	-12282
blurblogs	-12283
buffering	-12284
cancelled	-12285
ccompiler	-12286
ckmapexec	-12287
committed	-12288
conflicts	-12289
custodian	-12290
decorated	-12291
discounts	-12292
diskcache	-12293
domainexp	-12294
ductionpy	-12295
education	-12296
elementby	-12297
ephemeral	-12298
fillvalue	-12299
087	-12300
gnu	-12301
svg	-12302
▁84	-12303
1764	-12304
=42)	-12305
awar	-12306
tota	-12307
virt	-12308
▁opf	-12309
▁||'	-12310
17642	-12311
dmake	-12312
gnucc	-12313
kitty	-12314
ystem	-12315
▁'').	-12316
▁'0')	-12317
▁**87	-12318
▁idpc	-12319
▁itsd	-12320
617642	-12321
aching	-12322
beread	-12323
makepy	-12324
packet	-12325
ptured	-12326
signin	-12327
totake	-12328
warner	-12329
▁**87.	-12330
▁histo	-12331
▁maxto	-12332
▁media	-12333
1825391	-12334
==1.3.1	-12335
ctsheet	-12336
packets	-12337
pymysql	-12338
rucache	-12339
segmaps	-12340
virtual	-12341
▁commas	-12342
▁gating	-12343
▁maxtoc	-12344
▁rating	-12345
▁shortc	-12346
▁stride	-12347
▁tagger	-12348
▁volume	-12349
12617642	-12350
adjusted	-12351
bereader	-12352
thisdiff	-12353
▁**87.99	-12354
▁showing	-12355
▁waitfor	-12356
001825391	-12357
612617642	-12358
diffmodel	-12359
filterson	-12360
hsversion	-12361
igaussian	-12362
immutable	-12363
ishingpro	-12364
jsonpatch	-12365
linksjson	-12366
migration	-12367
miscutils	-12368
mixfactor	-12369
mkhomedir	-12370
mykeyword	-12371
ncaptured	-12372
nchronize	-12373
newreddit	-12374
nowflakes	-12375
ofmetrics	-12376
olutepath	-12377
oreignkey	-12378
otivation	-12379
overrides	-12380
phenotype	-12381
platforms	-12382
positives	-12383
pretation	-12384
processen	-12385
ptempfile	-12386
qlexecute	-12387
racebacks	-12388
ratelimit	-12389
redirects	-12390
rehensive	-12391
relevance	-12392
seqrecord	-12393
signinout	-12394
simplegui	-12395
snapshots	-12396
ssnippets	-12397
stringtex	-12398
subjectal	-12399
12]	-12400
=2;	-12401
12')	-12402
3412	-12403
912]	-12404
="$2	-12405
bile	-12406
▁">=	-12407
▁(>=	-12408
▁1.3	-12409
▁600	-12410
▁fee	-12411
="$2"	-12412
amili	-12413
spell	-12414
▁(2,6	-12415
▁1.0,	-12416
▁1.0.	-12417
▁5.0.	-12418
▁bare	-12419
▁feel	-12420
▁menu	-12421
▁neat	-12422
▁payp	-12423
▁swit	-12424
famili	-12425
mobile	-12426
mozdef	-12427
▁basho	-12428
▁chose	-12429
▁finds	-12430
▁latex	-12431
3412():	-12432
imobile	-12433
tagging	-12434
▁(2,6):	-12435
▁isnull	-12436
▁latent	-12437
▁paypal	-12438
▁subfmt	-12439
families	-12440
vicename	-12441
▁5.0.6',	-12442
▁subsequ	-12443
claudiajs	-12444
implement	-12445
subsample	-12446
sympykern	-12447
targeting	-12448
tcpclient	-12449
tolibrary	-12450
traceback	-12451
traversal	-12452
uidelines	-12453
undefined	-12454
unwrapped	-12455
uplicated	-12456
varreader	-12457
wgetpaste	-12458
▁"1.0.3",	-12459
▁"<3000",	-12460
▁#848484;	-12461
▁'1.0.71'	-12462
▁'{}/{}'.	-12463
▁([#347](	-12464
▁([#397](	-12465
▁([#417](	-12466
▁([#468](	-12467
▁([#474](	-12468
▁([#475](	-12469
▁([#479](	-12470
▁([#497](	-12471
▁([#507](	-12472
▁10:59:49	-12473
▁1527-155	-12474
▁20:59:55	-12475
▁28912734	-12476
▁36543187	-12477
▁abandons	-12478
▁accepted	-12479
▁affected	-12480
▁although	-12481
▁applying	-12482
▁arbitrar	-12483
▁arquivos	-12484
▁bashoper	-12485
▁benchget	-12486
▁bigtable	-12487
▁binascii	-12488
▁blockgas	-12489
▁breaking	-12490
▁catching	-12491
▁chaincom	-12492
▁channels	-12493
▁claiming	-12494
▁cleanups	-12495
▁computes	-12496
▁contacts	-12497
▁cosmetic	-12498
▁counters	-12499
-35	-12500
049	-12501
={"	-12502
[9,	-12503
\".	-12504
(...	-12505
**2'	-12506
**28	-12507
**49	-12508
-314	-12509
....	-12510
...]	-12511
1034	-12512
3447	-12513
://|	-12514
="49	-12515
=4))	-12516
>`_.	-12517
▁irc	-12518
▁zul	-12519
("://	-12520
(...)	-12521
([[9,	-12522
**2))	-12523
....\	-12524
...]`	-12525
81519	-12526
?://|	-12527
cused	-12528
riple	-12529
▁((2-	-12530
▁0.9.	-12531
▁10))	-12532
▁1080	-12533
▁whee	-12534
-3143.	-12535
049000	-12536
_{}\".	-12537
allown	-12538
spyder	-12539
▁0.9.3	-12540
▁01034	-12541
▁1),))	-12542
▁expir	-12543
▁kdims	-12544
▁vocab	-12545
("://")	-12546
0490009	-12547
3447():	-12548
5781519	-12549
focused	-12550
sigkill	-12551
terface	-12552
▁1080))	-12553
▁impers	-12554
▁triple	-12555
▁wheezy	-12556
▁zulint	-12557
sometime	-12558
sqlparse	-12559
▁complex	-12560
▁engaged	-12561
▁expects	-12562
▁forking	-12563
▁strateg	-12564
049000900	-12565
578151913	-12566
_2}}...]`	-12567
optimizer	-12568
sometimes	-12569
▁([#393])	-12570
▁.......\	-12571
▁complext	-12572
▁dangling	-12573
▁dayweeks	-12574
▁decoding	-12575
▁designed	-12576
▁destruct	-12577
▁dispatch	-12578
▁doctests	-12579
▁donation	-12580
▁embedded	-12581
▁episodes	-12582
▁execinfo	-12583
▁executed	-12584
▁expectan	-12585
▁fallback	-12586
▁fixtures	-12587
▁flagstat	-12588
▁freedman	-12589
▁freedoms	-12590
▁geometry	-12591
▁getswarm	-12592
▁gladinit	-12593
▁gradient	-12594
▁gravatar	-12595
▁hackable	-12596
▁hardcode	-12597
▁hardlink	-12598
▁harfbuzz	-12599
($)	-12600
5."	-12601
=6,	-12602
suf	-12603
')}"	-12604
(_):	-12605
0129	-12606
suho	-12607
umie	-12608
▁-6,	-12609
▁2},	-12610
▁etl	-12611
40129	-12612
>."""	-12613
queue	-12614
ssher	-12615
subie	-12616
urals	-12617
weeps	-12618
▁0.5.	-12619
▁bitt	-12620
▁mltp	-12621
▁zmat	-12622
227837	-12623
alings	-12624
arings	-12625
cities	-12626
levels	-12627
lurals	-12628
olvers	-12629
ppings	-12630
suffix	-12631
sweeps	-12632
▁0.5.2	-12633
▁2.5."	-12634
▁agree	-12635
▁qicon	-12636
==0.9.0	-12637
digraph	-12638
fileobj	-12639
maxiter	-12640
suhosin	-12641
▁'61605	-12642
▁...)``	-12643
▁amuell	-12644
▁daumie	-12645
▁motify	-12646
22783712	-12647
bearings	-12648
iscolumn	-12649
mappings	-12650
ricities	-12651
▁**93.50	-12652
▁2.3.2),	-12653
▁bittner	-12654
▁continu	-12655
▁digraph	-12656
▁enqueue	-12657
▁formset	-12658
▁helpers	-12659
▁humaniz	-12660
▁indents	-12661
▁pygraph	-12662
customize	-12663
elliptics	-12664
itemcount	-12665
maxmodels	-12666
proxylist	-12667
resolvers	-12668
utilities	-12669
▁'61605'}	-12670
▁dealings	-12671
▁dotsubie	-12672
▁grouping	-12673
▁hdfsauto	-12674
▁headless	-12675
▁hgignore	-12676
▁histogra	-12677
▁identify	-12678
▁incorpor	-12679
▁infinite	-12680
▁inspired	-12681
▁instruct	-12682
▁isnested	-12683
▁jobevent	-12684
▁keypress	-12685
▁kubernet	-12686
▁launched	-12687
▁memcache	-12688
▁minidump	-12689
▁multiply	-12690
▁ndarrays	-12691
▁networks	-12692
▁newsznab	-12693
▁nopasswd	-12694
▁normally	-12695
▁nplurals	-12696
▁numalign	-12697
▁oauthlib	-12698
▁occurred	-12699
(5,	-12700
560	-12701
gpu	-12702
slt	-12703
111:	-12704
256_	-12705
=15,	-12706
=["`	-12707
cgit	-12708
nume	-12709
xslt	-12710
▁25)	-12711
▁iee	-12712
ellar	-12713
numel	-12714
▁ieee	-12715
▁patw	-12716
▁patz	-12717
▁psql	-12718
▁taps	-12719
addons	-12720
lrange	-12721
pyfunc	-12722
suring	-12723
▁ebuil	-12724
▁linen	-12725
▁taste	-12726
constan	-12727
sexpand	-12728
ueprint	-12729
ymatrix	-12730
▁fixgui	-12731
▁irange	-12732
▁patzke	-12733
▁ranger	-12734
▁spider	-12735
ationals	-12736
constanc	-12737
lueprint	-12738
pyregion	-12739
sparsegp	-12740
unlocked	-12741
▁ebuilds	-12742
▁fromsql	-12743
▁libxslt	-12744
▁linenos	-12745
▁patwari	-12746
▁resizer	-12747
▁routine	-12748
▁stellar	-12749
▁tastebu	-12750
//)|(\\\\	-12751
==0.8.6']	-12752
filemixin	-12753
idxexists	-12754
processst	-12755
recurrent	-12756
▁actionun	-12757
▁apierror	-12758
▁cmdutils	-12759
▁ensuring	-12760
▁operates	-12761
▁optimize	-12762
▁organism	-12763
▁paginate	-12764
▁paramter	-12765
▁periodic	-12766
▁plotting	-12767
▁populate	-12768
▁prebuilt	-12769
▁prevdiff	-12770
▁printrun	-12771
▁pyflakes	-12772
▁pyswitch	-12773
▁pysystem	-12774
▁qnetwork	-12775
▁qtkernel	-12776
▁qwidgets	-12777
▁rabbitmq	-12778
▁reaching	-12779
▁readling	-12780
▁replaced	-12781
▁replaces	-12782
▁reserved	-12783
▁residual	-12784
▁restrict	-12785
▁reverted	-12786
▁scaffold	-12787
▁sendmail	-12788
▁sessions	-12789
▁shortcut	-12790
▁snowball	-12791
▁solution	-12792
▁somewhat	-12793
▁sparsegp	-12794
▁sqlquote	-12795
▁stralign	-12796
▁strequal	-12797
▁sudolist	-12798
▁suggests	-12799
"/'	-12800
'},	-12801
11_	-12802
211	-12803
811	-12804
_*.	-12805
)'],	-12806
1.11	-12807
8115	-12808
9747	-12809
reee	-12810
tabb	-12811
▁("{	-12812
('/',	-12813
11())	-12814
cinvc	-12815
getcc	-12816
ously	-12817
qtree	-12818
ugous	-12819
▁"3.7	-12820
▁didn	-12821
▁four	-12822
▁skim	-12823
▁{'':	-12824
811586	-12825
974729	-12826
==0.11	-12827
dropna	-12828
getccc	-12829
hgtags	-12830
ibiliy	-12831
meties	-12832
ousand	-12833
unless	-12834
xtreee	-12835
▁"3.7-	-12836
▁facts	-12837
▁keras	-12838
▁skull	-12839
▁verbo	-12840
▁walle	-12841
2114058	-12842
8115860	-12843
fieldst	-12844
tabuser	-12845
▁2.1.11	-12846
▁alters	-12847
▁hosted	-12848
▁iinter	-12849
▁mtools	-12850
▁popups	-12851
▁regreg	-12852
▁stderr	-12853
▁verbos	-12854
00233167	-12855
playbook	-12856
▁dictate	-12857
▁filterd	-12858
▁generic	-12859
▁hosting	-12860
▁masters	-12861
▁pointer	-12862
▁recover	-12863
▁suspend	-12864
▁winrate	-12865
953974729	-12866
allowtabb	-12867
itertools	-12868
maincinvc	-12869
qtreeview	-12870
terminacy	-12871
testtools	-12872
windowwin	-12873
▁biasunit	-12874
▁edittext	-12875
▁programs	-12876
▁recovery	-12877
▁supposed	-12878
▁switched	-12879
▁switches	-12880
▁tabulate	-12881
▁tastebud	-12882
▁telethon	-12883
▁testctoc	-12884
▁textarea	-12885
▁textwrap	-12886
▁thousand	-12887
▁trainers	-12888
▁travisci	-12889
▁trustify	-12890
▁txoutput	-12891
▁ugettext	-12892
▁uixtreee	-12893
▁undersco	-12894
▁unneeded	-12895
▁upgrades	-12896
▁urlparse	-12897
▁utilikit	-12898
▁utilityb	-12899
!'.	-12900
'.\	-12901
32*	-12902
397	-12903
4.$	-12904
972	-12905
dtd	-12906
pks	-12907
wpk	-12908
()'.	-12909
0.1\	-12910
0032	-12911
32':	-12912
3200	-12913
3976	-12914
\'.\	-12915
dnet	-12916
infs	-12917
lobs	-12918
{0}.	-12919
▁#97	-12920
▁dwb	-12921
▁utc	-12922
▁waf	-12923
4.$3.	-12924
5000)	-12925
6032*	-12926
97223	-12927
barri	-12928
blobs	-12929
ogwpk	-12930
poses	-12931
{0}.{	-12932
▁'0.1	-12933
▁0.76	-12934
▁apks	-12935
▁road	-12936
▁room	-12937
▁tune	-12938
4.$3.$	-12939
=5000)	-12940
buster	-12941
distro	-12942
ibsted	-12943
isites	-12944
romain	-12945
sesame	-12946
vertex	-12947
▁'()'.	-12948
▁43200	-12949
▁tries	-12950
5003976	-12951
9722364	-12952
barrier	-12953
libdnet	-12954
lobject	-12955
ogwpkqp	-12956
xmatrix	-12957
▁"{0}.{	-12958
▁(10000	-12959
▁0.0.1\	-12960
▁kubect	-12961
▁libxml	-12962
▁nowrap	-12963
▁parses	-12964
▁romain	-12965
▁united	-12966
▁varies	-12967
▁varlog	-12968
10:59:38	-12969
4.$3.$2.	-12970
chibsted	-12971
opreview	-12972
quisites	-12973
segments	-12974
▁'0.13':	-12975
▁(10000,	-12976
▁exposes	-12977
▁kubectl	-12978
▁loading	-12979
▁obvious	-12980
▁roadmap	-12981
▁typobug	-12982
#@%/;$()~	-12983
000140032	-12984
4.$3.$2.$	-12985
blockdims	-12986
ckoptions	-12987
nopreview	-12988
schibsted	-12989
searchnet	-12990
undprefix	-12991
▁([#501](	-12992
▁mandrill	-12993
▁pysesame	-12994
▁tlobject	-12995
▁vcaptcha	-12996
▁vmobject	-12997
▁werkzeug	-12998
▁workpool	-12999
23:	-13000
tgl	-13001
▁5)	-13002
▁5]	-13003
2300	-13004
_1}}	-13005
blan	-13006
mkdo	-13007
▁"/.	-13008
▁%02	-13009
▁5),	-13010
▁[]:	-13011
▁[]}	-13012
▁fru	-13013
▁mru	-13014
▁sru	-13015
blank	-13016
irsbs	-13017
maven	-13018
ontal	-13019
usual	-13020
▁'/'.	-13021
==0.23	-13022
aconis	-13023
getuid	-13024
▁50000	-13025
▁minib	-13026
▁older	-13027
▁usual	-13028
▁}})</	-13029
7345597	-13030
calling	-13031
divider	-13032
getcall	-13033
izontal	-13034
▁fruity	-13035
▁manger	-13036
▁passwd	-13037
▁upcall	-13038
byteswap	-13039
getcalls	-13040
▁astropy	-13041
▁unusual	-13042
orizontal	-13043
▁customiz	-13044
▁diaconis	-13045
▁startraw	-13046
▁yearbook	-13047
▁~~~~~~~~	-13048
#@%/;$()~_	-13049
'2000-2001	-13050
("6.4.2"):	-13051
('-06:00',	-13052
(10)[:1:-1	-13053
0-9]+)\](?	-13054
0014424501	-13055
10:59:38",	-13056
10:59:49",	-13057
1396245004	-13058
1955>-1996	-13059
2003-05-17	-13060
2919480623	-13061
3001-3500.	-13062
327997952*	-13063
3408165068	-13064
387510272*	-13065
4259980048	-13066
539708928*	-13067
5765478924	-13068
593333241"	-13069
5933646320	-13070
6495891786	-13071
6560741792	-13072
6825864749	-13073
9247345597	-13074
9999998408	-13075
>=1.8,!=1.	-13076
>=1.8,<2']	-13077
[311367476	-13078
_11.0.8-1.	-13079
ablesipset	-13080
ainventory	-13081
alignright	-13082
allstories	-13083
amplesnode	-13084
angularrte	-13085
assignment	-13086
attgtgatcc	-13087
autotoolsp	-13088
badcommand	-13089
badrequest	-13090
baseinline	-13091
bedbrowser	-13092
bootswatch	-13093
cheesecake	-13094
companying	-13095
completely	-13096
complished	-13097
compressed	-13098
containers	-13099
"}}	-13100
653	-13101
9},	-13102
]`.	-13103
voc	-13104
}}'	-13105
):((	-13106
2407	-13107
5'),	-13108
aily	-13109
akul	-13110
lief	-13111
ocus	-13112
thak	-13113
udge	-13114
}}'+	-13115
}}):	-13116
▁"#{	-13117
▁0.1	-13118
▁ros	-13119
24074	-13120
=400)	-13121
?):((	-13122
stemd	-13123
syste	-13124
}}'+_	-13125
▁0.1.	-13126
▁jobs	-13127
▁pene	-13128
▁tail	-13129
anthak	-13130
cached	-13131
joined	-13132
motion	-13133
▁0.9},	-13134
▁accur	-13135
▁among	-13136
▁daily	-13137
▁focus	-13138
▁judge	-13139
▁minid	-13140
▁minim	-13141
▁nakul	-13142
▁revoc	-13143
24074')	-13144
>=1.11,	-13145
indexed	-13146
systemb	-13147
▁)}}'+_	-13148
▁0.1.14	-13149
▁belief	-13150
▁consul	-13151
▁disclo	-13152
▁formse	-13153
▁jquery	-13154
▁pathak	-13155
▁penetr	-13156
▁recurs	-13157
▁rejoin	-13158
▁rosies	-13159
>=1.11,<	-13160
aericson	-13161
anthakis	-13162
decoding	-13163
indexing	-13164
neighbor	-13165
querying	-13166
▁'0.4.2'	-13167
▁errback	-13168
▁httplib	-13169
▁linkify	-13170
▁logbook	-13171
▁notific	-13172
▁sequenc	-13173
▁systemd	-13174
▁traffic	-13175
8324074')	-13176
ilymotion	-13177
kneighbor	-13178
stockholm	-13179
systembus	-13180
▁0.1.14',	-13181
▁accurate	-13182
▁compiled	-13183
▁friendly	-13184
▁interact	-13185
ctionaries	-13186
currentlog	-13187
deintintro	-13188
delacabeza	-13189
deselected	-13190
docstrings	-13191
dodgerblue	-13192
duplicated	-13193
endreached	-13194
entitybold	-13195
entrypoint	-13196
esnotexist	-13197
especially	-13198
esteddocks	-13199
(50	-13200
++'	-13201
.50	-13202
//,	-13203
350	-13204
505	-13205
++':	-13206
.509	-13207
1505	-13208
350_	-13209
50',	-13210
86',	-13211
="50	-13212
=100	-13213
▁{{{	-13214
'''[\	-13215
(504)	-13216
))]))	-13217
//,/"	-13218
==0.4	-13219
==0.7	-13220
_350_	-13221
allet	-13222
fopen	-13223
privi	-13224
wrapp	-13225
▁([],	-13226
▁treq	-13227
1950',	-13228
=10000	-13229
admins	-13230
allets	-13231
condas	-13232
fwidth	-13233
opencl	-13234
pacity	-13235
retrie	-13236
storic	-13237
trying	-13238
ysical	-13239
▁10946	-13240
▁diffi	-13241
▁retry	-13242
=100000	-13243
==0.4.0	-13244
acondas	-13245
fopenmp	-13246
gerunit	-13247
privile	-13248
storica	-13249
updates	-13250
▁diffic	-13251
▁likely	-13252
▁overly	-13253
=1000000	-13254
baseunit	-13255
graphics	-13256
retrieve	-13257
wrappers	-13258
▁'1950',	-13259
▁**98.06	-13260
▁handled	-13261
▁opacity	-13262
▁overall	-13263
▁pallets	-13264
=100000):	-13265
acondaser	-13266
halfwidth	-13267
privilege	-13268
textcolor	-13269
▁initpath	-13270
▁locktime	-13271
▁physical	-13272
=1000000):	-13273
exactlyone	-13274
exhaustive	-13275
fakeremote	-13276
formspacer	-13277
fromscalar	-13278
fromtensor	-13279
fromvalues	-13280
getstringi	-13281
getuniform	-13282
indicesand	-13283
inetrunner	-13284
ingbracket	-13285
initialize	-13286
invalidurl	-13287
izeddegree	-13288
johntaylor	-13289
kneighbors	-13290
logcontext	-13291
makepyfile	-13292
matchpatch	-13293
mirrormode	-13294
mivascript	-13295
multigraph	-13296
ndrangheta	-13297
ndranghete	-13298
newsletter	-13299
244	-13300
24:	-13301
apf	-13302
cxx	-13303
eof	-13304
'])]	-13305
1="$	-13306
24**	-13307
2400	-13308
ildp	-13309
irty	-13310
mmap	-13311
mweb	-13312
tons	-13313
wich	-13314
▁tap	-13315
▁zen	-13316
'))))	-13317
00024	-13318
==1.0	-13319
ermal	-13320
otweb	-13321
▁seem	-13322
▁spam	-13323
-07-09	-13324
centos	-13325
gether	-13326
pendap	-13327
points	-13328
rootof	-13329
tempts	-13330
webapp	-13331
▁level	-13332
▁scala	-13333
==1.9.0	-13334
andwich	-13335
ckspace	-13336
eoftext	-13337
mbining	-13338
zerikho	-13339
▁anyone	-13340
▁childp	-13341
▁navbar	-13342
▁thirty	-13343
▁typeof	-13344
00024000	-13345
97599133	-13346
attempts	-13347
dzerikho	-13348
getchart	-13349
sandwich	-13350
▁mitmweb	-13351
▁needing	-13352
▁opendap	-13353
▁spotweb	-13354
▁testbot	-13355
▁thermal	-13356
▁webform	-13357
+++++++++	-13358
000240004	-13359
946002400	-13360
directive	-13361
lookahead	-13362
▁circumst	-13363
▁runtests	-13364
▁spamuser	-13365
▁together	-13366
appbuilder	-13367
changelink	-13368
npublished	-13369
numresults	-13370
operations	-13371
parseerror	-13372
playlistie	-13373
portnumber	-13374
preparefor	-13375
processors	-13376
qclipboard	-13377
qvalidator	-13378
recurrence	-13379
retryutils	-13380
ronterface	-13381
routetable	-13382
runtimelib	-13383
sentryapiv	-13384
setbuilder	-13385
setservice	-13386
setspacing	-13387
settimeout	-13388
setuptimer	-13389
setvisible	-13390
sexception	-13391
showconfig	-13392
simplejson	-13393
slackbuild	-13394
socialfeed	-13395
sqlalchemy	-13396
sqlexecute	-13397
startfindo	-13398
startlogin	-13399
"${	-13400
apk	-13401
▁]+	-13402
"""1	-13403
''):	-13404
']]:	-13405
:'):	-13406
bump	-13407
tobu	-13408
▁'${	-13409
▁('.	-13410
▁]+\	-13411
▁lot	-13412
()[0]	-13413
)")),	-13414
))[0]	-13415
=''):	-13416
[0]],	-13417
aster	-13418
boxed	-13419
rprop	-13420
sigcl	-13421
tobuf	-13422
▁-2))	-13423
▁//##	-13424
▁]+\$	-13425
▁`"${	-13426
▁acts	-13427
▁bbox	-13428
▁suck	-13429
▁vmod	-13430
adroll	-13431
mailur	-13432
qframe	-13433
sigcld	-13434
utcnow	-13435
ystems	-13436
▁abort	-13437
▁abuse	-13438
▁clust	-13439
▁prere	-13440
▁smmap	-13441
▁topic	-13442
('6.3',	-13443
asteris	-13444
bumpfee	-13445
ffseter	-13446
▁faster	-13447
▁pastie	-13448
▁poster	-13449
▁sblock	-13450
▁vblock	-13451
,!=1.10.	-13452
ablemode	-13453
andboxed	-13454
asterisk	-13455
conftest	-13456
lintertc	-13457
▁0.6.6',	-13458
▁7/15/03	-13459
▁deletes	-13460
▁unorder	-13461
▁~~~~~~~	-13462
*,!=1.10.	-13463
libmspack	-13464
toffseter	-13465
▁([#463](	-13466
▁bboxhead	-13467
▁clusters	-13468
▁contexts	-13469
▁depdends	-13470
▁ordering	-13471
▁protobuf	-13472
▁segfault	-13473
▁suckless	-13474
▁vmodhash	-13475
instanceid	-13476
statusline	-13477
stestmixin	-13478
stoptimers	-13479
stylesheet	-13480
supervised	-13481
tglversion	-13482
throughput	-13483
tiocgwinsz	-13484
toolbutton	-13485
unreviewed	-13486
usererrors	-13487
validators	-13488
vectorized	-13489
widgetwrap	-13490
▁">=3000",	-13491
▁'')=''"):	-13492
▁'(.+?)'/;	-13493
▁'.0/24'),	-13494
▁([#393])(	-13495
▁**87.99**	-13496
▁**88.29**	-13497
▁**92.61**	-13498
▁**93.24**	-13499
fz	-13500
yr	-13501
'""	-13502
7.5	-13503
[2]	-13504
bbs	-13505
flv	-13506
kin	-13507
pfz	-13508
▁`_	-13509
404,	-13510
andy	-13511
bulk	-13512
ebdd	-13513
enne	-13514
gire	-13515
ints	-13516
lccd	-13517
revi	-13518
sher	-13519
stab	-13520
tsan	-13521
vpfz	-13522
▁"",	-13523
▁'".	-13524
▁had	-13525
'""",	-13526
=100,	-13527
kines	-13528
lccdl	-13529
perio	-13530
udget	-13531
ydata	-13532
▁brid	-13533
▁devi	-13534
▁proc	-13535
▁revi	-13536
▁tint	-13537
()[0].	-13538
:0:1}"	-13539
asandy	-13540
byname	-13541
ennequ	-13542
geable	-13543
netloc	-13544
newton	-13545
revive	-13546
sparse	-13547
unique	-13548
▁``$\\	-13549
▁julia	-13550
▁sepec	-13551
▁shift	-13552
▁solid	-13553
▁xvpfz	-13554
:8000](	-13555
==1.7.5	-13556
alanced	-13557
girepos	-13558
groupby	-13559
izepage	-13560
kinesis	-13561
lccdlcd	-13562
periods	-13563
special	-13564
▁budget	-13565
▁commit	-13566
▁dshape	-13567
▁gettra	-13568
▁mocked	-13569
▁procps	-13570
▁pysher	-13571
▁radial	-13572
balanced	-13573
ennequin	-13574
lccdlcdm	-13575
november	-13576
▁definit	-13577
▁deviant	-13578
▁folders	-13579
▁nonzero	-13580
▁revises	-13581
makelists	-13582
purgeable	-13583
▁3\.7\.3"	-13584
▁bridging	-13585
▁coloring	-13586
▁pyobject	-13587
▁sepecify	-13588
▁solidity	-13589
getboolean	-13590
▁**93.92**	-13591
▁**94.67**	-13592
▁**98.00**	-13593
▁1000:1000	-13594
▁10:59:38]	-13595
▁10:59:49]	-13596
▁122783712	-13597
▁2013-11-1	-13598
▁22:06:22)	-13599
('1	-13600
))*	-13601
)][	-13602
igs	-13603
tru	-13604
wri	-13605
▁`.	-13606
();\	-13607
5901	-13608
etag	-13609
itty	-13610
npre	-13611
prod	-13612
rich	-13613
wrie	-13614
▁())	-13615
(5))*	-13616
basin	-13617
crets	-13618
encry	-13619
gland	-13620
micha	-13621
qtile	-13622
vered	-13623
verge	-13624
▁eigs	-13625
▁inds	-13626
▁twin	-13627
▁venv	-13628
\}\}</	-13629
creact	-13630
mytask	-13631
nprepa	-13632
ortype	-13633
▁amend	-13634
▁kitty	-13635
▁swift	-13636
▁theta	-13637
▁traps	-13638
▁twine	-13639
basinho	-13640
bytesio	-13641
creactu	-13642
licated	-13643
michael	-13644
ndjango	-13645
routest	-13646
wrielog	-13647
▁deezer	-13648
▁storin	-13649
2==2.1.0	-13650
entering	-13651
keyerror	-13652
tcattgtg	-13653
▁'1972',	-13654
▁england	-13655
▁lacroix	-13656
▁secrets	-13657
▁tabular	-13658
697965901	-13659
backwards	-13660
buildstep	-13661
metaclass	-13662
nprepared	-13663
▁"1.0.4",	-13664
▁converge	-13665
▁executes	-13666
▁ignoring	-13667
▁libqtile	-13668
encryption	-13669
metaparams	-13670
routestate	-13671
▁22:09:10)	-13672
▁289127344	-13673
▁378182690	-13674
▁\'{}\'';'	-13675
▁accordion	-13676
▁algorithm	-13677
▁amuellers	-13678
▁archlinux	-13679
▁atomicadd	-13680
▁atomiccas	-13681
▁autofixes	-13682
▁backendss	-13683
▁basically	-13684
▁blueprint	-13685
▁botreduce	-13686
▁bredcrumb	-13687
▁broadcast	-13688
▁calcpoint	-13689
▁camelcase	-13690
▁canshould	-13691
▁cassandra	-13692
▁chainercv	-13693
▁christian	-13694
▁codestyle	-13695
▁combining	-13696
▁community	-13697
▁completer	-13698
▁completes	-13699
)(	-13700
;%	-13701
(">	-13702
(''	-13703
('3	-13704
/10	-13705
2).	-13706
3')	-13707
_('	-13708
rfx	-13709
slc	-13710
tou	-13711
▁<<	-13712
▁[4	-13713
▁vd	-13714
('''	-13715
('')	-13716
2)))	-13717
2.16	-13718
9.00	-13719
\\1.	-13720
assp	-13721
exus	-13722
lado	-13723
ries	-13724
ttou	-13725
week	-13726
▁'16	-13727
▁[4]	-13728
▁gar	-13729
▁ofb	-13730
().__	-13731
86-64	-13732
cmdae	-13733
colls	-13734
mpage	-13735
nexus	-13736
rfxtr	-13737
samba	-13738
solar	-13739
sound	-13740
utter	-13741
▁bury	-13742
▁garb	-13743
$19.00	-13744
192.16	-13745
364311	-13746
\\1.\\	-13747
ardown	-13748
colado	-13749
dbtool	-13750
dehaan	-13751
homesp	-13752
mailto	-13753
rfxtrx	-13754
stones	-13755
▁iomat	-13756
▁scott	-13757
2:07:07	-13758
="${_('	-13759
entries	-13760
invoice	-13761
olation	-13762
sigttou	-13763
soundsp	-13764
taining	-13765
▁testpy	-13766
((1,2)))	-13767
192.168.	-13768
>=1.8,<3	-13769
eventlet	-13770
homespun	-13771
▁'\\1.\\	-13772
▁**89.28	-13773
▁**98.01	-13774
▁doctest	-13775
▁factors	-13776
▁garbage	-13777
getstream	-13778
iddleware	-13779
soundspot	-13780
▁12:07:07	-13781
▁formpage	-13782
▁iomatlab	-13783
▁pyrfxtrx	-13784
▁receiver	-13785
▁synapses	-13786
▁teardown	-13787
()])*)?)",	-13788
>=1.8,<3']	-13789
signatures	-13790
▁"192.168.	-13791
▁**89.28**	-13792
▁**98.01**	-13793
▁connected	-13794
▁corrected	-13795
▁cowrielog	-13796
▁crossbone	-13797
▁databases	-13798
▁decentral	-13799
1/	-13800
9'	-13801
:%(	-13802
="5	-13803
hey	-13804
how	-13805
iha	-13806
lei	-13807
lus	-13808
maj	-13809
ooc	-13810
vey	-13811
▁ve	-13812
▁}[	-13813
(3),	-13814
-8")	-13815
32')	-13816
77**	-13817
90**	-13818
[:-7	-13819
`)],	-13820
fork	-13821
pshe	-13822
spas	-13823
unus	-13824
▁({{	-13825
▁-4,	-13826
▁`{{	-13827
▁cer	-13828
▁coh	-13829
▁kok	-13830
▁mus	-13831
▁pow	-13832
)+"'"	-13833
[-1])	-13834
[:-7]	-13835
atars	-13836
majer	-13837
veyor	-13838
▁cohn	-13839
▁plus	-13840
▁sent	-13841
▁xvfb	-13842
anglei	-13843
majeri	-13844
pshelf	-13845
spasce	-13846
unusov	-13847
▁andor	-13848
▁kokor	-13849
▁liter	-13850
▁music	-13851
▁veloc	-13852
==2.10.	-13853
avatars	-13854
otation	-13855
▁cleart	-13856
▁kokoro	-13857
▁linalg	-13858
==2.10.3	-13859
addinput	-13860
ctanglei	-13861
registry	-13862
▁([497](	-13863
▁andorpi	-13864
▁certain	-13865
▁cmajeri	-13866
▁patches	-13867
▁portion	-13868
▁replica	-13869
▁yunusov	-13870
=10.3.1')	-13871
quotation	-13872
▁approute	-13873
▁appveyor	-13874
▁creation	-13875
▁freenode	-13876
▁literals	-13877
▁monitors	-13878
▁playbook	-13879
▁velocity	-13880
\.([0-9])/	-13881
attachment	-13882
capturelog	-13883
dictionary	-13884
namespasce	-13885
▁**84.90**	-13886
▁**94.77**	-13887
▁andorpier	-13888
▁cleartype	-13889
▁delegates	-13890
▁delivered	-13891
▁deprecate	-13892
▁difficult	-13893
▁direction	-13894
▁directive	-13895
▁displayed	-13896
▁dropshelf	-13897
▁envdialog	-13898
▁faciliate	-13899
>`)	-13900
asy	-13901
jan	-13902
mpp	-13903
viz	-13904
}"`	-13905
▁-7	-13906
▁01	-13907
▁5;	-13908
▁ey	-13909
▁wx	-13910
▁{#	-13911
105)	-13912
>.</	-13913
ansm	-13914
ataa	-13915
easy	-13916
eras	-13917
izai	-13918
janu	-13919
loth	-13920
tole	-13921
upid	-13922
▁'';	-13923
▁eth	-13924
aataa	-13925
kizai	-13926
rings	-13927
scrun	-13928
units	-13929
}"`);	-13930
▁20),	-13931
▁20)]	-13932
▁andr	-13933
▁coin	-13934
▁eras	-13935
▁eyew	-13936
▁msys	-13937
▁pent	-13938
▁pins	-13939
▁stra	-13940
▁xmpp	-13941
105)|(	-13942
extras	-13943
getter	-13944
lothar	-13945
mixins	-13946
modela	-13947
ptable	-13948
ryansm	-13949
▁'0.4'	-13950
▁(13.2	-13951
▁hacks	-13952
▁stopp	-13953
january	-13954
modelad	-13955
scrunch	-13956
▁%}">{%	-13957
▁eyewit	-13958
▁stupid	-13959
existing	-13960
toleftof	-13961
▁asserts	-13962
▁coinkit	-13963
▁colados	-13964
▁erasing	-13965
▁fetcher	-13966
▁pentrel	-13967
▁pycairo	-13968
▁sekizai	-13969
irsberror	-13970
▁editorjs	-13971
▁scalapkg	-13972
▁stopping	-13973
▁straight	-13974
▁unlikely	-13975
▁wxwidget	-13976
.,;:'\"]|\	-13977
modeladmin	-13978
termwaiter	-13979
▁droptable	-13980
▁filenames	-13981
▁filtering	-13982
▁freelance	-13983
▁genbranch	-13984
▁generator	-13985
▁getchartx	-13986
▁getdarwin	-13987
▁glyphicon	-13988
▁gradients	-13989
▁guestform	-13990
▁hardcoded	-13991
▁hopefully	-13992
▁htlcowner	-13993
▁inputtype	-13994
▁integrity	-13995
▁jobparams	-13996
▁keylookup	-13997
▁khalendar	-13998
▁landscape	-13999
lm	-14000
|/	-14001
!',	-14002
+",	-14003
0',	-14004
=".	-14005
esc	-14006
hon	-14007
igi	-14008
ske	-14009
|/|	-14010
▁(2	-14011
▁jy	-14012
*\(\	-14013
."))	-14014
2494	-14015
3410	-14016
aris	-14017
mich	-14018
rian	-14019
salt	-14020
sers	-14021
spam	-14022
uigi	-14023
▁():	-14024
▁22*	-14025
▁``(	-14026
▁aid	-14027
▁kfx	-14028
▁oth	-14029
agers	-14030
econn	-14031
honza	-14032
iding	-14033
racad	-14034
romot	-14035
skein	-14036
ulers	-14037
▁[15,	-14038
▁king	-14039
arison	-14040
ateway	-14041
michal	-14042
paired	-14043
viding	-14044
wtform	-14045
▁brian	-14046
▁luigi	-14047
▁schem	-14048
3410():	-14049
abracad	-14050
parsers	-14051
storico	-14052
vpcpeer	-14053
▁others	-14054
▁plasma	-14055
▁promot	-14056
▁rulers	-14057
enggnyuh	-14058
heatmaps	-14059
quantity	-14060
testbase	-14061
textview	-14062
▁gateway	-14063
▁kingdom	-14064
▁mistral	-14065
abracadab	-14066
fenggnyuh	-14067
pydscript	-14068
statusbar	-14069
▁exploits	-14070
▁schemame	-14071
▁shipping	-14072
▁unpaired	-14073
submitting	-14074
vpcpeering	-14075
▁launchers	-14076
▁loadspeed	-14077
▁locations	-14078
▁logsource	-14079
▁lowercase	-14080
▁maintains	-14081
▁mandatory	-14082
▁matchtask	-14083
▁maximized	-14084
▁maxmodels	-14085
▁metaclass	-14086
▁mezzanine	-14087
▁minibatch	-14088
▁mitsuhiko	-14089
▁modelview	-14090
▁modifying	-14091
▁monotonic	-14092
▁mudholkar	-14093
▁multiline	-14094
▁multipart	-14095
▁mutinsert	-14096
▁mutshrink	-14097
▁nbloading	-14098
▁neighbors	-14099
dig	-14100
diy	-14101
orc	-14102
oth	-14103
xid	-14104
▁`[	-14105
((4,	-14106
()',	-14107
:)/;	-14108
[1:]	-14109
])])	-14110
linf	-14111
pdiy	-14112
unto	-14113
▁2).	-14114
▁ipt	-14115
▁nms	-14116
▁wcs	-14117
.12.0	-14118
256',	-14119
cript	-14120
entad	-14121
iling	-14122
onate	-14123
recon	-14124
unorc	-14125
▁".")	-14126
▁alex	-14127
▁anew	-14128
▁anno	-14129
▁demo	-14130
▁jaco	-14131
▁plan	-14132
▁qurl	-14133
▁thus	-14134
9999])	-14135
arpack	-14136
cripts	-14137
dbbind	-14138
endian	-14139
linfob	-14140
mktemp	-14141
mopdiy	-14142
mounto	-14143
pentad	-14144
▁$2}')	-14145
▁0.7.1	-14146
▁2.0',	-14147
▁curse	-14148
▁jacob	-14149
▁rsync	-14150
▁weird	-14151
.12.04_	-14152
fgcolor	-14153
subnets	-14154
▁announ	-14155
▁jacobs	-14156
▁oldpos	-14157
▁tiling	-14158
dictions	-14159
linfobar	-14160
sscripts	-14161
subtypes	-14162
workpool	-14163
▁pdbbind	-14164
▁rpmlint	-14165
▁sending	-14166
malformed	-14167
pentadact	-14168
reconcili	-14169
unicodify	-14170
▁9.999999	-14171
▁announce	-14172
▁appended	-14173
▁curseall	-14174
dictconfig	-14175
pentadacty	-14176
▁custodian	-14177
▁observers	-14178
▁odzerikho	-14179
▁operating	-14180
▁operators	-14181
▁ourselves	-14182
▁packagers	-14183
▁padatious	-14184
▁particles	-14185
▁passwords	-14186
▁phenotype	-14187
▁pipeinput	-14188
▁pipelined	-14189
▁populated	-14190
▁positions	-14191
▁precluded	-14192
▁preferred	-14193
▁promotion	-14194
▁providing	-14195
▁provision	-14196
▁pygobject	-14197
▁pyimaging	-14198
▁qsettings	-14199
0">	-14200
70)	-14201
='.	-14202
?')	-14203
bpy	-14204
cot	-14205
elt	-14206
enn	-14207
idd	-14208
ond	-14209
pyb	-14210
pyi	-14211
rab	-14212
sll	-14213
spl	-14214
spy	-14215
vil	-14216
▁"@	-14217
▁"~	-14218
▁#}	-14219
▁es	-14220
▁ow	-14221
▁rb	-14222
)));	-14223
=70)	-14224
enny	-14225
hidd	-14226
ilon	-14227
rase	-14228
▁"49	-14229
▁"~/	-14230
▁(%%	-14231
▁</>	-14232
▁fid	-14233
▁gax	-14234
▁inf	-14235
▁sil	-14236
2.3.0	-14237
="0">	-14238
amond	-14239
fered	-14240
iname	-14241
isdir	-14242
mbine	-14243
metal	-14244
rabic	-14245
rispy	-14246
sevil	-14247
vecot	-14248
▁expr	-14249
▁howe	-14250
▁outd	-14251
▁owen	-14252
▁rbac	-14253
▁scan	-14254
▁word	-14255
▁xpyb	-14256
phrase	-14257
{1,3}'	-14258
▁20))]	-14259
▁fiddl	-14260
▁newly	-14261
▁penny	-14262
▁silly	-14263
=0.90.1	-14264
combine	-14265
diamond	-14266
dovecot	-14267
epsilon	-14268
hiddens	-14269
▁arabic	-14270
▁crispy	-14271
▁getter	-14272
▁labels	-14273
mulation	-14274
pyqtslot	-14275
▁however	-14276
▁offered	-14277
==2.2.3.0	-14278
superview	-14279
timezones	-14280
▁fiddling	-14281
▁outdated	-14282
▁outlined	-14283
▁scanning	-14284
concretize	-14285
references	-14286
tabdefault	-14287
▁**93.18**	-14288
▁emulation	-14289
▁qthelpers	-14290
▁rackspace	-14291
▁rationals	-14292
▁ravenconf	-14293
▁rdfmemory	-14294
▁readmerst	-14295
▁recommend	-14296
▁recursion	-14297
▁redirects	-14298
▁regarding	-14299
.;	-14300
/3	-14301
qb	-14302
2])	-14303
=.;	-14304
]],	-14305
deb	-14306
dee	-14307
pil	-14308
qbh	-14309
(?=\	-14310
."};	-14311
6'):	-14312
atts	-14313
cona	-14314
isho	-14315
itha	-14316
mugc	-14317
offi	-14318
qbhc	-14319
terr	-14320
usum	-14321
▁!==	-14322
▁022	-14323
▁ban	-14324
▁dow	-14325
▁rot	-14326
-16',	-14327
genom	-14328
ishop	-14329
lenux	-14330
nside	-14331
▁1.0;	-14332
▁22])	-14333
▁30),	-14334
▁7]],	-14335
▁cant	-14336
102000	-14337
deezer	-14338
feqbhc	-14339
ipated	-14340
ithaca	-14341
mocker	-14342
sirver	-14343
terror	-14344
valent	-14345
▁datas	-14346
▁death	-14347
▁jumps	-14348
▁xdist	-14349
==3.0.0	-14350
addatts	-14351
hfeqbhc	-14352
ivalent	-14353
offices	-14354
percona	-14355
proport	-14356
▁0.3.0\	-14357
▁banner	-14358
▁bishop	-14359
▁glenux	-14360
▁gpusum	-14361
▁mozdef	-14362
genomics	-14363
icipated	-14364
▁derived	-14365
▁monitor	-14366
▁organiz	-14367
▁threats	-14368
==0.8.7']	-14369
animation	-14370
bernoulli	-14371
foldersum	-14372
formatted	-14373
quivalent	-14374
ticipated	-14375
zyhfeqbhc	-14376
▁cleanall	-14377
▁commonly	-14378
▁downside	-14379
▁gettitle	-14380
▁parallel	-14381
extraction	-14382
foldersums	-14383
proportion	-14384
splitsizes	-14385
▁**93.50**	-14386
▁reinstate	-14387
▁replcache	-14388
▁rerunning	-14389
▁retaining	-14390
▁returning	-14391
▁revisions	-14392
▁rewritten	-14393
▁sandboxed	-14394
▁scheduled	-14395
▁scmupdate	-14396
▁selecting	-14397
▁senseless	-14398
▁separated	-14399
!!	-14400
)5	-14401
,%	-14402
2`	-14403
5_	-14404
6"	-14405
8*	-14406
8:	-14407
@'	-14408
ay	-14409
hu	-14410
zu	-14411
{@	-14412
32)	-14413
`):	-14414
jmp	-14415
ocl	-14416
zuo	-14417
▁[$	-14418
▁fu	-14419
▁ln	-14420
">{{	-14421
']):	-14422
3856	-14423
=(4,	-14424
={!!	-14425
aday	-14426
also	-14427
chas	-14428
dies	-14429
jmpc	-14430
mbly	-14431
nize	-14432
oclc	-14433
reke	-14434
zuoy	-14435
▁'33	-14436
▁'@'	-14437
▁--"	-14438
▁`{@	-14439
===')	-14440
gment	-14441
obase	-14442
rekel	-14443
unsat	-14444
zuoye	-14445
▁fuck	-14446
▁osxb	-14447
▁qout	-14448
/0.3.1	-14449
==0.24	-14450
araday	-14451
sembly	-14452
▁alter	-14453
▁aoclc	-14454
▁stamp	-14455
atedata	-14456
dernize	-14457
faraday	-14458
graphql	-14459
searial	-14460
unbound	-14461
unsatis	-14462
▁'===')	-14463
▁krekel	-14464
▁trying	-14465
▁userid	-14466
57982211	-14467
filesize	-14468
fragment	-14469
frfailed	-14470
▁binning	-14471
▁calling	-14472
▁doxygen	-14473
▁gotchas	-14474
▁miobase	-14475
▁playing	-14476
▁preview	-14477
/0.3.1/</	-14478
>=1.9.0',	-14479
unsatisfi	-14480
▁acwbjmpc	-14481
▁assembly	-14482
▁binnings	-14483
▁homebrew	-14484
faradaydao	-14485
foundation	-14486
withsecret	-14487
▁appserver	-14488
▁modernize	-14489
▁osxbundle	-14490
▁questions	-14491
▁separator	-14492
▁shortcuts	-14493
▁shrinking	-14494
▁signature	-14495
▁simplernn	-14496
▁situation	-14497
▁slackware	-14498
▁smasensor	-14499
(/	-14500
(4	-14501
)[	-14502
-'	-14503
/,	-14504
3<	-14505
8)	-14506
81	-14507
>_	-14508
cb	-14509
dc	-14510
dg	-14511
dh	-14512
yb	-14513
(/^	-14514
+/,	-14515
215	-14516
89,	-14517
="\	-14518
_1"	-14519
adb	-14520
big	-14521
kvm	-14522
▁fk	-14523
▁hh	-14524
"]}/	-14525
(/\?	-14526
(/^"	-14527
(4):	-14528
**42	-14529
+/,'	-14530
>_`)	-14531
exts	-14532
noth	-14533
scii	-14534
xmat	-14535
▁"%:	-14536
▁17*	-14537
▁249	-14538
▁avo	-14539
▁mlf	-14540
▁und	-14541
▁xdg	-14542
(/^"[	-14543
)])):	-14544
="\1"	-14545
filme	-14546
flake	-14547
iases	-14548
ignor	-14549
rices	-14550
usion	-14551
▁avoi	-14552
)[7:11	-14553
=:99.0	-14554
ariadb	-14555
cember	-14556
▁2018)	-14557
▁ascii	-14558
▁never	-14559
▁reame	-14560
▁undid	-14561
)[7:11]	-14562
+/,'');	-14563
aliases	-14564
fnmatch	-14565
members	-14566
nothing	-14567
rewrite	-14568
secreth	-14569
▁!(/^"[	-14570
▁causes	-14571
▁exited	-14572
▁mlflow	-14573
▁pyyaml	-14574
december	-14575
getglyph	-14576
ignoring	-14577
keypoint	-14578
matrices	-14579
▁avoided	-14580
▁awesome	-14581
▁mariadb	-14582
▁matdims	-14583
▁tensors	-14584
▁([#473](	-14585
▁disallow	-14586
215==0.6.0	-14587
secrethash	-14588
ubkeypoint	-14589
▁confusion	-14590
▁generates	-14591
▁requested	-14592
▁snakecase	-14593
▁snapshots	-14594
▁statusbar	-14595
▁structure	-14596
▁subdomain	-14597
▁subfolder	-14598
▁subgroups	-14599
!\	-14600
0=	-14601
:3	-14602
\]	-14603
rp	-14604
.</	-14605
_):	-14606
alo	-14607
byo	-14608
fat	-14609
kka	-14610
xrp	-14611
yet	-14612
1000	-14613
61**	-14614
:1.0	-14615
;.</	-14616
athe	-14617
byou	-14618
msys	-14619
palo	-14620
yeti	-14621
▁"41	-14622
▁11*	-14623
▁arr	-14624
▁fig	-14625
▁mis	-14626
)}}'.	-14627
:1.05	-14628
chown	-14629
fatal	-14630
itect	-14631
onder	-14632
pream	-14633
rpath	-14634
scipy	-14635
▁"###	-14636
▁"*",	-14637
▁%}{%	-14638
▁wget	-14639
807777	-14640
[1])),	-14641
mamoto	-14642
quotes	-14643
refuse	-14644
▁^\[\]	-14645
▁lacks	-14646
▁leave	-14647
▁pykka	-14648
autopep	-14649
vectors	-14650
▁beacon	-14651
▁escape	-14652
▁extant	-14653
▁figure	-14654
▁missed	-14655
▁strong	-14656
▁wonder	-14657
2920704*	-14658
_8886():	-14659
itecture	-14660
preamble	-14661
▁"0.4.1"	-14662
▁beacons	-14663
canonical	-14664
▁________	-14665
▁websites	-14666
▁yamamoto	-14667
snowflakes	-14668
webbrowser	-14669
▁**96.61**	-14670
▁**98.06**	-14671
▁gathering	-14672
▁isolation	-14673
▁minimally	-14674
▁svnpoller	-14675
▁symmetric	-14676
▁sympykern	-14677
▁templates	-14678
▁terminals	-14679
▁testparse	-14680
▁testslave	-14681
▁timesince	-14682
▁transport	-14683
▁traversal	-14684
▁travisyml	-14685
▁typemixin	-14686
▁typically	-14687
▁undefined	-14688
▁unloading	-14689
▁unordered	-14690
▁unremoved	-14691
▁urlencode	-14692
▁urlprefix	-14693
▁usability	-14694
▁useragent	-14695
▁utcoffset	-14696
▁vhostname	-14697
▁voluntary	-14698
▁webconfig	-14699
(9	-14700
:(	-14701
;)	-14702
>$	-14703
dm	-14704
ee	-14705
fq	-14706
ga	-14707
hx	-14708
sx	-14709
xi	-14710
"};	-14711
1':	-14712
\',	-14713
bcf	-14714
daa	-14715
ham	-14716
qdm	-14717
▁bc	-14718
▁hi	-14719
(90,	-14720
-{}.	-14721
8942	-14722
='',	-14723
aved	-14724
clar	-14725
ddaa	-14726
done	-14727
flds	-14728
then	-14729
tvie	-14730
▁1):	-14731
▁112	-14732
▁21*	-14733
▁\;)	-14734
▁dga	-14735
▁dhx	-14736
▁mlp	-14737
▁sip	-14738
▁sit	-14739
▁sun	-14740
logit	-14741
lored	-14742
scene	-14743
under	-14744
▁2048	-14745
▁dbpy	-14746
▁hier	-14747
▁nate	-14748
▁tqdm	-14749
▁}]);	-14750
fgfeed	-14751
ginary	-14752
gittip	-14753
graham	-14754
▁2.2.0	-14755
▁2016,	-14756
▁2048,	-14757
▁saved	-14758
▁spans	-14759
==4.1.2	-14760
inlines	-14761
italics	-14762
itution	-14763
wnormal	-14764
▁dbtvie	-14765
▁declar	-14766
imgraham	-14767
linkedin	-14768
▁colored	-14769
▁hackers	-14770
▁leaking	-14771
▁testpep	-14772
▁workdir	-14773
)(?:/(?:\	-14774
continued	-14775
imaginary	-14776
operators	-14777
startfile	-14778
stitution	-14779
underline	-14780
workclass	-14781
▁([#506](	-14782
▁hierarch	-14783
▁nonascii	-14784
▁sigmoidf	-14785
▁telegram	-14786
continuedl	-14787
shownormal	-14788
▁hierarchy	-14789
▁timgraham	-14790
▁xanthakis	-14791
▁xmlrpclib	-14792
▁xmlrunner	-14793
▁ycmcorepy	-14794
▁{0}.)}}'.	-14795
#@%/;$()~_?	-14796
'0525230106	-14797
'7282711'],	-14798
('#########	-14799
!)	-14800
84	-14801
:-	-14802
;/	-14803
_(	-14804
_`	-14805
bt	-14806
fh	-14807
pl	-14808
rs	-14809
vw	-14810
xe	-14811
}:	-14812
10*	-14813
5">	-14814
>[:	-14815
gid	-14816
hql	-14817
lds	-14818
llf	-14819
sid	-14820
who	-14821
▁'+	-14822
▁2]	-14823
▁md	-14824
6]')	-14825
=[])	-14826
asds	-14827
efan	-14828
iles	-14829
ppco	-14830
vial	-14831
▁-3.	-14832
▁1",	-14833
▁emp	-14834
▁mur	-14835
▁oct	-14836
▁pss	-14837
10*60	-14838
artin	-14839
ching	-14840
outfh	-14841
rsist	-14842
▁flds	-14843
▁nath	-14844
asdsad	-14845
lfiles	-14846
martin	-14847
ortran	-14848
packed	-14849
plains	-14850
pubsub	-14851
▁-3.].	-14852
▁cppco	-14853
▁finer	-14854
▁serem	-14855
elfiles	-14856
fortran	-14857
openlog	-14858
selects	-14859
▁-10*60	-14860
▁acting	-14861
▁murphy	-14862
▁nathan	-14863
▁rxdeps	-14864
▁stefan	-14865
makedire	-14866
nocursor	-14867
rsistent	-14868
▁caching	-14869
▁closing	-14870
▁merging	-14871
▁subject	-14872
▁trivial	-14873
▁cppcoreg	-14874
▁emphasis	-14875
▁explains	-14876
▁pickable	-14877
▁tablefmt	-14878
documented	-14879
namedtuple	-14880
virtualbox	-14881
▁scalatest	-14882
▁verbosity	-14883
▁viewjails	-14884
*,!=1.10.*'	-14885
/\&#39;/'/;	-14886
00672721211	-14887
127.0.0.1',	-14888
12907003500	-14889
14696054795	-14890
1955>-1996;	-14891
29152582775	-14892
311367476])	-14893
4.$3.$2.$1.	-14894
47502529390	-14895
60946002400	-14896
80418075227	-14897
998-2001.',	-14898
://.+::.+',	-14899
"\	-14900
'^	-14901
-*	-14902
:[	-14903
>|	-14904
_;	-14905
gb	-14906
tm	-14907
{"	-14908
//;	-14909
01,	-14910
=64	-14911
daf	-14912
fcb	-14913
pyg	-14914
uwi	-14915
▁')	-14916
▁'?	-14917
▁*,	-14918
▁<7	-14919
▁oh	-14920
="",	-14921
=0``	-14922
=644	-14923
>|")	-14924
fdaf	-14925
ingw	-14926
osed	-14927
rans	-14928
tiny	-14929
unct	-14930
▁$_;	-14931
▁bid	-14932
▁dsb	-14933
▁ndb	-14934
▁rbf	-14935
▁sec	-14936
)()))	-14937
...'.	-14938
1.1',	-14939
funct	-14940
mingw	-14941
pango	-14942
untar	-14943
▁"***	-14944
▁<727	-14945
▁invo	-14946
▁pset	-14947
>=0.10	-14948
functi	-14949
leaves	-14950
liable	-14951
reated	-14952
uwimap	-14953
▁0.01,	-14954
▁0.8.2	-14955
▁<7271	-14956
▁cname	-14957
▁fixer	-14958
▁getsp	-14959
▁optim	-14960
▁shlex	-14961
='1.1',	-14962
lassifi	-14963
ortrans	-14964
▁defkey	-14965
▁highly	-14966
▁invoke	-14967
▁pubkey	-14968
▁secure	-14969
▁transl	-14970
composed	-14971
oauthlib	-14972
pygments	-14973
▁expired	-14974
▁getsite	-14975
▁pvector	-14976
▁treated	-14977
▁trimmed	-14978
atortrans	-14979
lassifier	-14980
▁<7271496	-14981
▁cropping	-14982
▁recorder	-14983
▁reliable	-14984
iatortrans	-14985
setstretch	-14986
▁<7271496+	-14987
▁automatic	-14988
▁finiteset	-14989
▁qtwidgets	-14990
▁untrusted	-14991
[4780659225	-14992
ablesipsets	-14993
abracadabra	-14994
admininline	-14995
adomwrapper	-14996
ateresource	-14997
basehandler	-14998
channelsabc	-14999
"%	-15000
'[	-15001
.)	-15002
.<	-15003
1-	-15004
bd	-15005
jm	-15006
lp	-15007
tf	-15008
:`8	-15009
ink	-15010
ksh	-15011
mmp	-15012
saf	-15013
▁'\	-15014
"]])	-15015
57')	-15016
:`8`	-15017
cref	-15018
lead	-15019
mand	-15020
mmer	-15021
mmps	-15022
oint	-15023
road	-15024
▁"##	-15025
▁dol	-15026
▁nlp	-15027
▁wtf	-15028
('').	-15029
957')	-15030
julia	-15031
lider	-15032
osink	-15033
otfix	-15034
polib	-15035
safet	-15036
▁[-1]	-15037
▁bint	-15038
▁najm	-15039
▁tmux	-15040
:43110	-15041
>=1.2.	-15042
consec	-15043
glider	-15044
incref	-15045
jagger	-15046
▁bayes	-15047
▁brows	-15048
▁dlist	-15049
▁dolor	-15050
▁prefs	-15051
▁solve	-15052
▁tween	-15053
:43110/	-15054
>=1.2.4	-15055
packing	-15056
stemmer	-15057
▁funcit	-15058
▁hotfix	-15059
▁lammps	-15060
▁onload	-15061
imported	-15062
▁'0.5.1'	-15063
▁appoint	-15064
▁copying	-15065
▁readers	-15066
▁reading	-15067
▁unsafet	-15068
:43110/13	-15069
mandatory	-15070
▁browsing	-15071
▁funciton	-15072
▁outpoint	-15073
▁ultimate	-15074
dndkmuexrf	-15075
▁197599133	-15076
▁soversion	-15077
▁testpylab	-15078
chatmessage	-15079
clearoutput	-15080
clientmixin	-15081
cloudnative	-15082
componentid	-15083
concatenate	-15084
constancies	-15085
constructor	-15086
controllers	-15087
currentdata	-15088
dailymotion	-15089
datacolumns	-15090
directional	-15091
elapsedtime	-15092
elementbyid	-15093
exploration	-15094
extremeties	-15095
extremities	-15096
fakefactory	-15097
feedfavicon	-15098
filesystems	-15099
)`	-15100
,\	-15101
3;	-15102
<!	-15103
\)	-15104
cn	-15105
'[1	-15106
**/	-15107
25:	-15108
3*>	-15109
bfa	-15110
des	-15111
rus	-15112
▁.1	-15113
/*',	-15114
2.6"	-15115
fitc	-15116
math	-15117
once	-15118
veis	-15119
▁43;	-15120
▁dig	-15121
▁fcn	-15122
▁qta	-15123
▁ron	-15124
▁smb	-15125
('.'.	-15126
edges	-15127
erces	-15128
errit	-15129
pyrus	-15130
saved	-15131
▁('<!	-15132
▁0)])	-15133
▁100,	-15134
▁500;	-15135
▁bear	-15136
▁coar	-15137
▁conv	-15138
▁hmac	-15139
▁libn	-15140
▁mind	-15141
▁nout	-15142
())[0]	-15143
__))))	-15144
bridge	-15145
[...]
